{
  "version": "1.0",
  "truncation": null,
  "padding": null,
  "added_tokens": [
    {
      "id": 0,
      "special": true,
      "content": "<UNK>",
      "single_word": false,
      "lstrip": false,
      "rstrip": false,
      "normalized": false
    },
    {
      "id": 1,
      "special": true,
      "content": "<SEP>",
      "single_word": false,
      "lstrip": false,
      "rstrip": false,
      "normalized": false
    },
    {
      "id": 2,
      "special": true,
      "content": "<MASK>",
      "single_word": false,
      "lstrip": false,
      "rstrip": false,
      "normalized": false
    },
    {
      "id": 3,
      "special": true,
      "content": "<CLS>",
      "single_word": false,
      "lstrip": false,
      "rstrip": false,
      "normalized": false
    }
  ],
  "normalizer": null,
  "pre_tokenizer": {
    "type": "Whitespace"
  },
  "post_processor": null,
  "decoder": null,
  "model": {
    "type": "BPE",
    "dropout": null,
    "unk_token": "<UNK>",
    "continuing_subword_prefix": null,
    "end_of_word_suffix": null,
    "fuse_unk": false,
    "vocab": {
      "<UNK>": 0,
      "<SEP>": 1,
      "<MASK>": 2,
      "<CLS>": 3,
      "!": 4,
      "\"": 5,
      "%": 6,
      "'": 7,
      "(": 8,
      ")": 9,
      "*": 10,
      "+": 11,
      ",": 12,
      "-": 13,
      ".": 14,
      "/": 15,
      "0": 16,
      "1": 17,
      "2": 18,
      "3": 19,
      "4": 20,
      "5": 21,
      "6": 22,
      "7": 23,
      "8": 24,
      "9": 25,
      ":": 26,
      ";": 27,
      "=": 28,
      "?": 29,
      "A": 30,
      "B": 31,
      "C": 32,
      "D": 33,
      "E": 34,
      "F": 35,
      "G": 36,
      "H": 37,
      "I": 38,
      "J": 39,
      "K": 40,
      "L": 41,
      "M": 42,
      "N": 43,
      "O": 44,
      "P": 45,
      "Q": 46,
      "R": 47,
      "S": 48,
      "T": 49,
      "U": 50,
      "V": 51,
      "W": 52,
      "X": 53,
      "Y": 54,
      "Z": 55,
      "a": 56,
      "b": 57,
      "c": 58,
      "d": 59,
      "e": 60,
      "f": 61,
      "g": 62,
      "h": 63,
      "i": 64,
      "j": 65,
      "k": 66,
      "l": 67,
      "m": 68,
      "n": 69,
      "o": 70,
      "p": 71,
      "q": 72,
      "r": 73,
      "s": 74,
      "t": 75,
      "u": 76,
      "v": 77,
      "w": 78,
      "x": 79,
      "y": 80,
      "z": 81,
      "|": 82,
      "Â": 83,
      "Ç": 84,
      "Î": 85,
      "Ö": 86,
      "Ü": 87,
      "â": 88,
      "ç": 89,
      "è": 90,
      "é": 91,
      "ö": 92,
      "û": 93,
      "ü": 94,
      "Ğ": 95,
      "ğ": 96,
      "İ": 97,
      "ı": 98,
      "Ş": 99,
      "ş": 100,
      "—": 101,
      "’": 102,
      "“": 103,
      "”": 104,
      "■": 105,
      "ar": 106,
      "er": 107,
      "an": 108,
      "in": 109,
      "en": 110,
      "ın": 111,
      "ir": 112,
      "de": 113,
      "lar": 114,
      "il": 115,
      "da": 116,
      "ma": 117,
      "ya": 118,
      "la": 119,
      "el": 120,
      "ek": 121,
      "or": 122,
      "ka": 123,
      "un": 124,
      "di": 125,
      "bir": 126,
      "ak": 127,
      "et": 128,
      "ler": 129,
      "dı": 130,
      "ol": 131,
      "lı": 132,
      "on": 133,
      "le": 134,
      "im": 135,
      "ün": 136,
      "tı": 137,
      "ve": 138,
      "ur": 139,
      "iz": 140,
      "iy": 141,
      "ta": 142,
      "es": 143,
      "ba": 144,
      "sa": 145,
      "ha": 146,
      "li": 147,
      "iş": 148,
      "em": 149,
      "sı": 150,
      "ür": 151,
      "du": 152,
      "bu": 153,
      "ey": 154,
      "is": 155,
      "mı": 156,
      "ra": 157,
      "den": 158,
      "ki": 159,
      "yor": 160,
      "iç": 161,
      "ını": 162,
      "ğı": 163,
      "ok": 164,
      "yı": 165,
      "dan": 166,
      "lan": 167,
      "..": 168,
      "um": 169,
      "bil": 170,
      "gö": 171,
      "ti": 172,
      "ları": 173,
      "üz": 174,
      "ara": 175,
      "ini": 176,
      "ında": 177,
      "şı": 178,
      "al": 179,
      "te": 180,
      "ine": 181,
      "ce": 182,
      "ön": 183,
      "ik": 184,
      "gi": 185,
      "ev": 186,
      "inde": 187,
      "ların": 188,
      "ul": 189,
      "tan": 190,
      "kar": 191,
      "yap": 192,
      "uş": 193,
      "man": 194,
      "ca": 195,
      "uz": 196,
      "çı": 197,
      "ük": 198,
      "yan": 199,
      "ken": 200,
      "baş": 201,
      "bi": 202,
      "kı": 203,
      "gel": 204,
      "me": 205,
      "oğ": 206,
      "san": 207,
      "iyor": 208,
      "ay": 209,
      "az": 210,
      "öy": 211,
      "ği": 212,
      "cak": 213,
      "mış": 214,
      "son": 215,
      "üm": 216,
      "mak": 217,
      "iler": 218,
      "ça": 219,
      "üş": 220,
      "at": 221,
      "gör": 222,
      "eler": 223,
      "rı": 224,
      "ül": 225,
      "için": 226,
      "lık": 227,
      "dir": 228,
      "ver": 229,
      "ne": 230,
      "st": 231,
      "leri": 232,
      "şa": 233,
      "...": 234,
      "inin": 235,
      "ına": 236,
      "ge": 237,
      "ut": 238,
      "zı": 239,
      "gün": 240,
      "der": 241,
      "oldu": 242,
      "miş": 243,
      "lik": 244,
      "mek": 245,
      "za": 246,
      "ye": 247,
      "oy": 248,
      "var": 249,
      "bul": 250,
      "uk": 251,
      "unu": 252,
      "esi": 253,
      "va": 254,
      "se": 255,
      "çok": 256,
      "değ": 257,
      "yer": 258,
      "ürk": 259,
      "dır": 260,
      "ile": 261,
      "us": 262,
      "kon": 263,
      "tir": 264,
      "öyle": 265,
      "ger": 266,
      "Bu": 267,
      "ola": 268,
      "öz": 269,
      "arı": 270,
      "cı": 271,
      "uy": 272,
      "len": 273,
      "tır": 274,
      "kad": 275,
      "it": 276,
      "anı": 277,
      "op": 278,
      "bü": 279,
      "eye": 280,
      "eş": 281,
      "dur": 282,
      "yıl": 283,
      "Türk": 284,
      "gibi": 285,
      "as": 286,
      "her": 287,
      "olma": 288,
      "lu": 289,
      "ır": 290,
      "iye": 291,
      "eni": 292,
      "dığı": 293,
      "geç": 294,
      "ör": 295,
      "olduğ": 296,
      "ci": 297,
      "yük": 298,
      "anla": 299,
      "Bir": 300,
      "olar": 301,
      "cek": 302,
      "sonra": 303,
      "öl": 304,
      "daha": 305,
      "sını": 306,
      "ının": 307,
      "kal": 308,
      "fa": 309,
      "düş": 310,
      "diğ": 311,
      "kur": 312,
      "na": 313,
      "sında": 314,
      "ist": 315,
      "üç": 316,
      "larını": 317,
      "dil": 318,
      "doğ": 319,
      "çık": 320,
      "çek": 321,
      "maya": 322,
      "ından": 323,
      "ip": 324,
      "olarak": 325,
      "ğını": 326,
      "yapı": 327,
      "lerin": 328,
      "ede": 329,
      "ru": 330,
      "bilir": 331,
      "sür": 332,
      "ez": 333,
      "olan": 334,
      "zaman": 335,
      "si": 336,
      "imiz": 337,
      "ması": 338,
      "tur": 339,
      "yordu": 340,
      "bel": 341,
      "mi": 342,
      "ter": 343,
      "tek": 344,
      "yla": 345,
      "insan": 346,
      "kadar": 347,
      "çalı": 348,
      "Ba": 349,
      "ben": 350,
      "ama": 351,
      "tu": 352,
      "şey": 353,
      "dik": 354,
      "akı": 355,
      "lü": 356,
      "ber": 357,
      "lara": 358,
      "karşı": 359,
      "ana": 360,
      "ten": 361,
      "muş": 362,
      "yüz": 363,
      "diği": 364,
      "ro": 365,
      "unda": 366,
      "ko": 367,
      "tar": 368,
      "kat": 369,
      "top": 370,
      "ren": 371,
      "siz": 372,
      "diye": 373,
      "dım": 374,
      "bile": 375,
      "mes": 376,
      "iyle": 377,
      "hal": 378,
      "ah": 379,
      "değil": 380,
      "ada": 381,
      "su": 382,
      "dön": 383,
      "yon": 384,
      "yak": 385,
      "gen": 386,
      "sor": 387,
      "sev": 388,
      "inden": 389,
      "nin": 390,
      "unun": 391,
      "dü": 392,
      "sal": 393,
      "tık": 394,
      "nı": 395,
      "iniz": 396,
      "tü": 397,
      "mu": 398,
      "mız": 399,
      "men": 400,
      "una": 401,
      "lerini": 402,
      "tür": 403,
      "üzer": 404,
      "re": 405,
      "yar": 406,
      "yok": 407,
      "başla": 408,
      "An": 409,
      "dık": 410,
      "gerek": 411,
      "let": 412,
      "met": 413,
      "daki": 414,
      "yat": 415,
      "Ben": 416,
      "iyi": 417,
      "dim": 418,
      "kes": 419,
      "ili": 420,
      "isi": 421,
      "be": 422,
      "biz": 423,
      "yaşa": 424,
      "kan": 425,
      "yol": 426,
      "sız": 427,
      "yaz": 428,
      "eli": 429,
      "Ka": 430,
      "hiç": 431,
      "kap": 432,
      "büyük": 433,
      "çalış": 434,
      "cu": 435,
      "kü": 436,
      "sun": 437,
      "dün": 438,
      "kul": 439,
      "söyle": 440,
      "Türkiye": 441,
      "yön": 442,
      "yorum": 443,
      "os": 444,
      "İs": 445,
      "iyet": 446,
      "Sa": 447,
      "maz": 448,
      "par": 449,
      "har": 450,
      "larda": 451,
      "kendi": 452,
      "ğa": 453,
      "yaş": 454,
      "lığı": 455,
      "ih": 456,
      "öğ": 457,
      "kiş": 458,
      "eri": 459,
      "bulun": 460,
      "din": 461,
      "gir": 462,
      "ula": 463,
      "lanı": 464,
      "mem": 465,
      "söz": 466,
      "orta": 467,
      "leş": 468,
      "kay": 469,
      "etti": 470,
      "bak": 471,
      "kim": 472,
      "sen": 473,
      "ğini": 474,
      "olu": 475,
      "İn": 476,
      "konuş": 477,
      "larına": 478,
      "edil": 479,
      "hak": 480,
      "mey": 481,
      "tün": 482,
      "göz": 483,
      "ser": 484,
      "yet": 485,
      "arka": 486,
      ".\"": 487,
      "Ha": 488,
      "mesi": 489,
      "om": 490,
      "ço": 491,
      "etir": 492,
      "19": 493,
      "he": 494,
      "sına": 495,
      "ünü": 496,
      "alı": 497,
      "düz": 498,
      "getir": 499,
      "sel": 500,
      "meye": 501,
      "içinde": 502,
      "larının": 503,
      "ot": 504,
      "ret": 505,
      "yal": 506,
      "mil": 507,
      "iki": 508,
      "ğu": 509,
      "duy": 510,
      "bek": 511,
      "gü": 512,
      "yeni": 513,
      "üs": 514,
      "ise": 515,
      "nın": 516,
      "cuk": 517,
      "ilk": 518,
      "sah": 519,
      "dür": 520,
      "hem": 521,
      "tara": 522,
      "deki": 523,
      "tığı": 524,
      "00": 525,
      "ran": 526,
      "ster": 527,
      "ban": 528,
      "eh": 529,
      "tak": 530,
      "ilg": 531,
      "yen": 532,
      "imi": 533,
      "sağ": 534,
      "han": 535,
      "laş": 536,
      "Ama": 537,
      "yi": 538,
      "oyun": 539,
      "Al": 540,
      "nun": 541,
      "ilen": 542,
      "ele": 543,
      "düşün": 544,
      "belir": 545,
      "mer": 546,
      "pa": 547,
      "dedi": 548,
      "tik": 549,
      "cağı": 550,
      "kö": 551,
      "oş": 552,
      "larında": 553,
      "lama": 554,
      "onu": 555,
      "git": 556,
      "mez": 557,
      "tem": 558,
      "olduğunu": 559,
      "dev": 560,
      "bah": 561,
      "göster": 562,
      "ad": 563,
      "sek": 564,
      "daş": 565,
      "önce": 566,
      "olduğu": 567,
      "bur": 568,
      "rak": 569,
      "kaç": 570,
      "dığını": 571,
      "hat": 572,
      "diyor": 573,
      "tanı": 574,
      "res": 575,
      "şek": 576,
      "göre": 577,
      "kez": 578,
      "tim": 579,
      "yın": 580,
      "arak": 581,
      "tım": 582,
      "çıkar": 583,
      "mü": 584,
      "lere": 585,
      "bar": 586,
      "bin": 587,
      "sıra": 588,
      "ulu": 589,
      "neden": 590,
      "taraf": 591,
      "aç": 592,
      "bet": 593,
      "olur": 594,
      "Baş": 595,
      "Er": 596,
      "sın": 597,
      "sin": 598,
      "çe": 599,
      "eleri": 600,
      "gerçek": 601,
      "ses": 602,
      "ız": 603,
      "lardan": 604,
      "üst": 605,
      "ark": 606,
      "lerde": 607,
      "Ya": 608,
      "açık": 609,
      "larla": 610,
      "tat": 611,
      "arasında": 612,
      "zor": 613,
      "Her": 614,
      "böl": 615,
      "ke": 616,
      "kor": 617,
      "tut": 618,
      "dış": 619,
      "alt": 620,
      "önem": 621,
      "değiş": 622,
      "durum": 623,
      "Ne": 624,
      "ştır": 625,
      "art": 626,
      "ince": 627,
      "üzel": 628,
      "şık": 629,
      "iyordu": 630,
      "çi": 631,
      "det": 632,
      "emek": 633,
      "yanı": 634,
      "rıl": 635,
      "bütün": 636,
      "ecek": 637,
      "ku": 638,
      "yazı": 639,
      "say": 640,
      "sıl": 641,
      "zır": 642,
      "dünya": 643,
      "AB": 644,
      "alan": 645,
      "gı": 646,
      "uç": 647,
      "Ar": 648,
      "açı": 649,
      "bağ": 650,
      "eyi": 651,
      "ileri": 652,
      "düğ": 653,
      "çocuk": 654,
      "tüm": 655,
      "dem": 656,
      "liğ": 657,
      "sak": 658,
      "iliş": 659,
      "birlik": 660,
      "eti": 661,
      "kin": 662,
      "lerine": 663,
      "oluş": 664,
      "lem": 665,
      "başka": 666,
      "doğru": 667,
      "hep": 668,
      "eğ": 669,
      "onun": 670,
      "hazır": 671,
      "ağ": 672,
      "para": 673,
      "üne": 674,
      "has": 675,
      "gelen": 676,
      "öğren": 677,
      "bun": 678,
      "böyle": 679,
      "güzel": 680,
      "lır": 681,
      "mızı": 682,
      "karı": 683,
      "mıştı": 684,
      "mişti": 685,
      "olay": 686,
      "iste": 687,
      "vaş": 688,
      "uyg": 689,
      "bı": 690,
      "kara": 691,
      "por": 692,
      "uyor": 693,
      "ri": 694,
      "mal": 695,
      "kaz": 696,
      "tıl": 697,
      "larından": 698,
      "kend": 699,
      "Ay": 700,
      "can": 701,
      "oz": 702,
      "erek": 703,
      "elik": 704,
      "lerinde": 705,
      "lerinin": 706,
      "am": 707,
      "lıyor": 708,
      "ceğ": 709,
      "seç": 710,
      "usu": 711,
      "kadın": 712,
      "dönem": 713,
      "bana": 714,
      "id": 715,
      "mut": 716,
      "biri": 717,
      "ünkü": 718,
      "haf": 719,
      "istem": 720,
      "benim": 721,
      "eden": 722,
      "müş": 723,
      "sil": 724,
      "takı": 725,
      "yür": 726,
      "üy": 727,
      "şu": 728,
      "olmuş": 729,
      "ala": 730,
      "bır": 731,
      "eder": 732,
      "pro": 733,
      "esinde": 734,
      "özel": 735,
      "lığ": 736,
      "vardı": 737,
      "fark": 738,
      "ker": 739,
      "kanı": 740,
      "pek": 741,
      "üc": 742,
      "ilik": 743,
      "malı": 744,
      "ünde": 745,
      "üçük": 746,
      "adam": 747,
      "nız": 748,
      "birlikte": 749,
      "Ara": 750,
      "On": 751,
      "lım": 752,
      "ona": 753,
      "değer": 754,
      "lendir": 755,
      "Bak": 756,
      "luk": 757,
      "ni": 758,
      "ıl": 759,
      "liği": 760,
      "uzun": 761,
      "makta": 762,
      "fer": 763,
      "inan": 764,
      "ğır": 765,
      "aynı": 766,
      "Biz": 767,
      "ap": 768,
      "güç": 769,
      "nem": 770,
      "so": 771,
      "sının": 772,
      "tel": 773,
      "mayı": 774,
      "dırı": 775,
      "taş": 776,
      "fade": 777,
      "üzerine": 778,
      "kâ": 779,
      "koy": 780,
      "mda": 781,
      "vur": 782,
      "Kı": 783,
      "aş": 784,
      "gil": 785,
      "kem": 786,
      "sine": 787,
      "tor": 788,
      "ira": 789,
      "hayat": 790,
      "sık": 791,
      "raf": 792,
      "tanbul": 793,
      "iyorum": 794,
      "süre": 795,
      "Av": 796,
      "En": 797,
      "fil": 798,
      "gaz": 799,
      "üp": 800,
      "mam": 801,
      "lam": 802,
      "yapa": 803,
      "manın": 804,
      "İstanbul": 805,
      "Gün": 806,
      "if": 807,
      "suz": 808,
      "lerden": 809,
      "tarih": 810,
      "genç": 811,
      "ifade": 812,
      "tes": 813,
      "tör": 814,
      "enin": 815,
      "dağı": 816,
      "eket": 817,
      "tırı": 818,
      "kita": 819,
      "Ak": 820,
      "bakı": 821,
      "endi": 822,
      "lardı": 823,
      "gön": 824,
      "şam": 825,
      "likle": 826,
      "uyu": 827,
      "gu": 828,
      "gan": 829,
      "artık": 830,
      "kabul": 831,
      "ınız": 832,
      "kır": 833,
      "Dün": 834,
      "Gen": 835,
      "do": 836,
      "dolu": 837,
      "kil": 838,
      "lum": 839,
      "otur": 840,
      "uğ": 841,
      "aret": 842,
      "dav": 843,
      "ladı": 844,
      "tış": 845,
      "şır": 846,
      "teş": 847,
      "ilerin": 848,
      "kullanı": 849,
      "önemli": 850,
      "Da": 851,
      "dar": 852,
      "ef": 853,
      "eği": 854,
      "lük": 855,
      "oda": 856,
      "siniz": 857,
      "ven": 858,
      "Öz": 859,
      "lacak": 860,
      "kız": 861,
      "leştir": 862,
      "edi": 863,
      "iti": 864,
      "söy": 865,
      "ildi": 866,
      "baba": 867,
      "sayı": 868,
      "alın": 869,
      "bit": 870,
      "azla": 871,
      "nasıl": 872,
      "kapı": 873,
      "ilgili": 874,
      "tarafından": 875,
      "Bü": 876,
      "van": 877,
      "yara": 878,
      "üyor": 879,
      "İş": 880,
      "iydi": 881,
      "tam": 882,
      "bazı": 883,
      "duğu": 884,
      "bugün": 885,
      "düzen": 886,
      "beni": 887,
      "dola": 888,
      "küçük": 889,
      "sından": 890,
      "inc": 891,
      "madan": 892,
      "lak": 893,
      "lerle": 894,
      "tal": 895,
      "hiçbir": 896,
      "kullan": 897,
      "arkadaş": 898,
      "ayak": 899,
      "bol": 900,
      "fazla": 901,
      "hur": 902,
      "his": 903,
      "lim": 904,
      "inci": 905,
      "dece": 906,
      "eski": 907,
      "şığı": 908,
      "geliş": 909,
      "görüş": 910,
      "diğini": 911,
      "başladı": 912,
      "yalnız": 913,
      "sahip": 914,
      "hemen": 915,
      "ga": 916,
      "ydı": 917,
      "yarı": 918,
      "Çünkü": 919,
      "etmek": 920,
      "ley": 921,
      "duğ": 922,
      "oku": 923,
      "karar": 924,
      "Fa": 925,
      "Son": 926,
      "aşa": 927,
      "dın": 928,
      "oca": 929,
      "pı": 930,
      "deniz": 931,
      "diğim": 932,
      "!\"": 933,
      "?\"": 934,
      "Kur": 935,
      "gül": 936,
      "tin": 937,
      "laya": 938,
      "ram": 939,
      "tep": 940,
      "konu": 941,
      "anlat": 942,
      "kazan": 943,
      "Ve": 944,
      "adı": 945,
      "kuş": 946,
      "rol": 947,
      "çev": 948,
      "lah": 949,
      "biraz": 950,
      "veya": 951,
      "ındaki": 952,
      "görev": 953,
      "ülk": 954,
      "yüzde": 955,
      "söyledi": 956,
      "yönet": 957,
      "hareket": 958,
      "hasta": 959,
      "Ev": 960,
      "ağa": 961,
      "imdi": 962,
      "saat": 963,
      "sır": 964,
      "mıyor": 965,
      "yaptı": 966,
      "görün": 967,
      "anım": 968,
      "ortaya": 969,
      "ilişk": 970,
      "As": 971,
      "Ana": 972,
      "Or": 973,
      "up": 974,
      "inç": 975,
      "undan": 976,
      "hava": 977,
      "gez": 978,
      "eşit": 979,
      "Ma": 980,
      "Yıl": 981,
      "ece": 982,
      "sü": 983,
      "çar": 984,
      "ancak": 985,
      "dal": 986,
      "madı": 987,
      "elim": 988,
      "kav": 989,
      "lantı": 990,
      "yakın": 991,
      "kişi": 992,
      "İngil": 993,
      "Dünya": 994,
      "Bey": 995,
      "cin": 996,
      "gin": 997,
      "hi": 998,
      "kek": 999,
      "pol": 1000,
      "sit": 1001,
      "uc": 1002,
      "yine": 1003,
      "yemek": 1004,
      "ök": 1005,
      "masını": 1006,
      "kaşığı": 1007,
      "birkaç": 1008,
      "olmak": 1009,
      "landı": 1010,
      "umhur": 1011,
      "ayrı": 1012,
      "mıştır": 1013,
      "geçen": 1014,
      "Avru": 1015,
      "200": 1016,
      "bunu": 1017,
      "dok": 1018,
      "diler": 1019,
      "vi": 1020,
      "yağ": 1021,
      "eki": 1022,
      "yım": 1023,
      "oğu": 1024,
      "olacak": 1025,
      "lerinden": 1026,
      "mesini": 1027,
      "şekil": 1028,
      "bırak": 1029,
      "El": 1030,
      "Ta": 1031,
      "cü": 1032,
      "miyor": 1033,
      "net": 1034,
      "sol": 1035,
      "sey": 1036,
      "yu": 1037,
      "ıntı": 1038,
      "deş": 1039,
      "yaka": 1040,
      "sadece": 1041,
      "kesin": 1042,
      "çalışma": 1043,
      "meyi": 1044,
      "gönder": 1045,
      "AN": 1046,
      "San": 1047,
      "ec": 1048,
      "fi": 1049,
      "fı": 1050,
      "per": 1051,
      "pan": 1052,
      "sos": 1053,
      "lat": 1054,
      "izle": 1055,
      "haber": 1056,
      "içer": 1057,
      "okul": 1058,
      "yıp": 1059,
      "uluk": 1060,
      "cağını": 1061,
      "kent": 1062,
      "geldi": 1063,
      "meden": 1064,
      "uyla": 1065,
      "diğer": 1066,
      "koş": 1067,
      "bilecek": 1068,
      "Ancak": 1069,
      "dakika": 1070,
      "milyon": 1071,
      "devlet": 1072,
      "ABD": 1073,
      "farklı": 1074,
      "Haz": 1075,
      "Mil": 1076,
      "bes": 1077,
      "boy": 1078,
      "fon": 1079,
      "kut": 1080,
      "rar": 1081,
      "zen": 1082,
      "anın": 1083,
      "yasa": 1084,
      "ünün": 1085,
      "tas": 1086,
      "larıyla": 1087,
      "sanat": 1088,
      "ümüz": 1089,
      "vardır": 1090,
      "kurul": 1091,
      "yordum": 1092,
      "benz": 1093,
      "toplum": 1094,
      "sunuz": 1095,
      "ehir": 1096,
      "hafta": 1097,
      "maktadır": 1098,
      "Böyle": 1099,
      "Kon": 1100,
      "Mer": 1101,
      "biç": 1102,
      "boş": 1103,
      "mın": 1104,
      "müz": 1105,
      "ğin": 1106,
      "ilmiş": 1107,
      "unut": 1108,
      "ünden": 1109,
      "hay": 1110,
      "sıyla": 1111,
      "biliyor": 1112,
      "çağ": 1113,
      "siya": 1114,
      "dikkat": 1115,
      "İnsan": 1116,
      "duygu": 1117,
      "AR": 1118,
      "Atat": 1119,
      "atı": 1120,
      "adet": 1121,
      "ic": 1122,
      "kol": 1123,
      "köy": 1124,
      "min": 1125,
      "spor": 1126,
      "Çok": 1127,
      "katı": 1128,
      "olsa": 1129,
      "imde": 1130,
      "lanan": 1131,
      "gelir": 1132,
      "yerine": 1133,
      "olması": 1134,
      "sınız": 1135,
      "yapıl": 1136,
      "öğret": 1137,
      "Avrupa": 1138,
      "şekilde": 1139,
      "Atatürk": 1140,
      "Bunun": 1141,
      "Mu": 1142,
      "bey": 1143,
      "cer": 1144,
      "İl": 1145,
      "ener": 1146,
      "ilir": 1147,
      "dığ": 1148,
      "olsun": 1149,
      "yır": 1150,
      "gider": 1151,
      "çıkı": 1152,
      "elerin": 1153,
      "olduk": 1154,
      "mekte": 1155,
      "geçir": 1156,
      "ört": 1157,
      "belirt": 1158,
      "AT": 1159,
      "Dem": 1160,
      "ediyor": 1161,
      "kın": 1162,
      "erkek": 1163,
      "ani": 1164,
      "okra": 1165,
      "larımız": 1166,
      "indeki": 1167,
      "yanın": 1168,
      "başarı": 1169,
      "medi": 1170,
      "konus": 1171,
      "yüksek": 1172,
      "yapılan": 1173,
      "Baba": 1174,
      "dönüş": 1175,
      "meyen": 1176,
      "takım": 1177,
      "Bur": 1178,
      "Kar": 1179,
      "Oy": 1180,
      "Onun": 1181,
      "ağır": 1182,
      "ner": 1183,
      "pr": 1184,
      "sman": 1185,
      "zem": 1186,
      "çeşit": 1187,
      "demek": 1188,
      "deva": 1189,
      "layan": 1190,
      "izm": 1191,
      "taşı": 1192,
      "tamam": 1193,
      "haya": 1194,
      "okta": 1195,
      "aldı": 1196,
      "üzere": 1197,
      "Benim": 1198,
      "parça": 1199,
      "gazet": 1200,
      "Genel": 1201,
      "dost": 1202,
      "gun": 1203,
      "kr": 1204,
      "kolay": 1205,
      "masına": 1206,
      "birbir": 1207,
      "etk": 1208,
      "tah": 1209,
      "esine": 1210,
      "duk": 1211,
      "dum": 1212,
      "istan": 1213,
      "tiğ": 1214,
      "kardeş": 1215,
      "oğlu": 1216,
      "sonuç": 1217,
      "...\"": 1218,
      "sınır": 1219,
      "genel": 1220,
      "yaşan": 1221,
      "bulunan": 1222,
      "güven": 1223,
      "hangi": 1224,
      "kitap": 1225,
      "devam": 1226,
      "Bun": 1227,
      "Tek": 1228,
      "acak": 1229,
      "beş": 1230,
      "ciler": 1231,
      "gru": 1232,
      "hük": 1233,
      "hız": 1234,
      "lo": 1235,
      "nda": 1236,
      "nak": 1237,
      "pay": 1238,
      "şar": 1239,
      "ard": 1240,
      "dey": 1241,
      "dam": 1242,
      "maç": 1243,
      "yavaş": 1244,
      "dis": 1245,
      "lerim": 1246,
      "bay": 1247,
      "isini": 1248,
      "rahat": 1249,
      "yaptığı": 1250,
      "lenen": 1251,
      "büy": 1252,
      "asyon": 1253,
      "anlam": 1254,
      "belki": 1255,
      "çalışı": 1256,
      "karşısında": 1257,
      "yardım": 1258,
      "hakk": 1259,
      "ştırma": 1260,
      "Bel": 1261,
      "Sev": 1262,
      "af": 1263,
      "acı": 1264,
      "dile": 1265,
      "edin": 1266,
      "fır": 1267,
      "giz": 1268,
      "hede": 1269,
      "nokta": 1270,
      "soğ": 1271,
      "sarı": 1272,
      "tele": 1273,
      "ulan": 1274,
      "şöyle": 1275,
      "mayan": 1276,
      "eks": 1277,
      "ekli": 1278,
      "ize": 1279,
      "uzak": 1280,
      "azar": 1281,
      "aten": 1282,
      "utbol": 1283,
      "yere": 1284,
      "diğimiz": 1285,
      "teki": 1286,
      "sorun": 1287,
      "bizim": 1288,
      "yaşam": 1289,
      "oluştur": 1290,
      "Fakat": 1291,
      "10": 1292,
      "12": 1293,
      "Cumhur": 1294,
      "Der": 1295,
      "Irak": 1296,
      "düm": 1297,
      "giy": 1298,
      "kün": 1299,
      "meler": 1300,
      "meli": 1301,
      "nde": 1302,
      "neler": 1303,
      "pi": 1304,
      "yem": 1305,
      "yum": 1306,
      "anda": 1307,
      "des": 1308,
      "lardır": 1309,
      "mad": 1310,
      "yayın": 1311,
      "unuz": 1312,
      "lerimiz": 1313,
      "izi": 1314,
      "umuz": 1315,
      "biber": 1316,
      "gece": 1317,
      "mayacak": 1318,
      "renk": 1319,
      "bekle": 1320,
      "düğü": 1321,
      "değerlendir": 1322,
      "Bil": 1323,
      "Dev": 1324,
      "Fran": 1325,
      "ateş": 1326,
      "ebilir": 1327,
      "gar": 1328,
      "ji": 1329,
      "lira": 1330,
      "tuz": 1331,
      "çöz": 1332,
      "ğe": 1333,
      "dak": 1334,
      "kah": 1335,
      "lığını": 1336,
      "sabah": 1337,
      "sıkı": 1338,
      "rağ": 1339,
      "şım": 1340,
      "altı": 1341,
      "ültür": 1342,
      "lıkla": 1343,
      "usta": 1344,
      "ölüm": 1345,
      "Ankara": 1346,
      "uğra": 1347,
      "Daha": 1348,
      "Den": 1349,
      "ER": 1350,
      "Gaz": 1351,
      "HP": 1352,
      "Ke": 1353,
      "eç": 1354,
      "fak": 1355,
      "gür": 1356,
      "ket": 1357,
      "liyor": 1358,
      "yo": 1359,
      "Ço": 1360,
      "şın": 1361,
      "şir": 1362,
      "kam": 1363,
      "kalı": 1364,
      "imin": 1365,
      "urt": 1366,
      "sam": 1367,
      "sat": 1368,
      "savaş": 1369,
      "ham": 1370,
      "eyen": 1371,
      "umlu": 1372,
      "ceği": 1373,
      "yerek": 1374,
      "luğ": 1375,
      "dığım": 1376,
      "dikleri": 1377,
      "halde": 1378,
      "menin": 1379,
      "bağlı": 1380,
      "Sonra": 1381,
      "15": 1382,
      "Am": 1383,
      "av": 1384,
      "bo": 1385,
      "boyun": 1386,
      "ep": 1387,
      "hes": 1388,
      "lâ": 1389,
      "lında": 1390,
      "nik": 1391,
      "pat": 1392,
      "set": 1393,
      "tiler": 1394,
      "üt": 1395,
      "malar": 1396,
      "sav": 1397,
      "hale": 1398,
      "hatır": 1399,
      "yoruz": 1400,
      "umu": 1401,
      "bildir": 1402,
      "bilmek": 1403,
      "bii": 1404,
      "verdiği": 1405,
      "olabilir": 1406,
      "çıktı": 1407,
      "kom": 1408,
      "toplantı": 1409,
      "değildir": 1410,
      "yakla": 1411,
      "üzerinde": 1412,
      "Alman": 1413,
      "adlı": 1414,
      "film": 1415,
      "İşte": 1416,
      "hüküm": 1417,
      "hedef": 1418,
      "EN": 1419,
      "Mar": 1420,
      "ata": 1421,
      "aber": 1422,
      "bunun": 1423,
      "buna": 1424,
      "mev": 1425,
      "tr": 1426,
      "ğer": 1427,
      "şan": 1428,
      "dağ": 1429,
      "birçok": 1430,
      "olo": 1431,
      "onları": 1432,
      "tav": 1433,
      "saf": 1434,
      "isinde": 1435,
      "yız": 1436,
      "lanma": 1437,
      "lanır": 1438,
      "tif": 1439,
      "şıl": 1440,
      "yani": 1441,
      "oğraf": 1442,
      "azı": 1443,
      "miştir": 1444,
      "geri": 1445,
      "asker": 1446,
      "ölç": 1447,
      "çıkan": 1448,
      "bancı": 1449,
      "Hiç": 1450,
      "Mah": 1451,
      "Meh": 1452,
      "Yeni": 1453,
      "aj": 1454,
      "aya": 1455,
      "celer": 1456,
      "plan": 1457,
      "soy": 1458,
      "tarı": 1459,
      "erken": 1460,
      "ann": 1461,
      "annem": 1462,
      "elde": 1463,
      "izin": 1464,
      "izyon": 1465,
      "esinin": 1466,
      "bilg": 1467,
      "tiği": 1468,
      "arada": 1469,
      "arası": 1470,
      "önc": 1471,
      "sonunda": 1472,
      "şeyler": 1473,
      "beraber": 1474,
      "koca": 1475,
      "size": 1476,
      "üslü": 1477,
      "taki": 1478,
      "Başkanı": 1479,
      "dışında": 1480,
      "konusunda": 1481,
      "rağmen": 1482,
      ",\"": 1483,
      "Ali": 1484,
      "Mal": 1485,
      "Ser": 1486,
      "adım": 1487,
      "dül": 1488,
      "hâ": 1489,
      "hoş": 1490,
      "kus": 1491,
      "sar": 1492,
      "ton": 1493,
      "vet": 1494,
      "İç": 1495,
      "şi": 1496,
      "şimdi": 1497,
      "ila": 1498,
      "lamak": 1499,
      "kak": 1500,
      "katıl": 1501,
      "bat": 1502,
      "bağı": 1503,
      "liğini": 1504,
      "işim": 1505,
      "tiğini": 1506,
      "ceğini": 1507,
      "ikinci": 1508,
      "yana": 1509,
      "öykü": 1510,
      "görül": 1511,
      "yerde": 1512,
      "şeyi": 1513,
      "türlü": 1514,
      "merkez": 1515,
      "altında": 1516,
      "seçim": 1517,
      "eğitim": 1518,
      "Bütün": 1519,
      "Anadolu": 1520,
      "İngiliz": 1521,
      "Mehmet": 1522,
      "30": 1523,
      "AK": 1524,
      "AL": 1525,
      "Hal": 1526,
      "dört": 1527,
      "gem": 1528,
      "ibi": 1529,
      "ici": 1530,
      "nek": 1531,
      "of": 1532,
      "piş": 1533,
      "rek": 1534,
      "sistem": 1535,
      "tük": 1536,
      "zar": 1537,
      "ınca": 1538,
      "mamış": 1539,
      "elen": 1540,
      "lerdi": 1541,
      "bas": 1542,
      "balık": 1543,
      "sıcak": 1544,
      "isinin": 1545,
      "yorlar": 1546,
      "başına": 1547,
      "kıs": 1548,
      "verdi": 1549,
      "zım": 1550,
      "tere": 1551,
      "suç": 1552,
      "bize": 1553,
      "ulaş": 1554,
      "ettiğ": 1555,
      "senin": 1556,
      "konuşma": 1557,
      "yeter": 1558,
      "bölüm": 1559,
      "değişik": 1560,
      "kendini": 1561,
      "mutlu": 1562,
      "kırmızı": 1563,
      "Bunu": 1564,
      "Ey": 1565,
      "Hoca": 1566,
      "Ku": 1567,
      "Su": 1568,
      "Top": 1569,
      "boz": 1570,
      "dol": 1571,
      "fes": 1572,
      "fik": 1573,
      "ita": 1574,
      "tesi": 1575,
      "uyan": 1576,
      "şiş": 1577,
      "larak": 1578,
      "mah": 1579,
      "ekon": 1580,
      "kayı": 1581,
      "akşam": 1582,
      "lış": 1583,
      "lığa": 1584,
      "iyon": 1585,
      "lis": 1586,
      "işle": 1587,
      "iştir": 1588,
      "eyle": 1589,
      "bilin": 1590,
      "bilgi": 1591,
      "teh": 1592,
      "gide": 1593,
      "evi": 1594,
      "yandan": 1595,
      "yanında": 1596,
      "başkan": 1597,
      "olmaz": 1598,
      "geçmiş": 1599,
      "öldür": 1600,
      "kurum": 1601,
      "sürdür": 1602,
      "insanlar": 1603,
      "insanların": 1604,
      "soru": 1605,
      "sevg": 1606,
      "yarak": 1607,
      "beyaz": 1608,
      "kendis": 1609,
      "edilen": 1610,
      "Allah": 1611,
      "uygula": 1612,
      "Büyük": 1613,
      "İlk": 1614,
      "hakkında": 1615,
      "Ab": 1616,
      "Ah": 1617,
      "Az": 1618,
      "Ger": 1619,
      "Har": 1620,
      "Hak": 1621,
      "Man": 1622,
      "Sı": 1623,
      "asıl": 1624,
      "fot": 1625,
      "futbol": 1626,
      "hiz": 1627,
      "ide": 1628,
      "müm": 1629,
      "nan": 1630,
      "rü": 1631,
      "sem": 1632,
      "yse": 1633,
      "zon": 1634,
      "çor": 1635,
      "çoğ": 1636,
      "dek": 1637,
      "yaşı": 1638,
      "yacak": 1639,
      "yabancı": 1640,
      "orada": 1641,
      "unca": 1642,
      "dip": 1643,
      "tay": 1644,
      "esini": 1645,
      "saç": 1646,
      "lider": 1647,
      "işi": 1648,
      "üret": 1649,
      "mıza": 1650,
      "bilim": 1651,
      "götür": 1652,
      "evizyon": 1653,
      "başında": 1654,
      "ülke": 1655,
      "veren": 1656,
      "versit": 1657,
      "günü": 1658,
      "vatan": 1659,
      "kaldı": 1660,
      "doğr": 1661,
      "akıl": 1662,
      "bizi": 1663,
      "yazar": 1664,
      "çalışan": 1665,
      "dünyanın": 1666,
      "part": 1667,
      "ihti": 1668,
      "konuştu": 1669,
      "temel": 1670,
      "resim": 1671,
      "gerçekleştir": 1672,
      "demir": 1673,
      "silah": 1674,
      "prog": 1675,
      "sosyal": 1676,
      "ardından": 1677,
      "Kemal": 1678,
      "Çocuk": 1679,
      "Ameri": 1680,
      "20": 1681,
      "Ken": 1682,
      "Kara": 1683,
      "ait": 1684,
      "fe": 1685,
      "lül": 1686,
      "luluk": 1687,
      "mür": 1688,
      "Ön": 1689,
      "ğü": 1690,
      "dest": 1691,
      "maları": 1692,
      "las": 1693,
      "etme": 1694,
      "lanmış": 1695,
      "yapmak": 1696,
      "sana": 1697,
      "ayrıl": 1698,
      "verir": 1699,
      "cık": 1700,
      "sürekli": 1701,
      "roman": 1702,
      "dıkları": 1703,
      "yatro": 1704,
      "arkada": 1705,
      "196": 1706,
      "millet": 1707,
      "temiz": 1708,
      "bardağı": 1709,
      "değiştir": 1710,
      "uygun": 1711,
      "Ayrı": 1712,
      "dolayı": 1713,
      "boyunca": 1714,
      "fotoğraf": 1715,
      "mümkün": 1716,
      "CHP": 1717,
      "Musta": 1718,
      "Peki": 1719,
      "Ra": 1720,
      "Tan": 1721,
      "ail": 1722,
      "adan": 1723,
      "cüm": 1724,
      "dun": 1725,
      "gâ": 1726,
      "gın": 1727,
      "heye": 1728,
      "mo": 1729,
      "sim": 1730,
      "sur": 1731,
      "tra": 1732,
      "vis": 1733,
      "val": 1734,
      "yle": 1735,
      "ğın": 1736,
      "ıs": 1737,
      "lamış": 1738,
      "ortak": 1739,
      "diz": 1740,
      "iyim": 1741,
      "esinden": 1742,
      "başı": 1743,
      "isti": 1744,
      "isyon": 1745,
      "rail": 1746,
      "içine": 1747,
      "araba": 1748,
      "yapan": 1749,
      "yeş": 1750,
      "oyna": 1751,
      "konusu": 1752,
      "yılında": 1753,
      "tartış": 1754,
      "sizin": 1755,
      "mesine": 1756,
      "İsrail": 1757,
      "bulunduğu": 1758,
      "kayb": 1759,
      "oluyor": 1760,
      "çocu": 1761,
      "alır": 1762,
      "beklen": 1763,
      "sağlık": 1764,
      "dışarı": 1765,
      "saygı": 1766,
      "açıl": 1767,
      "üyle": 1768,
      "edip": 1769,
      "itibar": 1770,
      "yönetim": 1771,
      "Hazır": 1772,
      "çeşitli": 1773,
      "büyü": 1774,
      "telefon": 1775,
      "üslüman": 1776,
      "ekonom": 1777,
      "hizmet": 1778,
      "Doğ": 1779,
      "Kır": 1780,
      "Mü": 1781,
      "Osman": 1782,
      "Par": 1783,
      "dük": 1784,
      "for": 1785,
      "hen": 1786,
      "linde": 1787,
      "ze": 1788,
      "öp": 1789,
      "İN": 1790,
      "İyi": 1791,
      "anlık": 1792,
      "iri": 1793,
      "ilmesi": 1794,
      "kası": 1795,
      "lerce": 1796,
      "onlar": 1797,
      "onların": 1798,
      "tıra": 1799,
      "tığını": 1800,
      "haz": 1801,
      "lidir": 1802,
      "işte": 1803,
      "emez": 1804,
      "rast": 1805,
      "tip": 1806,
      "aldığı": 1807,
      "ceza": 1808,
      "kırı": 1809,
      "ilerle": 1810,
      "rım": 1811,
      "sebe": 1812,
      "olmalı": 1813,
      "yüksel": 1814,
      "ister": 1815,
      "ruh": 1816,
      "tekrar": 1817,
      "Batı": 1818,
      "haline": 1819,
      "dıktan": 1820,
      "gereken": 1821,
      "yaşında": 1822,
      "kimse": 1823,
      "alış": 1824,
      "sahibi": 1825,
      "sırada": 1826,
      "arasındaki": 1827,
      "Artık": 1828,
      "karıştır": 1829,
      "ceğim": 1830,
      "hisse": 1831,
      "Demir": 1832,
      "pişir": 1833,
      "destek": 1834,
      "Ayrıca": 1835,
      "AM": 1836,
      "Amer": 1837,
      "Es": 1838,
      "Ner": 1839,
      "Tur": 1840,
      "Yal": 1841,
      "Yani": 1842,
      "aile": 1843,
      "ft": 1844,
      "hey": 1845,
      "lek": 1846,
      "lmış": 1847,
      "mar": 1848,
      "mur": 1849,
      "ranı": 1850,
      "uma": 1851,
      "zaten": 1852,
      "engel": 1853,
      "dedim": 1854,
      "elek": 1855,
      "kala": 1856,
      "dia": 1857,
      "imza": 1858,
      "eyin": 1859,
      "tane": 1860,
      "yansı": 1861,
      "başta": 1862,
      "başkanı": 1863,
      "kısa": 1864,
      "geler": 1865,
      "geliyor": 1866,
      "med": 1867,
      "lıkları": 1868,
      "luğu": 1869,
      "doğan": 1870,
      "belli": 1871,
      "ternet": 1872,
      "beri": 1873,
      "muştu": 1874,
      "halinde": 1875,
      "yoktu": 1876,
      "Annem": 1877,
      "dinle": 1878,
      "lanışı": 1879,
      "olup": 1880,
      "yeten": 1881,
      "199": 1882,
      "cağız": 1883,
      "burada": 1884,
      "nedeniyle": 1885,
      "açıklama": 1886,
      "etic": 1887,
      "lığın": 1888,
      "Onlar": 1889,
      "güçlü": 1890,
      "kâğı": 1891,
      "politi": 1892,
      "doktor": 1893,
      "mektedir": 1894,
      "madde": 1895,
      "Devlet": 1896,
      "çorba": 1897,
      "Mustafa": 1898,
      "Amerik": 1899,
      "!..": 1900,
      "18": 1901,
      "50": 1902,
      "Eğer": 1903,
      "Gü": 1904,
      "Has": 1905,
      "Kendi": 1906,
      "Paşa": 1907,
      "RT": 1908,
      "Ro": 1909,
      "Sen": 1910,
      "Yüz": 1911,
      "dö": 1912,
      "fet": 1913,
      "kür": 1914,
      "kültür": 1915,
      "num": 1916,
      "nit": 1917,
      "ov": 1918,
      "suyu": 1919,
      "tın": 1920,
      "ucu": 1921,
      "yoğ": 1922,
      "Üst": 1923,
      "çünkü": 1924,
      "ğun": 1925,
      "şun": 1926,
      "şart": 1927,
      "şehir": 1928,
      "arlar": 1929,
      "arken": 1930,
      "mayın": 1931,
      "ladığı": 1932,
      "kale": 1933,
      "ime": 1934,
      "üni": 1935,
      "eme": 1936,
      "sım": 1937,
      "bula": 1938,
      "aray": 1939,
      "araç": 1940,
      "tanın": 1941,
      "uştur": 1942,
      "sanız": 1943,
      "iyoruz": 1944,
      "gören": 1945,
      "lıklar": 1946,
      "güneş": 1947,
      "ders": 1948,
      "uslar": 1949,
      "arış": 1950,
      "olmadığı": 1951,
      "örgü": 1952,
      "örnek": 1953,
      "kural": 1954,
      "zamanlar": 1955,
      "zamanda": 1956,
      "mızda": 1957,
      "ettik": 1958,
      "alıp": 1959,
      "milyar": 1960,
      "cağım": 1961,
      "köş": 1962,
      "temsil": 1963,
      "zorunda": 1964,
      "liğe": 1965,
      "lığına": 1966,
      "yapacak": 1967,
      "zengin": 1968,
      "Oysa": 1969,
      "zemeler": 1970,
      "hükümet": 1971,
      "ilave": 1972,
      "Hazırlanışı": 1973,
      "Amerikan": 1974,
      "Be": 1975,
      "Bay": 1976,
      "Beş": 1977,
      "Bana": 1978,
      "Do": 1979,
      "Hep": 1980,
      "Kö": 1981,
      "Mes": 1982,
      "Pro": 1983,
      "TL": 1984,
      "Uz": 1985,
      "bor": 1986,
      "brı": 1987,
      "fen": 1988,
      "gara": 1989,
      "hbet": 1990,
      "idi": 1991,
      "jik": 1992,
      "kir": 1993,
      "kel": 1994,
      "kula": 1995,
      "lin": 1996,
      "mik": 1997,
      "ova": 1998,
      "tul": 1999,
      "vvet": 2000,
      "Ör": 2001,
      "çiz": 2002,
      "demiş": 2003,
      "mağ": 2004,
      "madığı": 2005,
      "yay": 2006,
      "ordu": 2007,
      "kabı": 2008,
      "diş": 2009,
      "lerdir": 2010,
      "leriyle": 2011,
      "lemek": 2012,
      "tale": 2013,
      "baka": 2014,
      "list": 2015,
      "isim": 2016,
      "isine": 2017,
      "araştırma": 2018,
      "almak": 2019,
      "önüne": 2020,
      "önünde": 2021,
      "giden": 2022,
      "yaptık": 2023,
      "manı": 2024,
      "elerini": 2025,
      "vap": 2026,
      "eştir": 2027,
      "herkes": 2028,
      "isteyen": 2029,
      "yüzden": 2030,
      "yüzünden": 2031,
      "sever": 2032,
      "yoktur": 2033,
      "dıklarını": 2034,
      "memiş": 2035,
      "kaynak": 2036,
      "bakan": 2037,
      "kimi": 2038,
      "yeniden": 2039,
      "kötü": 2040,
      "devr": 2041,
      "bahç": 2042,
      "sinir": 2043,
      "sayesinde": 2044,
      "demokra": 2045,
      "kendiler": 2046,
      "müştü": 2047,
      "özellikle": 2048,
      "Bakan": 2049,
      "Bizim": 2050,
      "sohbet": 2051,
      "aşk": 2052,
      "söylü": 2053,
      "Sanat": 2054,
      "koşul": 2055,
      "oldukça": 2056,
      "grup": 2057,
      "Cumhuriyet": 2058,
      "şirket": 2059,
      "savun": 2060,
      "yaklaşık": 2061,
      "yeşil": 2062,
      "AS": 2063,
      "Ban": 2064,
      "Fil": 2065,
      "Fener": 2066,
      "Geç": 2067,
      "Hin": 2068,
      "Hem": 2069,
      "IN": 2070,
      "La": 2071,
      "Müz": 2072,
      "Ol": 2073,
      "Ora": 2074,
      "ac": 2075,
      "ası": 2076,
      "aşı": 2077,
      "bis": 2078,
      "ces": 2079,
      "kop": 2080,
      "keş": 2081,
      "mir": 2082,
      "mel": 2083,
      "süz": 2084,
      "suy": 2085,
      "to": 2086,
      "ziy": 2087,
      "Çin": 2088,
      "Üç": 2089,
      "Şu": 2090,
      "anlı": 2091,
      "layı": 2092,
      "eleştir": 2093,
      "ekim": 2094,
      "diyerek": 2095,
      "etkin": 2096,
      "onlara": 2097,
      "ünlü": 2098,
      "urlar": 2099,
      "hap": 2100,
      "lif": 2101,
      "ürün": 2102,
      "buk": 2103,
      "ral": 2104,
      "kit": 2105,
      "larım": 2106,
      "larımızı": 2107,
      "cade": 2108,
      "uzey": 2109,
      "ilere": 2110,
      "günde": 2111,
      "oyn": 2112,
      "arım": 2113,
      "yıldı": 2114,
      "sınıf": 2115,
      "imize": 2116,
      "insanın": 2117,
      "toprak": 2118,
      "sevin": 2119,
      "muyor": 2120,
      "gerekir": 2121,
      "iyice": 2122,
      "sızlık": 2123,
      "seniz": 2124,
      "meydan": 2125,
      "düşünür": 2126,
      "merak": 2127,
      "bahçe": 2128,
      "hatta": 2129,
      "şeklinde": 2130,
      "bette": 2131,
      "Arka": 2132,
      "olmuştu": 2133,
      "sıkıntı": 2134,
      "davranı": 2135,
      "Özel": 2136,
      "talya": 2137,
      "çevr": 2138,
      "İngiltere": 2139,
      "cinsel": 2140,
      "benzer": 2141,
      "müzik": 2142,
      "hızla": 2143,
      "şarkı": 2144,
      "gizli": 2145,
      "eksik": 2146,
      "Deniz": 2147,
      "Almanya": 2148,
      "ölçü": 2149,
      "Malzemeler": 2150,
      "zarar": 2151,
      "25": 2152,
      "Af": 2153,
      "Gör": 2154,
      "Kay": 2155,
      "ab": 2156,
      "ch": 2157,
      "cik": 2158,
      "eve": 2159,
      "gr": 2160,
      "gay": 2161,
      "ika": 2162,
      "kum": 2163,
      "lulu": 2164,
      "niyet": 2165,
      "peş": 2166,
      "türk": 2167,
      "trol": 2168,
      "Üni": 2169,
      "ğına": 2170,
      "ğunu": 2171,
      "İki": 2172,
      "Şimdi": 2173,
      "anne": 2174,
      "def": 2175,
      "may": 2176,
      "masa": 2177,
      "masında": 2178,
      "elt": 2179,
      "kafa": 2180,
      "leme": 2181,
      "tıp": 2182,
      "tıyor": 2183,
      "eser": 2184,
      "basın": 2185,
      "içeri": 2186,
      "umsuz": 2187,
      "gök": 2188,
      "çıka": 2189,
      "kıl": 2190,
      "sanı": 2191,
      "veril": 2192,
      "verilen": 2193,
      "bulunu": 2194,
      "cılar": 2195,
      "yıllar": 2196,
      "olmayan": 2197,
      "olmadığını": 2198,
      "cih": 2199,
      "bilirsiniz": 2200,
      "imizi": 2201,
      "karşılaş": 2202,
      "sordu": 2203,
      "yaşadığı": 2204,
      "girdi": 2205,
      "ettiği": 2206,
      "nedenle": 2207,
      "tatlı": 2208,
      "iyordum": 2209,
      "ağrı": 2210,
      "karış": 2211,
      "ceğiz": 2212,
      "yürü": 2213,
      "Bakanı": 2214,
      "televizyon": 2215,
      "Güneş": 2216,
      "söylen": 2217,
      "geliştir": 2218,
      "duğunu": 2219,
      "konuda": 2220,
      "içerisinde": 2221,
      "sanatçı": 2222,
      "soğuk": 2223,
      "hesap": 2224,
      "politika": 2225,
      "uslararası": 2226,
      "ziyaret": 2227,
      "Buna": 2228,
      "DE": 2229,
      "Dı": 2230,
      "Dur": 2231,
      "Hanım": 2232,
      "Kom": 2233,
      "Lİ": 2234,
      "Mİ": 2235,
      "Pol": 2236,
      "Tar": 2237,
      "YO": 2238,
      "Yor": 2239,
      "Yine": 2240,
      "Za": 2241,
      "ağı": 2242,
      "bür": 2243,
      "ddi": 2244,
      "don": 2245,
      "go": 2246,
      "hır": 2247,
      "kok": 2248,
      "kelim": 2249,
      "pu": 2250,
      "pla": 2251,
      "sinde": 2252,
      "sinin": 2253,
      "Öğ": 2254,
      "ÜR": 2255,
      "çiç": 2256,
      "çay": 2257,
      "çuk": 2258,
      "ödül": 2259,
      "ücu": 2260,
      "şid": 2261,
      "arz": 2262,
      "ina": 2263,
      "inanı": 2264,
      "internet": 2265,
      "defa": 2266,
      "mat": 2267,
      "madım": 2268,
      "layıp": 2269,
      "kalan": 2270,
      "kaçı": 2271,
      "dılar": 2272,
      "leyen": 2273,
      "bazen": 2274,
      "saba": 2275,
      "emiz": 2276,
      "isel": 2277,
      "rah": 2278,
      "bilen": 2279,
      "göl": 2280,
      "yanlış": 2281,
      "sanki": 2282,
      "iyorlar": 2283,
      "ayda": 2284,
      "aydın": 2285,
      "mışlar": 2286,
      "ümü": 2287,
      "çaba": 2288,
      "elerde": 2289,
      "mekten": 2290,
      "özgür": 2291,
      "yılın": 2292,
      "yıllık": 2293,
      "aslında": 2294,
      "ceki": 2295,
      "doğal": 2296,
      "yapıyor": 2297,
      "edecek": 2298,
      "imizde": 2299,
      "tercih": 2300,
      "amaç": 2301,
      "halk": 2302,
      "değildi": 2303,
      "yarar": 2304,
      "gerektiğini": 2305,
      "yönelik": 2306,
      "banka": 2307,
      "yitir": 2308,
      "larındaki": 2309,
      "adını": 2310,
      "sırasında": 2311,
      "gerçekten": 2312,
      "koru": 2313,
      "düğünü": 2314,
      "liğin": 2315,
      "eğlen": 2316,
      "iddia": 2317,
      "olmuştur": 2318,
      "ederek": 2319,
      "proj": 2320,
      "sokak": 2321,
      "ağaç": 2322,
      "ilişkiler": 2323,
      "Orta": 2324,
      "Tabii": 2325,
      "panya": 2326,
      "Böylece": 2327,
      "biçim": 2328,
      "dığında": 2329,
      "başarılı": 2330,
      "Eylül": 2331,
      "ihtiya": 2332,
      "Osmanlı": 2333,
      "henüz": 2334,
      "16": 2335,
      "Düş": 2336,
      "Doğu": 2337,
      "Hat": 2338,
      "Ko": 2339,
      "Li": 2340,
      "Per": 2341,
      "Rum": 2342,
      "Si": 2343,
      "Yok": 2344,
      "ayı": 2345,
      "atan": 2346,
      "ela": 2347,
      "gol": 2348,
      "gisi": 2349,
      "gula": 2350,
      "nü": 2351,
      "pen": 2352,
      "pazar": 2353,
      "sta": 2354,
      "uyordu": 2355,
      "vak": 2356,
      "yurt": 2357,
      "zer": 2358,
      "çoğu": 2359,
      "ğında": 2360,
      "ışık": 2361,
      "ilan": 2362,
      "lamaya": 2363,
      "organ": 2364,
      "diyorum": 2365,
      "tacak": 2366,
      "bahar": 2367,
      "sap": 2368,
      "lit": 2369,
      "işe": 2370,
      "eyim": 2371,
      "tiyatro": 2372,
      "üzül": 2373,
      "üzgâ": 2374,
      "ikti": 2375,
      "karak": 2376,
      "uzur": 2377,
      "kendim": 2378,
      "kıp": 2379,
      "gelmiş": 2380,
      "gelip": 2381,
      "gelecek": 2382,
      "elere": 2383,
      "varsa": 2384,
      "vaşı": 2385,
      "oper": 2386,
      "asla": 2387,
      "herhangi": 2388,
      "biliriz": 2389,
      "imizin": 2390,
      "tekn": 2391,
      "bileceğini": 2392,
      "mesaj": 2393,
      "geniş": 2394,
      "salon": 2395,
      "inizi": 2396,
      "mızın": 2397,
      "Kadın": 2398,
      "kendisine": 2399,
      "kişilik": 2400,
      "memek": 2401,
      "hakkı": 2402,
      "servis": 2403,
      "ilgilen": 2404,
      "oyuncu": 2405,
      "üstünde": 2406,
      "çift": 2407,
      "bunlar": 2408,
      "bunları": 2409,
      "kendine": 2410,
      "Kıbrı": 2411,
      "tören": 2412,
      "gülüm": 2413,
      "Evet": 2414,
      "Yılmaz": 2415,
      "eceğini": 2416,
      "Milli": 2417,
      "boyut": 2418,
      "öğretmen": 2419,
      "Bunlar": 2420,
      "Belki": 2421,
      "Fransız": 2422,
      "program": 2423,
      "Amerika": 2424,
      "cümle": 2425,
      "itibaren": 2426,
      "Yalnız": 2427,
      "Kıbrıs": 2428,
      "Ada": 2429,
      "Cem": 2430,
      "DA": 2431,
      "ET": 2432,
      "Hay": 2433,
      "Kim": 2434,
      "Kür": 2435,
      "Küçük": 2436,
      "Mir": 2437,
      "Siz": 2438,
      "Sul": 2439,
      "aa": 2440,
      "car": 2441,
      "cil": 2442,
      "coş": 2443,
      "dini": 2444,
      "hüc": 2445,
      "huzur": 2446,
      "kun": 2447,
      "liler": 2448,
      "meleri": 2449,
      "pet": 2450,
      "sus": 2451,
      "tum": 2452,
      "vil": 2453,
      "irler": 2454,
      "irken": 2455,
      "depr": 2456,
      "ilim": 2457,
      "ildiği": 2458,
      "dair": 2459,
      "mas": 2460,
      "yağı": 2461,
      "laşı": 2462,
      "ora": 2463,
      "oran": 2464,
      "etkil": 2465,
      "tıcı": 2466,
      "esiyle": 2467,
      "bal": 2468,
      "yorgun": 2469,
      "ınır": 2470,
      "lana": 2471,
      "lanması": 2472,
      "langı": 2473,
      "aliyet": 2474,
      "karma": 2475,
      "yaprak": 2476,
      "kış": 2477,
      "meş": 2478,
      "mıştım": 2479,
      "elerine": 2480,
      "elerinin": 2481,
      "diren": 2482,
      "neğin": 2483,
      "derece": 2484,
      "yedi": 2485,
      "geçti": 2486,
      "kalp": 2487,
      "düşünü": 2488,
      "insanları": 2489,
      "halle": 2490,
      "inize": 2491,
      "muh": 2492,
      "başlayan": 2493,
      "yöntem": 2494,
      "kişinin": 2495,
      "giriş": 2496,
      "sene": 2497,
      "sert": 2498,
      "198": 2499,
      "düzey": 2500,
      "otor": 2501,
      "üsü": 2502,
      "düşünceler": 2503,
      "kök": 2504,
      "gittik": 2505,
      "gösteren": 2506,
      "sektör": 2507,
      "resmi": 2508,
      "mücade": 2509,
      "olursa": 2510,
      "Başkan": 2511,
      "üstüne": 2512,
      "bölge": 2513,
      "korku": 2514,
      "bundan": 2515,
      "kadınlar": 2516,
      "Kızı": 2517,
      "tırım": 2518,
      "Kurulu": 2519,
      "hastalık": 2520,
      "süt": 2521,
      "kriz": 2522,
      "güvenlik": 2523,
      "distan": 2524,
      "yardımcı": 2525,
      "hatırla": 2526,
      "şiir": 2527,
      "vatandaş": 2528,
      "sebep": 2529,
      "pişirin": 2530,
      "kâğıt": 2531,
      "yoğun": 2532,
      "yıldız": 2533,
      "Üniversit": 2534,
      "Sultan": 2535,
      "11": 2536,
      "Böl": 2537,
      "Can": 2538,
      "Dok": 2539,
      "EK": 2540,
      "Göz": 2541,
      "Hüs": 2542,
      "Kan": 2543,
      "Köy": 2544,
      "Kat": 2545,
      "Kita": 2546,
      "Okul": 2547,
      "Res": 2548,
      "Sarı": 2549,
      "Tah": 2550,
      "Yah": 2551,
      "atıl": 2552,
      "cın": 2553,
      "dolar": 2554,
      "dök": 2555,
      "fel": 2556,
      "lili": 2557,
      "liyet": 2558,
      "mis": 2559,
      "mdan": 2560,
      "mini": 2561,
      "og": 2562,
      "paz": 2563,
      "plak": 2564,
      "vaz": 2565,
      "vücu": 2566,
      "zev": 2567,
      "üyordu": 2568,
      "ğda": 2569,
      "ğlık": 2570,
      "İk": 2571,
      "İz": 2572,
      "ardı": 2573,
      "deli": 2574,
      "ilaç": 2575,
      "dava": 2576,
      "madığını": 2577,
      "masının": 2578,
      "ekip": 2579,
      "kalacak": 2580,
      "akla": 2581,
      "ettir": 2582,
      "etmeye": 2583,
      "ettim": 2584,
      "üncü": 2585,
      "urta": 2586,
      "urken": 2587,
      "tabii": 2588,
      "haş": 2589,
      "işaret": 2590,
      "ramı": 2591,
      "yıf": 2592,
      "yılı": 2593,
      "umda": 2594,
      "bilme": 2595,
      "biliyorum": 2596,
      "araya": 2597,
      "cevap": 2598,
      "öne": 2599,
      "önceki": 2600,
      "ikâ": 2601,
      "cam": 2602,
      "başlar": 2603,
      "kızı": 2604,
      "ülen": 2605,
      "vermiş": 2606,
      "stra": 2607,
      "şaşır": 2608,
      "gec": 2609,
      "derg": 2610,
      "derin": 2611,
      "derler": 2612,
      "ileş": 2613,
      "kontrol": 2614,
      "Bugün": 2615,
      "uyarı": 2616,
      "büs": 2617,
      "duran": 2618,
      "duruş": 2619,
      "yıllarda": 2620,
      "asını": 2621,
      "geçer": 2622,
      "anlaş": 2623,
      "faaliyet": 2624,
      "düşür": 2625,
      "düşman": 2626,
      "diğine": 2627,
      "istin": 2628,
      "doğur": 2629,
      "amaz": 2630,
      "yüzüne": 2631,
      "katkı": 2632,
      "bileceği": 2633,
      "mesiyle": 2634,
      "sevgi": 2635,
      "saldırı": 2636,
      "gerekç": 2637,
      "beden": 2638,
      "yaşama": 2639,
      "çalıştığı": 2640,
      "parti": 2641,
      "yaşlı": 2642,
      "lanıyor": 2643,
      "Hasan": 2644,
      "omo": 2645,
      "bölg": 2646,
      "kelam": 2647,
      "durumu": 2648,
      "durumda": 2649,
      "yanıt": 2650,
      "düğüm": 2651,
      "çocuklar": 2652,
      "oluşan": 2653,
      "uygulan": 2654,
      "karabiber": 2655,
      "Aynı": 2656,
      "hafif": 2657,
      "malıdır": 2658,
      "Arap": 2659,
      "kitabı": 2660,
      "bakış": 2661,
      "yarat": 2662,
      "ayakkabı": 2663,
      "yalnızca": 2664,
      "aşağı": 2665,
      "Aslında": 2666,
      "çarpı": 2667,
      "polis": 2668,
      "kuruluş": 2669,
      "Merkez": 2670,
      "biçimde": 2671,
      "nerede": 2672,
      "deyim": 2673,
      "melidir": 2674,
      "boya": 2675,
      "değişiklik": 2676,
      "fikir": 2677,
      "Gerçek": 2678,
      "arkadaşı": 2679,
      "Tanrı": 2680,
      "numara": 2681,
      "Fenerbahçe": 2682,
      "Arkadaş": 2683,
      "üzgâr": 2684,
      "deprem": 2685,
      ".)": 2686,
      "14": 2687,
      "100": 2688,
      "22": 2689,
      "Adam": 2690,
      "Bas": 2691,
      "Cen": 2692,
      "Dİ": 2693,
      "KK": 2694,
      "Ni": 2695,
      "Pa": 2696,
      "So": 2697,
      "Sİ": 2698,
      "Sos": 2699,
      "Ter": 2700,
      "Tak": 2701,
      "TRT": 2702,
      "VE": 2703,
      "ck": 2704,
      "eb": 2705,
      "fir": 2706,
      "fat": 2707,
      "iği": 2708,
      "keri": 2709,
      "muz": 2710,
      "mus": 2711,
      "po": 2712,
      "piy": 2713,
      "pey": 2714,
      "sok": 2715,
      "seni": 2716,
      "vek": 2717,
      "yur": 2718,
      "yiye": 2719,
      "zi": 2720,
      "Öyle": 2721,
      "İkin": 2722,
      "ısır": 2723,
      "eral": 2724,
      "anlar": 2725,
      "dahi": 2726,
      "mali": 2727,
      "mavi": 2728,
      "yasak": 2729,
      "ladım": 2730,
      "lazım": 2731,
      "layarak": 2732,
      "elinde": 2733,
      "kamu": 2734,
      "unan": 2735,
      "diyen": 2736,
      "birik": 2737,
      "aklı": 2738,
      "ettiler": 2739,
      "dışı": 2740,
      "olumsuz": 2741,
      "imkâ": 2742,
      "tırıl": 2743,
      "izde": 2744,
      "tama": 2745,
      "esel": 2746,
      "sayar": 2747,
      "hayal": 2748,
      "halat": 2749,
      "işç": 2750,
      "dular": 2751,
      "eytin": 2752,
      "içi": 2753,
      "umut": 2754,
      "üzün": 2755,
      "tedir": 2756,
      "evren": 2757,
      "kararı": 2758,
      "karşın": 2759,
      "yapın": 2760,
      "uza": 2761,
      "bitir": 2762,
      "görür": 2763,
      "ülü": 2764,
      "üldü": 2765,
      "oldum": 2766,
      "mektu": 2767,
      "varmış": 2768,
      "buluş": 2769,
      "sefer": 2770,
      "yerinde": 2771,
      "yerleş": 2772,
      "usul": 2773,
      "cıyla": 2774,
      "anır": 2775,
      "yılda": 2776,
      "anlaya": 2777,
      "sonrası": 2778,
      "düştü": 2779,
      "diğiniz": 2780,
      "kurtar": 2781,
      "isten": 2782,
      "istiyor": 2783,
      "doğu": 2784,
      "yapılır": 2785,
      "yapılacak": 2786,
      "bilirim": 2787,
      "site": 2788,
      "yorduk": 2789,
      "terek": 2790,
      "dikten": 2791,
      "diklerini": 2792,
      "komu": 2793,
      "sizi": 2794,
      "mesinin": 2795,
      "gene": 2796,
      "başladım": 2797,
      "kesim": 2798,
      "söyleye": 2799,
      "Sabah": 2800,
      "ulaşa": 2801,
      "leşme": 2802,
      "serg": 2803,
      "yetkil": 2804,
      "oto": 2805,
      "güc": 2806,
      "sahn": 2807,
      "bank": 2808,
      "tanık": 2809,
      "tanım": 2810,
      "Yaşa": 2811,
      "açıkladı": 2812,
      "altına": 2813,
      "ilişkin": 2814,
      "öğrenc": 2815,
      "döneminde": 2816,
      "gençlik": 2817,
      "teslim": 2818,
      "kullanıl": 2819,
      "düzenle": 2820,
      "yukarı": 2821,
      "best": 2822,
      "hayvan": 2823,
      "Demokra": 2824,
      "hayatı": 2825,
      "soğan": 2826,
      "piyasa": 2827,
      "deste": 2828,
      "Mahkem": 2829,
      "bağım": 2830,
      "mahkem": 2831,
      "tehdi": 2832,
      "tehlik": 2833,
      "rüya": 2834,
      "talep": 2835,
      "Filistin": 2836,
      "kitle": 2837,
      "strate": 2838,
      "İkinci": 2839,
      ").": 2840,
      "17": 2841,
      "Ale": 2842,
      "Bek": 2843,
      "Bazı": 2844,
      "Fer": 2845,
      "Gök": 2846,
      "Han": 2847,
      "Hol": 2848,
      "Jo": 2849,
      "Kız": 2850,
      "Kültür": 2851,
      "LER": 2852,
      "Mec": 2853,
      "Ti": 2854,
      "Tra": 2855,
      "Tüm": 2856,
      "Ul": 2857,
      "Uy": 2858,
      "Yer": 2859,
      "Yön": 2860,
      "YTL": 2861,
      "Zaten": 2862,
      "ade": 2863,
      "boğ": 2864,
      "cut": 2865,
      "cumhur": 2866,
      "dra": 2867,
      "fendi": 2868,
      "kra": 2869,
      "küç": 2870,
      "kre": 2871,
      "lilik": 2872,
      "meni": 2873,
      "müslüman": 2874,
      "pit": 2875,
      "siyon": 2876,
      "tlar": 2877,
      "tuk": 2878,
      "yola": 2879,
      "üb": 2880,
      "ğine": 2881,
      "İM": 2882,
      "İb": 2883,
      "İran": 2884,
      "ıp": 2885,
      "şeye": 2886,
      "şof": 2887,
      "ing": 2888,
      "indir": 2889,
      "del": 2890,
      "larca": 2891,
      "ilgi": 2892,
      "yav": 2893,
      "yalan": 2894,
      "laka": 2895,
      "ekmek": 2896,
      "birden": 2897,
      "birinde": 2898,
      "aktarı": 2899,
      "etin": 2900,
      "etmiş": 2901,
      "tası": 2902,
      "duvar": 2903,
      "isan": 2904,
      "rapor": 2905,
      "iktaş": 2906,
      "gidiyor": 2907,
      "evr": 2908,
      "evde": 2909,
      "yapmaya": 2910,
      "mantık": 2911,
      "caba": 2912,
      "ükle": 2913,
      "başvur": 2914,
      "kırıl": 2915,
      "ayr": 2916,
      "ayında": 2917,
      "azından": 2918,
      "makla": 2919,
      "görü": 2920,
      "görmek": 2921,
      "elerinden": 2922,
      "verecek": 2923,
      "versite": 2924,
      "sezon": 2925,
      "yerleştir": 2926,
      "gerçe": 2927,
      "cısı": 2928,
      "cılık": 2929,
      "uydu": 2930,
      "lenmiş": 2931,
      "olmadı": 2932,
      "kalmış": 2933,
      "faiz": 2934,
      "fakat": 2935,
      "larınız": 2936,
      "doğra": 2937,
      "süren": 2938,
      "tuğ": 2939,
      "şeyin": 2940,
      "karşılık": 2941,
      "sizlik": 2942,
      "halka": 2943,
      "sorum": 2944,
      "yoksa": 2945,
      "Kap": 2946,
      "iyeti": 2947,
      "Savaşı": 2948,
      "girişim": 2949,
      "ortam": 2950,
      "kaybet": 2951,
      "serbest": 2952,
      "194": 2953,
      "rans": 2954,
      "düşünc": 2955,
      "buraya": 2956,
      "tanış": 2957,
      "müdür": 2958,
      "Erdoğan": 2959,
      "gerçekleş": 2960,
      "zorun": 2961,
      "yanık": 2962,
      "liğine": 2963,
      "eğer": 2964,
      "onunla": 2965,
      "canlı": 2966,
      "ücut": 2967,
      "Kısa": 2968,
      "tarihi": 2969,
      "kullanılan": 2970,
      "efsan": 2971,
      "ayakta": 2972,
      "yarım": 2973,
      "leyip": 2974,
      "layacak": 2975,
      "dokun": 2976,
      "siyaset": 2977,
      "beyin": 2978,
      "dığına": 2979,
      "birbirine": 2980,
      "yaşanan": 2981,
      "renkli": 2982,
      "Fransa": 2983,
      "Gazi": 2984,
      "kocaman": 2985,
      "kusuz": 2986,
      "Halk": 2987,
      "kendisini": 2988,
      "Ahmet": 2989,
      "ekonomik": 2990,
      "karıştırın": 2991,
      "Beşiktaş": 2992,
      "Örneğin": 2993,
      "bakalım": 2994,
      "Hindistan": 2995,
      "aşırı": 2996,
      "çiçek": 2997,
      "şiddet": 2998,
      "langıç": 2999,
      "Üniversitesi": 3000,
      "Hüseyin": 3001,
      "Yahu": 3002,
      "zevk": 3003,
      "şoför": 3004,
      "''": 3005,
      "),": 3006,
      "AY": 3007,
      "Ağa": 3008,
      "BM": 3009,
      "Ber": 3010,
      "Bul": 3011,
      "Bundan": 3012,
      "De": 3013,
      "Di": 3014,
      "Demek": 3015,
      "Gir": 3016,
      "Gel": 3017,
      "Gru": 3018,
      "Ker": 3019,
      "Kor": 3020,
      "Kuş": 3021,
      "Mey": 3022,
      "Müslüman": 3023,
      "Mısır": 3024,
      "Na": 3025,
      "Oğ": 3026,
      "Ocak": 3027,
      "Ona": 3028,
      "Rı": 3029,
      "Rad": 3030,
      "SO": 3031,
      "Sel": 3032,
      "Say": 3033,
      "Tem": 3034,
      "Yan": 3035,
      "bon": 3036,
      "bzon": 3037,
      "cisi": 3038,
      "dy": 3039,
      "dor": 3040,
      "dyo": 3041,
      "ebilecek": 3042,
      "edile": 3043,
      "gur": 3044,
      "gesi": 3045,
      "hekim": 3046,
      "itir": 3047,
      "lok": 3048,
      "mor": 3049,
      "mit": 3050,
      "ob": 3051,
      "ruk": 3052,
      "rez": 3053,
      "sini": 3054,
      "siye": 3055,
      "til": 3056,
      "vı": 3057,
      "viç": 3058,
      "Ül": 3059,
      "çer": 3060,
      "çak": 3061,
      "ğünü": 3062,
      "İtalya": 3063,
      "Şah": 3064,
      "şe": 3065,
      "şunu": 3066,
      "ans": 3067,
      "anta": 3068,
      "irmi": 3069,
      "dayan": 3070,
      "masın": 3071,
      "yayım": 3072,
      "yatırım": 3073,
      "labilir": 3074,
      "ladığını": 3075,
      "elini": 3076,
      "elbette": 3077,
      "kab": 3078,
      "kaya": 3079,
      "kalır": 3080,
      "birer": 3081,
      "ete": 3082,
      "etik": 3083,
      "olun": 3084,
      "imler": 3085,
      "ündeki": 3086,
      "tılar": 3087,
      "urum": 3088,
      "bağır": 3089,
      "işlem": 3090,
      "duyar": 3091,
      "mıyordu": 3092,
      "yıs": 3093,
      "yış": 3094,
      "landığı": 3095,
      "lanarak": 3096,
      "aracı": 3097,
      "araştır": 3098,
      "algı": 3099,
      "tedav": 3100,
      "cep": 3101,
      "cev": 3102,
      "öner": 3103,
      "gidip": 3104,
      "ulmaz": 3105,
      "yapar": 3106,
      "yapma": 3107,
      "kenin": 3108,
      "geldiği": 3109,
      "gelmişti": 3110,
      "mediği": 3111,
      "makin": 3112,
      "maktan": 3113,
      "veriş": 3114,
      "şah": 3115,
      "deri": 3116,
      "likte": 3117,
      "zayıf": 3118,
      "oyu": 3119,
      "yeri": 3120,
      "ilecek": 3121,
      "olayı": 3122,
      "lendi": 3123,
      "kadro": 3124,
      "herhalde": 3125,
      "olduğuna": 3126,
      "ciddi": 3127,
      "kalk": 3128,
      "kaldır": 3129,
      "diğinde": 3130,
      "sigara": 3131,
      "terör": 3132,
      "teknik": 3133,
      "insana": 3134,
      "kova": 3135,
      "toplu": 3136,
      "saldır": 3137,
      "muha": 3138,
      "yargı": 3139,
      "gerekiyor": 3140,
      "yolu": 3141,
      "mazdı": 3142,
      "harca": 3143,
      "kendisi": 3144,
      "lığıyla": 3145,
      "ihan": 3146,
      "kişiler": 3147,
      "sözc": 3148,
      "baktı": 3149,
      "yetiş": 3150,
      "Hayır": 3151,
      "197": 3152,
      "milli": 3153,
      "bekliyor": 3154,
      "takip": 3155,
      "ilginç": 3156,
      "laştır": 3157,
      "oyuncak": 3158,
      "gittim": 3159,
      "mezar": 3160,
      "diyorlar": 3161,
      "bardak": 3162,
      "üstü": 3163,
      "tates": 3164,
      "zorlu": 3165,
      "dışına": 3166,
      "altın": 3167,
      "saydı": 3168,
      "alanda": 3169,
      "öğrenciler": 3170,
      "istediği": 3171,
      "rika": 3172,
      "lerindeki": 3173,
      "takımı": 3174,
      "ücük": 3175,
      "Araştırma": 3176,
      "vurgula": 3177,
      "Güney": 3178,
      "gönül": 3179,
      "bugüne": 3180,
      "bugünkü": 3181,
      "incir": 3182,
      "incel": 3183,
      "limon": 3184,
      "yarış": 3185,
      "anlattı": 3186,
      "çevir": 3187,
      "çevres": 3188,
      "ülkede": 3189,
      "Mayıs": 3190,
      "ucunda": 3191,
      "olacaktır": 3192,
      "seyir": 3193,
      "Millet": 3194,
      "tasar": 3195,
      "siyah": 3196,
      "çıkıp": 3197,
      "Oyun": 3198,
      "genellikle": 3199,
      "fırsat": 3200,
      "yumuş": 3201,
      "yumurta": 3202,
      "kahve": 3203,
      "oloji": 3204,
      "Hiçbir": 3205,
      "hâlâ": 3206,
      "AKP": 3207,
      "doldur": 3208,
      "kayıt": 3209,
      "Manço": 3210,
      "lideri": 3211,
      "dolayısıyla": 3212,
      "heyecan": 3213,
      "Kırmızı": 3214,
      "elektr": 3215,
      "Üstelik": 3216,
      "Bakanlığı": 3217,
      "Orada": 3218,
      "cesaret": 3219,
      "Hatta": 3220,
      "iktidar": 3221,
      "Mirkelam": 3222,
      "mücadele": 3223,
      "Trabzon": 3224,
      "ransfer": 3225,
      "\",": 3226,
      "\".": 3227,
      "13": 3228,
      "Bİ": 3229,
      "Bin": 3230,
      "Beni": 3231,
      "Barış": 3232,
      "Ca": 3233,
      "Cev": 3234,
      "Dir": 3235,
      "Dik": 3236,
      "Ga": 3237,
      "Ge": 3238,
      "KA": 3239,
      "Kuzey": 3240,
      "Nasıl": 3241,
      "Nisan": 3242,
      "Rus": 3243,
      "SE": 3244,
      "SK": 3245,
      "Soğ": 3246,
      "Sah": 3247,
      "Sinan": 3248,
      "Size": 3249,
      "TV": 3250,
      "Tel": 3251,
      "Tim": 3252,
      "Ver": 3253,
      "Vak": 3254,
      "Yar": 3255,
      "Yen": 3256,
      "Yunan": 3257,
      "bom": 3258,
      "chat": 3259,
      "cilik": 3260,
      "dını": 3261,
      "dos": 3262,
      "ebil": 3263,
      "egen": 3264,
      "fayda": 3265,
      "hor": 3266,
      "huk": 3267,
      "hoca": 3268,
      "kiler": 3269,
      "kesi": 3270,
      "kuy": 3271,
      "kana": 3272,
      "mon": 3273,
      "mdaki": 3274,
      "marka": 3275,
      "nün": 3276,
      "nes": 3277,
      "omet": 3278,
      "pir": 3279,
      "sün": 3280,
      "siy": 3281,
      "sis": 3282,
      "sesi": 3283,
      "traf": 3284,
      "vücut": 3285,
      "zih": 3286,
      "zehir": 3287,
      "zeytin": 3288,
      "öt": 3289,
      "ömür": 3290,
      "ğinde": 3291,
      "İm": 3292,
      "ısı": 3293,
      "ene": 3294,
      "iran": 3295,
      "irve": 3296,
      "larken": 3297,
      "mada": 3298,
      "maçı": 3299,
      "yatı": 3300,
      "yasal": 3301,
      "lav": 3302,
      "laik": 3303,
      "laması": 3304,
      "ladık": 3305,
      "layın": 3306,
      "ekleri": 3307,
      "ektör": 3308,
      "orman": 3309,
      "kali": 3310,
      "unum": 3311,
      "birine": 3312,
      "akl": 3313,
      "etler": 3314,
      "olumlu": 3315,
      "olmuyor": 3316,
      "lıdır": 3317,
      "iyiz": 3318,
      "iyileş": 3319,
      "esiz": 3320,
      "sas": 3321,
      "sakat": 3322,
      "işleri": 3323,
      "isiz": 3324,
      "mıyorum": 3325,
      "okur": 3326,
      "dans": 3327,
      "bilinç": 3328,
      "alb": 3329,
      "teşek": 3330,
      "iken": 3331,
      "ulması": 3332,
      "karanlık": 3333,
      "yapması": 3334,
      "cağına": 3335,
      "sanın": 3336,
      "sonuna": 3337,
      "çap": 3338,
      "atın": 3339,
      "elerle": 3340,
      "ülkenin": 3341,
      "nedir": 3342,
      "şaş": 3343,
      "gündüz": 3344,
      "günlük": 3345,
      "vas": 3346,
      "usunun": 3347,
      "konser": 3348,
      "olası": 3349,
      "olacağı": 3350,
      "özür": 3351,
      "lenir": 3352,
      "durdur": 3353,
      "yıldır": 3354,
      "asına": 3355,
      "askeri": 3356,
      "herkesin": 3357,
      "olmasına": 3358,
      "olduğum": 3359,
      "anlaşı": 3360,
      "kalın": 3361,
      "sındaki": 3362,
      "doğum": 3363,
      "yapıp": 3364,
      "olanlar": 3365,
      "teklif": 3366,
      "insanı": 3367,
      "muştur": 3368,
      "yüzünü": 3369,
      "bileceğ": 3370,
      "mesin": 3371,
      "halkı": 3372,
      "sorunun": 3373,
      "başlamıştı": 3374,
      "yolc": 3375,
      "Kaya": 3376,
      "Savaş": 3377,
      "parmak": 3378,
      "bulundu": 3379,
      "giren": 3380,
      "memnun": 3381,
      "kayn": 3382,
      "kimlik": 3383,
      "edildi": 3384,
      "gözleri": 3385,
      "arkasından": 3386,
      "otomo": 3387,
      "duyg": 3388,
      "sağlam": 3389,
      "laşma": 3390,
      "belirle": 3391,
      "köpr": 3392,
      "gitti": 3393,
      "devir": 3394,
      "sekiz": 3395,
      "raki": 3396,
      "uluyor": 3397,
      "ulusal": 3398,
      "taraftar": 3399,
      "açar": 3400,
      "çeve": 3401,
      "sesleri": 3402,
      "durumunda": 3403,
      "New": 3404,
      "artesi": 3405,
      "kucak": 3406,
      "kuvvet": 3407,
      "dünyada": 3408,
      "dünyaya": 3409,
      "açısından": 3410,
      "liğinde": 3411,
      "ilişki": 3412,
      "öğrenci": 3413,
      "uyorlar": 3414,
      "müşter": 3415,
      "yürüt": 3416,
      "alacak": 3417,
      "prob": 3418,
      "ücret": 3419,
      "soka": 3420,
      "dırım": 3421,
      "taşın": 3422,
      "hayatın": 3423,
      "suzluk": 3424,
      "Genç": 3425,
      "babam": 3426,
      "sayısı": 3427,
      "dolaş": 3428,
      "kullana": 3429,
      "arkadaşlar": 3430,
      "hiss": 3431,
      "hisset": 3432,
      "gali": 3433,
      "görüntü": 3434,
      "dalga": 3435,
      "yağmur": 3436,
      "miyoruz": 3437,
      "yuvar": 3438,
      "içeren": 3439,
      "tasyon": 3440,
      "çağrı": 3441,
      "siyasi": 3442,
      "larımızın": 3443,
      "Babam": 3444,
      "dönüştür": 3445,
      "demektir": 3446,
      "etkilen": 3447,
      "tiğimiz": 3448,
      "maçında": 3449,
      "anlamına": 3450,
      "sarım": 3451,
      "mevcut": 3452,
      "hâl": 3453,
      "şişleri": 3454,
      "bilgisayar": 3455,
      "uygulama": 3456,
      "Aziz": 3457,
      "Önce": 3458,
      "heyec": 3459,
      "isyonu": 3460,
      "çocuğun": 3461,
      "Müdür": 3462,
      "üniversit": 3463,
      "Beyaz": 3464,
      "meydana": 3465,
      "Özellikle": 3466,
      "bulunuyor": 3467,
      "Polis": 3468,
      "petrol": 3469,
      "İzmir": 3470,
      "Meclis": 3471,
      "ayrıntı": 3472,
      "çerçeve": 3473,
      "teşekkür": 3474,
      "27": 3475,
      "Ail": 3476,
      "Aşa": 3477,
      "Ayak": 3478,
      "Bar": 3479,
      "Bal": 3480,
      "Ce": 3481,
      "Du": 3482,
      "Dede": 3483,
      "Eş": 3484,
      "Futbol": 3485,
      "Gür": 3486,
      "Git": 3487,
      "Güzel": 3488,
      "IM": 3489,
      "Kaz": 3490,
      "Keş": 3491,
      "Lüb": 3492,
      "Mart": 3493,
      "OK": 3494,
      "OL": 3495,
      "Re": 3496,
      "Sü": 3497,
      "Sor": 3498,
      "Ses": 3499,
      "Söz": 3500,
      "Seni": 3501,
      "UR": 3502,
      "Yu": 3503,
      "ayır": 3504,
      "bün": 3505,
      "bük": 3506,
      "cının": 3507,
      "diniz": 3508,
      "dınız": 3509,
      "eceğ": 3510,
      "ho": 3511,
      "jisi": 3512,
      "kör": 3513,
      "liye": 3514,
      "lmaz": 3515,
      "nesi": 3516,
      "pak": 3517,
      "ris": 3518,
      "rik": 3519,
      "sp": 3520,
      "sunu": 3521,
      "seri": 3522,
      "süs": 3523,
      "tren": 3524,
      "utan": 3525,
      "ufak": 3526,
      "vo": 3527,
      "vel": 3528,
      "yken": 3529,
      "zu": 3530,
      "Çek": 3531,
      "ÜK": 3532,
      "çu": 3533,
      "çir": 3534,
      "öteki": 3535,
      "ğen": 3536,
      "ğün": 3537,
      "ğının": 3538,
      "ım": 3539,
      "Şek": 3540,
      "şer": 3541,
      "şüp": 3542,
      "arkı": 3543,
      "inşa": 3544,
      "ınar": 3545,
      "delik": 3546,
      "lardaki": 3547,
      "ilet": 3548,
      "iller": 3549,
      "iliyor": 3550,
      "mates": 3551,
      "mahalle": 3552,
      "yakı": 3553,
      "lata": 3554,
      "eline": 3555,
      "elinden": 3556,
      "ormal": 3557,
      "kaf": 3558,
      "kaba": 3559,
      "kalem": 3560,
      "kasaba": 3561,
      "diyordu": 3562,
      "birini": 3563,
      "birinin": 3564,
      "birisi": 3565,
      "birtakım": 3566,
      "akın": 3567,
      "akra": 3568,
      "aktar": 3569,
      "etim": 3570,
      "lerimi": 3571,
      "iyilik": 3572,
      "taze": 3573,
      "badet": 3574,
      "basit": 3575,
      "satı": 3576,
      "saha": 3577,
      "sabır": 3578,
      "satış": 3579,
      "hali": 3580,
      "emiş": 3581,
      "istik": 3582,
      "rağı": 3583,
      "yorsun": 3584,
      "landığını": 3585,
      "göç": 3586,
      "tih": 3587,
      "larıma": 3588,
      "larımı": 3589,
      "şımı": 3590,
      "almış": 3591,
      "alına": 3592,
      "gib": 3593,
      "evinde": 3594,
      "ulur": 3595,
      "uluslararası": 3596,
      "kart": 3597,
      "başlıyor": 3598,
      "oğlan": 3599,
      "sanay": 3600,
      "iyorsa": 3601,
      "ayla": 3602,
      "ümüş": 3603,
      "çağır": 3604,
      "atlı": 3605,
      "attı": 3606,
      "atmak": 3607,
      "görme": 3608,
      "ülya": 3609,
      "ülkem": 3610,
      "lıklarını": 3611,
      "verim": 3612,
      "verilir": 3613,
      "verici": 3614,
      "günleri": 3615,
      "günlerde": 3616,
      "derken": 3617,
      "zam": 3618,
      "oyuna": 3619,
      "usunu": 3620,
      "konut": 3621,
      "olabil": 3622,
      "uyum": 3623,
      "eşya": 3624,
      "olmaya": 3625,
      "olmasını": 3626,
      "dığımda": 3627,
      "olduğunuz": 3628,
      "anlatı": 3629,
      "anlamı": 3630,
      "anlatır": 3631,
      "Biri": 3632,
      "ölü": 3633,
      "fab": 3634,
      "düşük": 3635,
      "diğimi": 3636,
      "üçüncü": 3637,
      "dilim": 3638,
      "çeken": 3639,
      "yapım": 3640,
      "ezer": 3641,
      "olanak": 3642,
      "zamanı": 3643,
      "sivil": 3644,
      "misaf": 3645,
      "tekne": 3646,
      "insanlara": 3647,
      "şeyleri": 3648,
      "tencer": 3649,
      "tarz": 3650,
      "rende": 3651,
      "mesel": 3652,
      "mesinde": 3653,
      "halkın": 3654,
      "subay": 3655,
      "dönüp": 3656,
      "yaklaş": 3657,
      "general": 3658,
      "sorunu": 3659,
      "sorumlu": 3660,
      "sevinç": 3661,
      "üzerinden": 3662,
      "red": 3663,
      "Kapı": 3664,
      "Kasım": 3665,
      "söyledim": 3666,
      "İsviç": 3667,
      "yaşındaki": 3668,
      "memesi": 3669,
      "sözü": 3670,
      "kayde": 3671,
      "kayna": 3672,
      "kaydet": 3673,
      "konuşan": 3674,
      "edilir": 3675,
      "ediliyor": 3676,
      "haklı": 3677,
      "Hava": 3678,
      "195": 3679,
      "alıyor": 3680,
      "getirdi": 3681,
      "meyecek": 3682,
      "milliyet": 3683,
      "ehr": 3684,
      "hane": 3685,
      "belirterek": 3686,
      "adına": 3687,
      "şeker": 3688,
      "müsa": 3689,
      "olurdu": 3690,
      "sessiz": 3691,
      "Neden": 3692,
      "uçak": 3693,
      "parator": 3694,
      "hastan": 3695,
      "gelenek": 3696,
      "bunların": 3697,
      "idar": 3698,
      "mutlaka": 3699,
      "bırakı": 3700,
      "özellik": 3701,
      "lığının": 3702,
      "malıyız": 3703,
      "Günümüz": 3704,
      "tarihinde": 3705,
      "kitab": 3706,
      "Akşam": 3707,
      "davet": 3708,
      "söyler": 3709,
      "leyin": 3710,
      "leyman": 3711,
      "kararlı": 3712,
      "ağacın": 3713,
      "yaptığını": 3714,
      "görünce": 3715,
      "gezegen": 3716,
      "kavuş": 3717,
      "ayrıca": 3718,
      "fiyat": 3719,
      "fıs": 3720,
      "kutu": 3721,
      "hayran": 3722,
      "çağdaş": 3723,
      "İnsanlar": 3724,
      "katılan": 3725,
      "yapılmış": 3726,
      "Muh": 3727,
      "enerji": 3728,
      "giderken": 3729,
      "Burada": 3730,
      "krizi": 3731,
      "tahmin": 3732,
      "dukları": 3733,
      "hızlı": 3734,
      "payla": 3735,
      "asyonu": 3736,
      "çalışıyor": 3737,
      "Sevg": 3738,
      "Cumhurbaşkanı": 3739,
      "lerimizi": 3740,
      "komş": 3741,
      "Mahmut": 3742,
      "gemen": 3743,
      "Kuvvet": 3744,
      "gidecek": 3745,
      "çoğun": 3746,
      "doğrusu": 3747,
      "Eski": 3748,
      "Nerede": 3749,
      "heykel": 3750,
      "Hasta": 3751,
      "döv": 3752,
      "üniversite": 3753,
      "kulak": 3754,
      "yaygın": 3755,
      "devrim": 3756,
      "ölçüde": 3757,
      "Dışişleri": 3758,
      "puan": 3759,
      "kaçır": 3760,
      "Düşün": 3761,
      "karakter": 3762,
      "operasyon": 3763,
      "Kürt": 3764,
      "karmaşık": 3765,
      "Doktor": 3766,
      "Kitap": 3767,
      "Merkezi": 3768,
      "neredeyse": 3769,
      "imkân": 3770,
      "doğrayın": 3771,
      "Trabzonspor": 3772,
      "Aşağı": 3773,
      "Lübnan": 3774,
      "Süleyman": 3775,
      "İsviçre": 3776,
      "kaydetti": 3777,
      "40": 3778,
      "500": 3779,
      "60": 3780,
      "68": 3781,
      "AZ": 3782,
      "Bus": 3783,
      "Beh": 3784,
      "Car": 3785,
      "Din": 3786,
      "Ek": 3787,
      "Em": 3788,
      "Et": 3789,
      "Fu": 3790,
      "Fak": 3791,
      "Gül": 3792,
      "Hır": 3793,
      "Hülya": 3794,
      "IK": 3795,
      "In": 3796,
      "Jap": 3797,
      "Kâ": 3798,
      "Kel": 3799,
      "Kal": 3800,
      "Kah": 3801,
      "Kral": 3802,
      "ME": 3803,
      "Mek": 3804,
      "Mak": 3805,
      "Mark": 3806,
      "Sin": 3807,
      "Sür": 3808,
      "Sal": 3809,
      "Sine": 3810,
      "Senin": 3811,
      "To": 3812,
      "Tay": 3813,
      "Takı": 3814,
      "The": 3815,
      "Tıp": 3816,
      "Yeş": 3817,
      "ati": 3818,
      "abet": 3819,
      "alarak": 3820,
      "bine": 3821,
      "bede": 3822,
      "cm": 3823,
      "co": 3824,
      "cını": 3825,
      "dine": 3826,
      "dinin": 3827,
      "fek": 3828,
      "gam": 3829,
      "hiş": 3830,
      "hür": 3831,
      "hus": 3832,
      "hikâ": 3833,
      "iğ": 3834,
      "kinin": 3835,
      "kuzey": 3836,
      "lel": 3837,
      "leket": 3838,
      "miyordu": 3839,
      "motor": 3840,
      "nu": 3841,
      "nen": 3842,
      "ney": 3843,
      "nut": 3844,
      "poz": 3845,
      "piyon": 3846,
      "qu": 3847,
      "rüzgâr": 3848,
      "stan": 3849,
      "tok": 3850,
      "transfer": 3851,
      "uf": 3852,
      "uyorum": 3853,
      "ydi": 3854,
      "yirmi": 3855,
      "zan": 3856,
      "zek": 3857,
      "Üzer": 3858,
      "âşık": 3859,
      "öf": 3860,
      "öv": 3861,
      "üler": 3862,
      "üye": 3863,
      "ğan": 3864,
      "ğiyle": 3865,
      "Şi": 3866,
      "erler": 3867,
      "antep": 3868,
      "inal": 3869,
      "ent": 3870,
      "dede": 3871,
      "dediği": 3872,
      "demişti": 3873,
      "depla": 3874,
      "ilah": 3875,
      "daya": 3876,
      "dalı": 3877,
      "mamak": 3878,
      "yah": 3879,
      "laf": 3880,
      "lal": 3881,
      "lay": 3882,
      "elbis": 3883,
      "oranı": 3884,
      "kas": 3885,
      "kazı": 3886,
      "kaza": 3887,
      "birliği": 3888,
      "etle": 3889,
      "etken": 3890,
      "etmesi": 3891,
      "dıra": 3892,
      "olanı": 3893,
      "olunca": 3894,
      "ondan": 3895,
      "lemi": 3896,
      "tap": 3897,
      "tadı": 3898,
      "batı": 3899,
      "hata": 3900,
      "işini": 3901,
      "emin": 3902,
      "emeye": 3903,
      "dudak": 3904,
      "buçuk": 3905,
      "eysel": 3906,
      "radyo": 3907,
      "danı": 3908,
      "landır": 3909,
      "landırı": 3910,
      "göm": 3911,
      "göğ": 3912,
      "tez": 3913,
      "tema": 3914,
      "evine": 3915,
      "ult": 3916,
      "ulmuş": 3917,
      "tanrı": 3918,
      "tanesi": 3919,
      "yaparak": 3920,
      "manız": 3921,
      "uzu": 3922,
      "uzan": 3923,
      "yanlar": 3924,
      "yanına": 3925,
      "kıy": 3926,
      "kıyı": 3927,
      "gelince": 3928,
      "aza": 3929,
      "sonucu": 3930,
      "ümün": 3931,
      "ilerek": 3932,
      "çağı": 3933,
      "görüyor": 3934,
      "gördüm": 3935,
      "elerden": 3936,
      "lıkta": 3937,
      "lıktan": 3938,
      "nefes": 3939,
      "mişler": 3940,
      "vah": 3941,
      "selam": 3942,
      "yerli": 3943,
      "yerini": 3944,
      "yerlerde": 3945,
      "uyar": 3946,
      "lendiği": 3947,
      "lenmesi": 3948,
      "kadının": 3949,
      "yılının": 3950,
      "yıllarında": 3951,
      "Türkler": 3952,
      "olmayı": 3953,
      "dığımız": 3954,
      "geçiyor": 3955,
      "olduğundan": 3956,
      "anlamak": 3957,
      "anlaşıl": 3958,
      "Birliği": 3959,
      "kalkı": 3960,
      "kurulan": 3961,
      "kurşun": 3962,
      "kurtul": 3963,
      "istiy": 3964,
      "istiyorum": 3965,
      "çıkmıştı": 3966,
      "çekti": 3967,
      "yapısı": 3968,
      "edebi": 3969,
      "bilirler": 3970,
      "terk": 3971,
      "ters": 3972,
      "teker": 3973,
      "çalışır": 3974,
      "Bah": 3975,
      "Balık": 3976,
      "benden": 3977,
      "amacıyla": 3978,
      "lüğü": 3979,
      "kov": 3980,
      "rengi": 3981,
      "aday": 3982,
      "suya": 3983,
      "tıktan": 3984,
      "inizde": 3985,
      "unacak": 3986,
      "başlat": 3987,
      "başladık": 3988,
      "dıköy": 3989,
      "gerekli": 3990,
      "gerektir": 3991,
      "Bence": 3992,
      "iliği": 3993,
      "yaşaya": 3994,
      "kanun": 3995,
      "yazdı": 3996,
      "yazdığı": 3997,
      "Kadıköy": 3998,
      "çalıştır": 3999,
      "söylemek": 4000,
      "yönetic": 4001,
      "İspanya": 4002,
      "Saat": 4003,
      "Sadece": 4004,
      "kişisel": 4005,
      "girer": 4006,
      "memleket": 4007,
      "ettiğini": 4008,
      "meyin": 4009,
      "193": 4010,
      "düzelt": 4011,
      "getiren": 4012,
      "duyur": 4013,
      "gücü": 4014,
      "sahne": 4015,
      "tığım": 4016,
      "banın": 4017,
      "belirten": 4018,
      "pası": 4019,
      "mezler": 4020,
      "gösterir": 4021,
      "çıkarı": 4022,
      "müdaha": 4023,
      "binlerce": 4024,
      "açtı": 4025,
      "Başbakan": 4026,
      "Ertesi": 4027,
      "Yaşam": 4028,
      "Yapı": 4029,
      "Herkes": 4030,
      "bölgeler": 4031,
      "sakin": 4032,
      "sakın": 4033,
      "hazırlanan": 4034,
      "istedi": 4035,
      "uyoruz": 4036,
      "tılmış": 4037,
      "ameli": 4038,
      "dönemde": 4039,
      "ederken": 4040,
      "lığında": 4041,
      "farkında": 4042,
      "kere": 4043,
      "Aralık": 4044,
      "Onu": 4045,
      "lukla": 4046,
      "niha": 4047,
      "sinema": 4048,
      "hayatını": 4049,
      "Avşar": 4050,
      "filan": 4051,
      "tespit": 4052,
      "tırıp": 4053,
      "bakım": 4054,
      "endiş": 4055,
      "ganda": 4056,
      "ınızda": 4057,
      "darbe": 4058,
      "görüşmeler": 4059,
      "başladılar": 4060,
      "duğumuz": 4061,
      "Sonunda": 4062,
      "pırıl": 4063,
      "çarp": 4064,
      "kavga": 4065,
      "seyret": 4066,
      "kesinlikle": 4067,
      "person": 4068,
      "haberi": 4069,
      "toplumsal": 4070,
      "Muham": 4071,
      "giderek": 4072,
      "çıkış": 4073,
      "çıkıyor": 4074,
      "etkili": 4075,
      "Bunların": 4076,
      "Teknik": 4077,
      "paylaş": 4078,
      "telef": 4079,
      "piyat": 4080,
      "çözül": 4081,
      "ölümü": 4082,
      "bildirdi": 4083,
      "İngilizce": 4084,
      "sistemi": 4085,
      "baskı": 4086,
      "kısmı": 4087,
      "yeterli": 4088,
      "bilinen": 4089,
      "öldürül": 4090,
      "futbolcu": 4091,
      "yaşıyor": 4092,
      "programı": 4093,
      "Amerikalı": 4094,
      "1960": 4095,
      "Uzun": 4096,
      "miktar": 4097,
      "kendilerini": 4098,
      "ASI": 4099,
      "Geçen": 4100,
      "Şubat": 4101,
      "gündeme": 4102,
      "davranış": 4103,
      "luluğunu": 4104,
      "defter": 4105,
      "sanırım": 4106,
      "Tarih": 4107,
      "York": 4108,
      "Öğret": 4109,
      "ÜRK": 4110,
      "ihtiyaç": 4111,
      "pencer": 4112,
      "gerekçesiyle": 4113,
      "Sosyal": 4114,
      "tamamen": 4115,
      "mektup": 4116,
      "tehdit": 4117,
      "Tiyatro": 4118,
      "Uluslararası": 4119,
      "ükleer": 4120,
      "zorunlu": 4121,
      "Radyo": 4122,
      "sözcük": 4123,
      "şaşkın": 4124,
      "çirkin": 4125,
      "Şeker": 4126,
      "iletişim": 4127,
      "akraba": 4128,
      "Fakül": 4129,
      "deplasman": 4130,
      "45": 4131,
      "?..": 4132,
      "AD": 4133,
      "AP": 4134,
      "AĞ": 4135,
      "Ağ": 4136,
      "Aş": 4137,
      "Adı": 4138,
      "Aman": 4139,
      "BA": 4140,
      "Bi": 4141,
      "Bo": 4142,
      "Bır": 4143,
      "Eği": 4144,
      "Efendi": 4145,
      "For": 4146,
      "Feder": 4147,
      "Gece": 4148,
      "Kol": 4149,
      "Kiş": 4150,
      "Koca": 4151,
      "KEN": 4152,
      "Met": 4153,
      "Mur": 4154,
      "Nevr": 4155,
      "Ot": 4156,
      "Pir": 4157,
      "Part": 4158,
      "PKK": 4159,
      "Se": 4160,
      "Söyle": 4161,
      "Saray": 4162,
      "Sch": 4163,
      "Tuz": 4164,
      "Uğ": 4165,
      "Ulu": 4166,
      "Yol": 4167,
      "Yemek": 4168,
      "ale": 4169,
      "aça": 4170,
      "bez": 4171,
      "cen": 4172,
      "cir": 4173,
      "cel": 4174,
      "cim": 4175,
      "cinin": 4176,
      "dara": 4177,
      "doy": 4178,
      "egemen": 4179,
      "fiz": 4180,
      "gul": 4181,
      "gesel": 4182,
      "hel": 4183,
      "ikat": 4184,
      "ibadet": 4185,
      "kl": 4186,
      "key": 4187,
      "kola": 4188,
      "koyun": 4189,
      "liyordu": 4190,
      "liydi": 4191,
      "niş": 4192,
      "ndan": 4193,
      "niçin": 4194,
      "not": 4195,
      "nükleer": 4196,
      "otu": 4197,
      "pop": 4198,
      "rum": 4199,
      "tiy": 4200,
      "tey": 4201,
      "yü": 4202,
      "yör": 4203,
      "zet": 4204,
      "zincir": 4205,
      "zirve": 4206,
      "Ça": 4207,
      "Çağ": 4208,
      "Çiller": 4209,
      "çal": 4210,
      "çeş": 4211,
      "ğından": 4212,
      "İT": 4213,
      "İh": 4214,
      "İÇ": 4215,
      "ışı": 4216,
      "ışıl": 4217,
      "Şey": 4218,
      "şal": 4219,
      "artış": 4220,
      "enf": 4221,
      "ilç": 4222,
      "ilya": 4223,
      "ilyon": 4224,
      "dah": 4225,
      "masal": 4226,
      "yas": 4227,
      "yalist": 4228,
      "labilecek": 4229,
      "elden": 4230,
      "ellerinde": 4231,
      "eketi": 4232,
      "kate": 4233,
      "kabuk": 4234,
      "unsur": 4235,
      "diy": 4236,
      "bire": 4237,
      "birinc": 4238,
      "birinci": 4239,
      "akşa": 4240,
      "etmişti": 4241,
      "olmanın": 4242,
      "lımı": 4243,
      "lıyorum": 4244,
      "onay": 4245,
      "lez": 4246,
      "lesi": 4247,
      "imar": 4248,
      "ünce": 4249,
      "ursuz": 4250,
      "izasyon": 4251,
      "tab": 4252,
      "tali": 4253,
      "tabi": 4254,
      "tava": 4255,
      "esin": 4256,
      "esas": 4257,
      "satır": 4258,
      "işin": 4259,
      "işik": 4260,
      "işlerini": 4261,
      "sıdır": 4262,
      "dul": 4263,
      "bulama": 4264,
      "buğda": 4265,
      "isyan": 4266,
      "isinden": 4267,
      "mıyordum": 4268,
      "rat": 4269,
      "raka": 4270,
      "okuyu": 4271,
      "landa": 4272,
      "lanmıştı": 4273,
      "aralarında": 4274,
      "alma": 4275,
      "aldım": 4276,
      "iklet": 4277,
      "ikisi": 4278,
      "uldu": 4279,
      "yapmış": 4280,
      "yaparken": 4281,
      "uşu": 4282,
      "manz": 4283,
      "cat": 4284,
      "uzman": 4285,
      "çıplak": 4286,
      "çığlık": 4287,
      "yanından": 4288,
      "başlı": 4289,
      "gelin": 4290,
      "geldik": 4291,
      "geliyordu": 4292,
      "oğl": 4293,
      "ayet": 4294,
      "sona": 4295,
      "sonu": 4296,
      "maktır": 4297,
      "ilerinin": 4298,
      "gördü": 4299,
      "ülkes": 4300,
      "lıklı": 4301,
      "veriyor": 4302,
      "şacak": 4303,
      "derdi": 4304,
      "derec": 4305,
      "miştim": 4306,
      "likten": 4307,
      "zafer": 4308,
      "bulur": 4309,
      "sez": 4310,
      "çoktan": 4311,
      "yerden": 4312,
      "geril": 4313,
      "olamaz": 4314,
      "arız": 4315,
      "lenme": 4316,
      "iter": 4317,
      "anıyor": 4318,
      "eşi": 4319,
      "duruyordu": 4320,
      "Türkçe": 4321,
      "olmayacak": 4322,
      "anlamda": 4323,
      "Birçok": 4324,
      "sınıfı": 4325,
      "kaldığı": 4326,
      "kaldırı": 4327,
      "kalmadı": 4328,
      "düşen": 4329,
      "kuru": 4330,
      "kurtarı": 4331,
      "çekin": 4332,
      "çekil": 4333,
      "yapış": 4334,
      "sürü": 4335,
      "sürede": 4336,
      "masıyla": 4337,
      "bence": 4338,
      "tuğu": 4339,
      "akıf": 4340,
      "koşu": 4341,
      "tarla": 4342,
      "mesinden": 4343,
      "mesaf": 4344,
      "değilim": 4345,
      "sevgil": 4346,
      "reh": 4347,
      "rep": 4348,
      "başlayacak": 4349,
      "Antalya": 4350,
      "dıkça": 4351,
      "bebek": 4352,
      "becer": 4353,
      "beğen": 4354,
      "bizler": 4355,
      "yaşamı": 4356,
      "yaşamak": 4357,
      "yolunda": 4358,
      "çalışmaya": 4359,
      "cular": 4360,
      "Sam": 4361,
      "park": 4362,
      "parlak": 4363,
      "harita": 4364,
      "kendimi": 4365,
      "kişiyi": 4366,
      "kişilerin": 4367,
      "lanıp": 4368,
      "lanıyordu": 4369,
      "memiz": 4370,
      "sözlerini": 4371,
      "kimsenin": 4372,
      "konuşa": 4373,
      "edilmiş": 4374,
      "gözük": 4375,
      "gözlem": 4376,
      "serin": 4377,
      "arkasına": 4378,
      "Ham": 4379,
      "omuz": 4380,
      "alım": 4381,
      "getirmiş": 4382,
      "sağlar": 4383,
      "hangisi": 4384,
      "yici": 4385,
      "Altın": 4386,
      "patates": 4387,
      "cağımız": 4388,
      "köpek": 4389,
      "gitmek": 4390,
      "gittiğ": 4391,
      "bahse": 4392,
      "adres": 4393,
      "açan": 4394,
      "Yap": 4395,
      "tatil": 4396,
      "kork": 4397,
      "tutar": 4398,
      "yanımda": 4399,
      "kuma": 4400,
      "sayfa": 4401,
      "dünyası": 4402,
      "açıdan": 4403,
      "eticiler": 4404,
      "doğrudan": 4405,
      "hepsi": 4406,
      "böylece": 4407,
      "istedim": 4408,
      "malzem": 4409,
      "dönemi": 4410,
      "benimle": 4411,
      "yürür": 4412,
      "yürüm": 4413,
      "özelliği": 4414,
      "ücel": 4415,
      "Ondan": 4416,
      "değerli": 4417,
      "kâr": 4418,
      "aşkın": 4419,
      "kemik": 4420,
      "hayatta": 4421,
      "gazin": 4422,
      "dağıt": 4423,
      "oturup": 4424,
      "davran": 4425,
      "babası": 4426,
      "alınan": 4427,
      "duğum": 4428,
      "okumaya": 4429,
      "diğimde": 4430,
      "tepki": 4431,
      "adıyla": 4432,
      "görevi": 4433,
      "ülkeye": 4434,
      "ülkeyi": 4435,
      "yönetmen": 4436,
      "Evren": 4437,
      "hikay": 4438,
      "ekibi": 4439,
      "Elbette": 4440,
      "solunum": 4441,
      "seyre": 4442,
      "çalışmaları": 4443,
      "dakikada": 4444,
      "devletin": 4445,
      "Haziran": 4446,
      "biçimi": 4447,
      "hayret": 4448,
      "İnsanların": 4449,
      "duygusal": 4450,
      "belirtti": 4451,
      "Karşı": 4452,
      "nereye": 4453,
      "hayata": 4454,
      "duktan": 4455,
      "grubu": 4456,
      "disip": 4457,
      "bayram": 4458,
      "Belçi": 4459,
      "liraya": 4460,
      "çözüm": 4461,
      "Gazet": 4462,
      "faktör": 4463,
      "kampanya": 4464,
      "luğunu": 4465,
      "annesi": 4466,
      "öncesi": 4467,
      "rekabet": 4468,
      "ettiğim": 4469,
      "Kupası": 4470,
      "işlev": 4471,
      "nane": 4472,
      "Çocuklar": 4473,
      "feda": 4474,
      "arkadaşım": 4475,
      "istifa": 4476,
      "yönetiminin": 4477,
      "Doğan": 4478,
      "form": 4479,
      "forman": 4480,
      "tığınız": 4481,
      "hazin": 4482,
      "kırık": 4483,
      "alışkan": 4484,
      "kalabalık": 4485,
      "yeteneğ": 4486,
      "!..\"": 4487,
      "Güven": 4488,
      "şunları": 4489,
      "örgüt": 4490,
      "Baykal": 4491,
      "Dost": 4492,
      "suyun": 4493,
      "etkinlik": 4494,
      "hapis": 4495,
      "Dış": 4496,
      "YOR": 4497,
      "Zaman": 4498,
      "Yoksa": 4499,
      "nüf": 4500,
      "piyona": 4501,
      "yiyecek": 4502,
      "üzüntü": 4503,
      "Mahkemesi": 4504,
      "Gaziantep": 4505,
      "Yahudi": 4506,
      "edilebilir": 4507,
      "gurur": 4508,
      "BİR": 4509,
      "Direktör": 4510,
      "Dikkat": 4511,
      "Televizyon": 4512,
      "Vakfı": 4513,
      "otomobil": 4514,
      "yuvarlak": 4515,
      "sarımsak": 4516,
      "delikanlı": 4517,
      "misafir": 4518,
      "Bush": 4519,
      "Japon": 4520,
      "ameliyat": 4521,
      "Öğretmen": 4522,
      "Eğitim": 4523,
      "24": 4524,
      "Ad": 4525,
      "At": 4526,
      "Adan": 4527,
      "Açık": 4528,
      "Acaba": 4529,
      "Bor": 4530,
      "Bilg": 4531,
      "Bele": 4532,
      "Dr": 4533,
      "Düz": 4534,
      "Ekon": 4535,
      "ESİ": 4536,
      "Fes": 4537,
      "Fik": 4538,
      "Gele": 4539,
      "Gala": 4540,
      "Gelen": 4541,
      "Hani": 4542,
      "IR": 4543,
      "Kul": 4544,
      "Kör": 4545,
      "Lon": 4546,
      "LAR": 4547,
      "Mini": 4548,
      "MHP": 4549,
      "NAT": 4550,
      "Os": 4551,
      "Pet": 4552,
      "Ren": 4553,
      "Sar": 4554,
      "Seç": 4555,
      "Sezer": 4556,
      "Silah": 4557,
      "Tara": 4558,
      "Tatlı": 4559,
      "UN": 4560,
      "Va": 4561,
      "Van": 4562,
      "Vek": 4563,
      "Vatan": 4564,
      "YA": 4565,
      "Yay": 4566,
      "Yaz": 4567,
      "alar": 4568,
      "asa": 4569,
      "ast": 4570,
      "ailen": 4571,
      "bini": 4572,
      "barı": 4573,
      "canım": 4574,
      "dından": 4575,
      "dolay": 4576,
      "dunuz": 4577,
      "gal": 4578,
      "hn": 4579,
      "hı": 4580,
      "miydi": 4581,
      "nden": 4582,
      "nas": 4583,
      "niye": 4584,
      "normal": 4585,
      "osu": 4586,
      "ps": 4587,
      "pür": 4588,
      "pul": 4589,
      "ry": 4590,
      "ron": 4591,
      "rim": 4592,
      "riyet": 4593,
      "sir": 4594,
      "sop": 4595,
      "sör": 4596,
      "sunda": 4597,
      "som": 4598,
      "süp": 4599,
      "soğu": 4600,
      "slo": 4601,
      "tında": 4602,
      "vb": 4603,
      "vara": 4604,
      "vik": 4605,
      "yel": 4606,
      "yip": 4607,
      "zat": 4608,
      "Çif": 4609,
      "Öy": 4610,
      "Öte": 4611,
      "Ün": 4612,
      "çet": 4613,
      "çök": 4614,
      "öden": 4615,
      "öbür": 4616,
      "İZ": 4617,
      "İsa": 4618,
      "İli": 4619,
      "Şa": 4620,
      "Şam": 4621,
      "Şarkı": 4622,
      "şim": 4623,
      "şok": 4624,
      "şef": 4625,
      "armış": 4626,
      "erke": 4627,
      "ertesi": 4628,
      "ang": 4629,
      "ant": 4630,
      "inti": 4631,
      "deme": 4632,
      "dedik": 4633,
      "maması": 4634,
      "mamız": 4635,
      "maşır": 4636,
      "makam": 4637,
      "yayı": 4638,
      "lamen": 4639,
      "elli": 4640,
      "elbet": 4641,
      "oradan": 4642,
      "kaha": 4643,
      "kağı": 4644,
      "kabil": 4645,
      "diyem": 4646,
      "birleş": 4647,
      "etki": 4648,
      "olik": 4649,
      "olgun": 4650,
      "lıp": 4651,
      "onik": 4652,
      "onca": 4653,
      "ledi": 4654,
      "izma": 4655,
      "izah": 4656,
      "tad": 4657,
      "taj": 4658,
      "taç": 4659,
      "tabur": 4660,
      "bacak": 4661,
      "sağı": 4662,
      "savur": 4663,
      "hav": 4664,
      "hala": 4665,
      "hadi": 4666,
      "hayır": 4667,
      "lig": 4668,
      "işler": 4669,
      "işken": 4670,
      "işliyor": 4671,
      "sıvı": 4672,
      "bulan": 4673,
      "bulacak": 4674,
      "eydi": 4675,
      "isiyle": 4676,
      "mıydı": 4677,
      "mışım": 4678,
      "raman": 4679,
      "içki": 4680,
      "ınızı": 4681,
      "bildi": 4682,
      "bilmesi": 4683,
      "göv": 4684,
      "larımıza": 4685,
      "şıp": 4686,
      "alet": 4687,
      "almaya": 4688,
      "aldığını": 4689,
      "alınır": 4690,
      "tec": 4691,
      "ted": 4692,
      "önder": 4693,
      "ikiye": 4694,
      "gidil": 4695,
      "evlen": 4696,
      "ultu": 4697,
      "kariy": 4698,
      "yaptır": 4699,
      "cami": 4700,
      "çıl": 4701,
      "çır": 4702,
      "kenti": 4703,
      "oğlum": 4704,
      "ayna": 4705,
      "sonsuz": 4706,
      "sonbahar": 4707,
      "sonucunda": 4708,
      "sonraki": 4709,
      "çat": 4710,
      "çamaşır": 4711,
      "üştü": 4712,
      "atma": 4713,
      "görünü": 4714,
      "görmeye": 4715,
      "gördüğüm": 4716,
      "elerinde": 4717,
      "rız": 4718,
      "direk": 4719,
      "vert": 4720,
      "verme": 4721,
      "verip": 4722,
      "neş": 4723,
      "neği": 4724,
      "stü": 4725,
      "stos": 4726,
      "steri": 4727,
      "şap": 4728,
      "günler": 4729,
      "dersiniz": 4730,
      "yecek": 4731,
      "oyla": 4732,
      "varı": 4733,
      "bulut": 4734,
      "buldum": 4735,
      "sef": 4736,
      "yerler": 4737,
      "yerinden": 4738,
      "dıran": 4739,
      "geriye": 4740,
      "olacağını": 4741,
      "olağan": 4742,
      "özen": 4743,
      "uyku": 4744,
      "leniyor": 4745,
      "duruma": 4746,
      "yılların": 4747,
      "yılmış": 4748,
      "yıllardır": 4749,
      "asının": 4750,
      "olmadan": 4751,
      "geçmek": 4752,
      "geçtik": 4753,
      "yüklü": 4754,
      "anlata": 4755,
      "anlatan": 4756,
      "Birkaç": 4757,
      "Birinci": 4758,
      "öldü": 4759,
      "kalma": 4760,
      "düşer": 4761,
      "düşmüş": 4762,
      "düşkün": 4763,
      "kurmay": 4764,
      "istek": 4765,
      "istiyoruz": 4766,
      "dildi": 4767,
      "çekiyor": 4768,
      "yapıt": 4769,
      "zamanlarda": 4770,
      "belgel": 4771,
      "mide": 4772,
      "tuta": 4773,
      "anacak": 4774,
      "muşlar": 4775,
      "yüzü": 4776,
      "topla": 4777,
      "adamı": 4778,
      "adayı": 4779,
      "genin": 4780,
      "sevk": 4781,
      "yardı": 4782,
      "başladığı": 4783,
      "yatak": 4784,
      "bizde": 4785,
      "bizden": 4786,
      "yaşayan": 4787,
      "kanın": 4788,
      "yolda": 4789,
      "yoluyla": 4790,
      "yazınız": 4791,
      "söyleyen": 4792,
      "yönel": 4793,
      "yönlendir": 4794,
      "iyetin": 4795,
      "Sağlık": 4796,
      "mazlar": 4797,
      "yaşar": 4798,
      "öğle": 4799,
      "bulunduğunu": 4800,
      "ulaşı": 4801,
      "sözler": 4802,
      "sözleri": 4803,
      "sözcü": 4804,
      "bakın": 4805,
      "bakanı": 4806,
      "baktığı": 4807,
      "bakarak": 4808,
      "kims": 4809,
      "oluyordu": 4810,
      "edilmesi": 4811,
      "hakem": 4812,
      "hakları": 4813,
      "yetk": 4814,
      "yetiştir": 4815,
      "Haf": 4816,
      "Hali": 4817,
      "Hayat": 4818,
      "getiril": 4819,
      "getirildi": 4820,
      "içindeki": 4821,
      "üste": 4822,
      "yenilg": 4823,
      "sağlamak": 4824,
      "oyunc": 4825,
      "belirli": 4826,
      "paşa": 4827,
      "köle": 4828,
      "kömür": 4829,
      "gitmiş": 4830,
      "gösteriyor": 4831,
      "göstererek": 4832,
      "önceden": 4833,
      "tanıt": 4834,
      "çıkarken": 4835,
      "nedeni": 4836,
      "taraftan": 4837,
      "olurlar": 4838,
      "Başka": 4839,
      "Erz": 4840,
      "Ermen": 4841,
      "bölün": 4842,
      "değişim": 4843,
      "durumlarda": 4844,
      "çiğ": 4845,
      "çici": 4846,
      "yazıl": 4847,
      "Ardından": 4848,
      "açıp": 4849,
      "düğün": 4850,
      "liğinin": 4851,
      "oluşuyor": 4852,
      "hepsinin": 4853,
      "hazırlanır": 4854,
      "hassas": 4855,
      "böylesine": 4856,
      "güzellik": 4857,
      "isteği": 4858,
      "istediğim": 4859,
      "bıraka": 4860,
      "Ayşe": 4861,
      "elikle": 4862,
      "mutluluk": 4863,
      "istemez": 4864,
      "yüreğ": 4865,
      "yürüy": 4866,
      "üyeli": 4867,
      "alay": 4868,
      "bırakıl": 4869,
      "ederler": 4870,
      "ücü": 4871,
      "Araba": 4872,
      "Onların": 4873,
      "inanç": 4874,
      "nemli": 4875,
      "tırır": 4876,
      "Akdeniz": 4877,
      "şampiyon": 4878,
      "kırk": 4879,
      "sayıda": 4880,
      "kullandığı": 4881,
      "Kurtul": 4882,
      "tepk": 4883,
      "kuşkusuz": 4884,
      "rolü": 4885,
      "ağacı": 4886,
      "ilişkileri": 4887,
      "Aslan": 4888,
      "Asker": 4889,
      "Anayasa": 4890,
      "Yıllardır": 4891,
      "Yıldırım": 4892,
      "eceği": 4893,
      "süel": 4894,
      "çaresiz": 4895,
      "kavram": 4896,
      "ucuz": 4897,
      "landırıl": 4898,
      "Tabi": 4899,
      "Sanki": 4900,
      "performan": 4901,
      "Hazret": 4902,
      "boyu": 4903,
      "tasaray": 4904,
      "Konya": 4905,
      "Meral": 4906,
      "siyasal": 4907,
      "katılım": 4908,
      "olduklarını": 4909,
      "belirtildi": 4910,
      "taşıyan": 4911,
      "hayatım": 4912,
      "gazete": 4913,
      "gazetec": 4914,
      "Genelkurmay": 4915,
      "kitaplar": 4916,
      "lerime": 4917,
      "bayrak": 4918,
      "rahatsız": 4919,
      "çalışıyordu": 4920,
      "yaşamını": 4921,
      "yemeğ": 4922,
      "bekleyen": 4923,
      "liralık": 4924,
      "kahkaha": 4925,
      "halefet": 4926,
      "hedefleri": 4927,
      "trilyon": 4928,
      "tavır": 4929,
      "askerlik": 4930,
      "katıldı": 4931,
      "bağırı": 4932,
      "merkezi": 4933,
      "kısm": 4934,
      "bölümü": 4935,
      "olmazsa": 4936,
      "kurumun": 4937,
      "Abdul": 4938,
      "Sıcak": 4939,
      "üretim": 4940,
      "kaldırıl": 4941,
      "lasyon": 4942,
      "milletvek": 4943,
      "Rapor": 4944,
      "iyimser": 4945,
      "arabayı": 4946,
      "çocuğu": 4947,
      "beklent": 4948,
      "sağlıklı": 4949,
      "Paris": 4950,
      "Parti": 4951,
      "olmalıdır": 4952,
      "yükselt": 4953,
      "açıklamada": 4954,
      "Roma": 4955,
      "kaleci": 4956,
      "kuralları": 4957,
      "borç": 4958,
      "kendilerine": 4959,
      "savunma": 4960,
      "Hint": 4961,
      "Hemen": 4962,
      "keşf": 4963,
      "suyunu": 4964,
      "gayret": 4965,
      "çıkacak": 4966,
      "Komisyonu": 4967,
      "hırsız": 4968,
      "arzu": 4969,
      "özgürlük": 4970,
      "korumak": 4971,
      "hücr": 4972,
      "meşgul": 4973,
      "bölgede": 4974,
      "Kızıl": 4975,
      "dolarlık": 4976,
      "çarpıcı": 4977,
      "Taksim": 4978,
      "firma": 4979,
      "peyn": 4980,
      "evrensel": 4981,
      "Demokrat": 4982,
      "bağımsız": 4983,
      "John": 4984,
      "İbn": 4985,
      "yavr": 4986,
      "Selçuk": 4987,
      "moral": 4988,
      "obj": 4989,
      "yumuşak": 4990,
      "elektrik": 4991,
      "Geor": 4992,
      "Rusya": 4993,
      "Yardım": 4994,
      "bomba": 4995,
      "hukuk": 4996,
      "ötesinde": 4997,
      "İmparator": 4998,
      "albüm": 4999,
      "yolculuk": 5000,
      "heyecanla": 5001,
      "gibiydi": 5002,
      "ülkemizde": 5003,
      "Hıristiy": 5004,
      "husus": 5005,
      "stand": 5006,
      "müdahale": 5007,
      "Nevruz": 5008,
      "Galatasaray": 5009,
      "NATO": 5010,
      "ailenin": 5011,
      "21": 5012,
      "28": 5013,
      "29": 5014,
      "31": 5015,
      "35": 5016,
      "70": 5017,
      "80": 5018,
      "90": 5019,
      "Alan": 5020,
      "Bos": 5021,
      "Büy": 5022,
      "Brez": 5023,
      "Ch": 5024,
      "Cey": 5025,
      "Chat": 5026,
      "Cam": 5027,
      "DO": 5028,
      "Dar": 5029,
      "Dil": 5030,
      "Dis": 5031,
      "Def": 5032,
      "EC": 5033,
      "EL": 5034,
      "EY": 5035,
      "Ecev": 5036,
      "Fe": 5037,
      "Gi": 5038,
      "Gö": 5039,
      "Hu": 5040,
      "Hâ": 5041,
      "Hür": 5042,
      "Hele": 5043,
      "Hoş": 5044,
      "II": 5045,
      "Ja": 5046,
      "Jüp": 5047,
      "KO": 5048,
      "Kr": 5049,
      "Kil": 5050,
      "Kum": 5051,
      "Mev": 5052,
      "Mut": 5053,
      "Mez": 5054,
      "Mos": 5055,
      "Mic": 5056,
      "NE": 5057,
      "Nâ": 5058,
      "Nor": 5059,
      "Nur": 5060,
      "Nas": 5061,
      "Ok": 5062,
      "Olim": 5063,
      "Po": 5064,
      "Rüzgâr": 5065,
      "Sek": 5066,
      "Sana": 5067,
      "Sonu": 5068,
      "Spor": 5069,
      "SAL": 5070,
      "Stra": 5071,
      "Te": 5072,
      "TÜ": 5073,
      "Tİ": 5074,
      "Tut": 5075,
      "Tam": 5076,
      "YP": 5077,
      "Yük": 5078,
      "Yücel": 5079,
      "Zor": 5080,
      "abilir": 5081,
      "alanı": 5082,
      "atış": 5083,
      "banı": 5084,
      "biye": 5085,
      "barış": 5086,
      "cileri": 5087,
      "dde": 5088,
      "dolan": 5089,
      "eceğim": 5090,
      "fu": 5091,
      "gev": 5092,
      "hol": 5093,
      "hele": 5094,
      "hanım": 5095,
      "ima": 5096,
      "ite": 5097,
      "kül": 5098,
      "keli": 5099,
      "kele": 5100,
      "keyi": 5101,
      "ktaş": 5102,
      "kuyu": 5103,
      "liyorum": 5104,
      "lilerin": 5105,
      "mum": 5106,
      "mara": 5107,
      "miyorum": 5108,
      "nur": 5109,
      "naz": 5110,
      "neyi": 5111,
      "netic": 5112,
      "pil": 5113,
      "pal": 5114,
      "pos": 5115,
      "palı": 5116,
      "pres": 5117,
      "rlar": 5118,
      "rul": 5119,
      "rut": 5120,
      "rit": 5121,
      "röp": 5122,
      "slan": 5123,
      "sul": 5124,
      "solu": 5125,
      "soyun": 5126,
      "saray": 5127,
      "sömür": 5128,
      "tç": 5129,
      "tleri": 5130,
      "tına": 5131,
      "ust": 5132,
      "viş": 5133,
      "yiy": 5134,
      "ymış": 5135,
      "ydım": 5136,
      "Çan": 5137,
      "Çev": 5138,
      "Öl": 5139,
      "ân": 5140,
      "âlem": 5141,
      "çan": 5142,
      "çür": 5143,
      "çöp": 5144,
      "öte": 5145,
      "ötek": 5146,
      "Şük": 5147,
      "Şeri": 5148,
      "Şehir": 5149,
      "areti": 5150,
      "ansı": 5151,
      "anfil": 5152,
      "indi": 5153,
      "enler": 5154,
      "ire": 5155,
      "irdi": 5156,
      "deta": 5157,
      "deti": 5158,
      "demet": 5159,
      "dediğimiz": 5160,
      "detay": 5161,
      "larsa": 5162,
      "ilmi": 5163,
      "ilmesini": 5164,
      "dayanı": 5165,
      "dayanık": 5166,
      "mama": 5167,
      "mamalı": 5168,
      "masanın": 5169,
      "yata": 5170,
      "lamaz": 5171,
      "elindeki": 5172,
      "kaş": 5173,
      "kabu": 5174,
      "kalıyor": 5175,
      "uncu": 5176,
      "dikal": 5177,
      "aktara": 5178,
      "lerken": 5179,
      "lılar": 5180,
      "lıyordu": 5181,
      "onur": 5182,
      "leyerek": 5183,
      "iman": 5184,
      "imkan": 5185,
      "imdeki": 5186,
      "ünist": 5187,
      "tımı": 5188,
      "ves": 5189,
      "izler": 5190,
      "taban": 5191,
      "tabağ": 5192,
      "taşır": 5193,
      "baz": 5194,
      "badem": 5195,
      "saya": 5196,
      "sayıl": 5197,
      "sakal": 5198,
      "had": 5199,
      "hatıra": 5200,
      "lisi": 5201,
      "işten": 5202,
      "işlerine": 5203,
      "eman": 5204,
      "emir": 5205,
      "emem": 5206,
      "emey": 5207,
      "embe": 5208,
      "sıt": 5209,
      "buy": 5210,
      "buz": 5211,
      "buki": 5212,
      "bucak": 5213,
      "eylem": 5214,
      "mıyla": 5215,
      "mısır": 5216,
      "mısınız": 5217,
      "raç": 5218,
      "rakam": 5219,
      "okula": 5220,
      "okulu": 5221,
      "yıka": 5222,
      "yışı": 5223,
      "yıkan": 5224,
      "danoz": 5225,
      "lanmaya": 5226,
      "bildiği": 5227,
      "biliyordu": 5228,
      "bilinc": 5229,
      "gösteri": 5230,
      "tit": 5231,
      "tival": 5232,
      "arama": 5233,
      "arasına": 5234,
      "şırı": 5235,
      "aliz": 5236,
      "almadan": 5237,
      "alkol": 5238,
      "alkış": 5239,
      "teb": 5240,
      "önü": 5241,
      "önde": 5242,
      "önlem": 5243,
      "önümüz": 5244,
      "ikmet": 5245,
      "evin": 5246,
      "evleri": 5247,
      "tansiy": 5248,
      "karn": 5249,
      "cadde": 5250,
      "başa": 5251,
      "başından": 5252,
      "geleceğini": 5253,
      "geleceğ": 5254,
      "medik": 5255,
      "mediğini": 5256,
      "oğul": 5257,
      "oğuş": 5258,
      "sandık": 5259,
      "sansör": 5260,
      "ilerde": 5261,
      "ilerini": 5262,
      "çatış": 5263,
      "çamur": 5264,
      "çabuk": 5265,
      "atla": 5266,
      "attığı": 5267,
      "görmez": 5268,
      "eleriyle": 5269,
      "elerdeki": 5270,
      "içinden": 5271,
      "vermek": 5272,
      "verildi": 5273,
      "vermeden": 5274,
      "geceler": 5275,
      "güne": 5276,
      "günün": 5277,
      "günden": 5278,
      "gündem": 5279,
      "dere": 5280,
      "dern": 5281,
      "mektir": 5282,
      "oyunun": 5283,
      "varlık": 5284,
      "varlığı": 5285,
      "bulmak": 5286,
      "unus": 5287,
      "değeri": 5288,
      "konul": 5289,
      "gereği": 5290,
      "özgü": 5291,
      "uyumlu": 5292,
      "lendim": 5293,
      "tırdı": 5294,
      "tırman": 5295,
      "itler": 5296,
      "durdu": 5297,
      "duruyor": 5298,
      "asit": 5299,
      "olmaması": 5300,
      "luğa": 5301,
      "geçmesi": 5302,
      "örü": 5303,
      "civar": 5304,
      "civert": 5305,
      "anlayış": 5306,
      "Birden": 5307,
      "sonrasında": 5308,
      "kalb": 5309,
      "facık": 5310,
      "diğinden": 5311,
      "kurdu": 5312,
      "kurmuş": 5313,
      "dili": 5314,
      "dilen": 5315,
      "dilek": 5316,
      "dilik": 5317,
      "çıkma": 5318,
      "çıkmış": 5319,
      "çekildi": 5320,
      "mayacağı": 5321,
      "iptal": 5322,
      "leriniz": 5323,
      "sürük": 5324,
      "sürül": 5325,
      "sürdü": 5326,
      "terna": 5327,
      "insanlarla": 5328,
      "Bağda": 5329,
      "amam": 5330,
      "tutam": 5331,
      "dikkate": 5332,
      "karşıya": 5333,
      "anah": 5334,
      "anayasa": 5335,
      "yüzünde": 5336,
      "yüzyılın": 5337,
      "rosek": 5338,
      "undaki": 5339,
      "tartı": 5340,
      "katlı": 5341,
      "topu": 5342,
      "topar": 5343,
      "toplam": 5344,
      "meslek": 5345,
      "adalet": 5346,
      "soruştur": 5347,
      "muhaf": 5348,
      "mızdan": 5349,
      "üzerindeki": 5350,
      "rej": 5351,
      "başlamış": 5352,
      "Anlat": 5353,
      "gereksin": 5354,
      "gerektiği": 5355,
      "metli": 5356,
      "bebe": 5357,
      "yaşamın": 5358,
      "yollar": 5359,
      "yolunu": 5360,
      "yollarını": 5361,
      "sızdır": 5362,
      "Kadını": 5363,
      "kapsam": 5364,
      "kapatıl": 5365,
      "çalışmak": 5366,
      "küp": 5367,
      "söyleş": 5368,
      "İstik": 5369,
      "iyetini": 5370,
      "Sait": 5371,
      "yaşları": 5372,
      "kişili": 5373,
      "bulunmayan": 5374,
      "giriyor": 5375,
      "girdim": 5376,
      "ulacak": 5377,
      "meme": 5378,
      "ortaj": 5379,
      "ortamda": 5380,
      "kaygı": 5381,
      "kaybı": 5382,
      "bakanın": 5383,
      "İnan": 5384,
      "İnanı": 5385,
      "konuşur": 5386,
      "konuşmak": 5387,
      "edilmişti": 5388,
      "haksız": 5389,
      "meyv": 5390,
      "gözden": 5391,
      "sergi": 5392,
      "Hacı": 5393,
      "düzel": 5394,
      "otel": 5395,
      "reteri": 5396,
      "ğustos": 5397,
      "bekley": 5398,
      "sağlaya": 5399,
      "laştırıl": 5400,
      "Alt": 5401,
      "belirgin": 5402,
      "mert": 5403,
      "payı": 5404,
      "lamada": 5405,
      "devre": 5406,
      "burc": 5407,
      "burcu": 5408,
      "buradan": 5409,
      "diyoruz": 5410,
      "tanımak": 5411,
      "görecek": 5412,
      "yınca": 5413,
      "çıkart": 5414,
      "çıkarak": 5415,
      "çıkarır": 5416,
      "çıkarmaya": 5417,
      "müh": 5418,
      "müt": 5419,
      "müyor": 5420,
      "barın": 5421,
      "tarafı": 5422,
      "Erbil": 5423,
      "üstün": 5424,
      "Yasa": 5425,
      "bölgenin": 5426,
      "korsan": 5427,
      "korkus": 5428,
      "tutun": 5429,
      "tutmak": 5430,
      "tutuk": 5431,
      "dışındaki": 5432,
      "önemi": 5433,
      "ecektir": 5434,
      "yazık": 5435,
      "yazılmış": 5436,
      "dünyadaki": 5437,
      "açılan": 5438,
      "çocukları": 5439,
      "çocukların": 5440,
      "çocukluğ": 5441,
      "lemeler": 5442,
      "hepimiz": 5443,
      "hepimizin": 5444,
      "hazırlık": 5445,
      "ağının": 5446,
      "paralel": 5447,
      "lırken": 5448,
      "karışık": 5449,
      "olaylara": 5450,
      "istediğini": 5451,
      "uygar": 5452,
      "uyorsunuz": 5453,
      "tılması": 5454,
      "kadınların": 5455,
      "dönemin": 5456,
      "biridir": 5457,
      "isteme": 5458,
      "istemiş": 5459,
      "yürek": 5460,
      "üyesi": 5461,
      "üydü": 5462,
      "olmuştum": 5463,
      "profes": 5464,
      "lığından": 5465,
      "kanıt": 5466,
      "adamları": 5467,
      "Bize": 5468,
      "güçlerini": 5469,
      "teles": 5470,
      "koyu": 5471,
      "koydu": 5472,
      "Kıraç": 5473,
      "sinemaya": 5474,
      "sürec": 5475,
      "yapacağı": 5476,
      "yapacağını": 5477,
      "Günlük": 5478,
      "tarihli": 5479,
      "test": 5480,
      "dağıl": 5481,
      "Akrep": 5482,
      "Dünyanın": 5483,
      "domates": 5484,
      "kilomet": 5485,
      "ladılar": 5486,
      "önemlidir": 5487,
      "önemlisi": 5488,
      "efen": 5489,
      "odasında": 5490,
      "alındı": 5491,
      "alınması": 5492,
      "bitmiş": 5493,
      "bitişik": 5494,
      "kapıyı": 5495,
      "kapısını": 5496,
      "yaratıcı": 5497,
      "bazıları": 5498,
      "düzenlenen": 5499,
      "dolaşır": 5500,
      "laket": 5501,
      "duğunuz": 5502,
      "okuma": 5503,
      "Kurul": 5504,
      "anlatmak": 5505,
      "anlattığı": 5506,
      "kazandı": 5507,
      "yaptılar": 5508,
      "anımsa": 5509,
      "Asya": 5510,
      "çarşı": 5511,
      "Dünyada": 5512,
      "Avrupalı": 5513,
      "2005": 5514,
      "dokuz": 5515,
      "vitam": 5516,
      "bıraktı": 5517,
      "çalışmalarını": 5518,
      "ANI": 5519,
      "panyol": 5520,
      "sosyalist": 5521,
      "izleyen": 5522,
      "cağınız": 5523,
      "kutlama": 5524,
      "ümüzü": 5525,
      "toplumun": 5526,
      "müzi": 5527,
      "unuttur": 5528,
      "atıp": 5529,
      "köylü": 5530,
      "İlhan": 5531,
      "ATAT": 5532,
      "Babamın": 5533,
      "Bursa": 5534,
      "parçaları": 5535,
      "dostluk": 5536,
      "krem": 5537,
      "tahta": 5538,
      "dukça": 5539,
      "tiğim": 5540,
      "sınırlı": 5541,
      "sınırları": 5542,
      "anlamlı": 5543,
      "karşısındaki": 5544,
      "fırın": 5545,
      "eksiyon": 5546,
      "Derneği": 5547,
      "değerlendiril": 5548,
      "ateşten": 5549,
      "gari": 5550,
      "garip": 5551,
      "liradan": 5552,
      "çözümü": 5553,
      "uğraş": 5554,
      "Denktaş": 5555,
      "Gazze": 5556,
      "Çocu": 5557,
      "satın": 5558,
      "avu": 5559,
      "hesa": 5560,
      "patlama": 5561,
      "bildirildi": 5562,
      "toplantısında": 5563,
      "Mars": 5564,
      "şans": 5565,
      "tavuk": 5566,
      "annemin": 5567,
      "Maliye": 5568,
      "ettiğimiz": 5569,
      "Toplantı": 5570,
      "bozul": 5571,
      "bozuk": 5572,
      "kendisinin": 5573,
      "Abdül": 5574,
      "Hakan": 5575,
      "Sıra": 5576,
      "diplo": 5577,
      "saçma": 5578,
      "saçları": 5579,
      "akıllı": 5580,
      "partilerin": 5581,
      "ihtimal": 5582,
      "silahlı": 5583,
      "Kent": 5584,
      "feoda": 5585,
      "Önc": 5586,
      "lasik": 5587,
      "ailesi": 5588,
      "modern": 5589,
      "suret": 5590,
      "dizi": 5591,
      "oynaya": 5592,
      "bekleniyor": 5593,
      "dışarıya": 5594,
      "alışveriş": 5595,
      "karıştırarak": 5596,
      "Demirel": 5597,
      "Turizm": 5598,
      "heyeti": 5599,
      "yetenek": 5600,
      "Hastanesi": 5601,
      "kültürel": 5602,
      "nitelik": 5603,
      "Köş": 5604,
      "Kötü": 5605,
      "Mesela": 5606,
      "Prof": 5607,
      "kirli": 5608,
      "çizg": 5609,
      "mağaz": 5610,
      "herkese": 5611,
      "isteyenler": 5612,
      "sinirli": 5613,
      "demokratik": 5614,
      "Cumhuriyeti": 5615,
      "Bankası": 5616,
      "Geçmiş": 5617,
      "bisiklet": 5618,
      "meliyim": 5619,
      "layıcı": 5620,
      "zararlı": 5621,
      "Afrika": 5622,
      "Kayseri": 5623,
      "peşinde": 5624,
      "maydanoz": 5625,
      "sanatçılar": 5626,
      "LİK": 5627,
      "aydınlık": 5628,
      "Koç": 5629,
      "Rumeli": 5630,
      "litre": 5631,
      "kendimiz": 5632,
      "mesajı": 5633,
      "oranında": 5634,
      "etkilem": 5635,
      "düşünüyorum": 5636,
      "düşüncelerini": 5637,
      "gittikçe": 5638,
      "Katolik": 5639,
      "Resim": 5640,
      "liliği": 5641,
      "misiniz": 5642,
      "pazarı": 5643,
      "vazgeç": 5644,
      "vücud": 5645,
      "değişiklikler": 5646,
      "Gerçekten": 5647,
      "peygam": 5648,
      "komutan": 5649,
      "söyleyecek": 5650,
      "otobüs": 5651,
      "gücüyle": 5652,
      "sahneye": 5653,
      "Alev": 5654,
      "Hollanda": 5655,
      "adeta": 5656,
      "kredi": 5657,
      "gerçeği": 5658,
      "müdürü": 5659,
      "şiddetli": 5660,
      "Bulgar": 5661,
      "Grubu": 5662,
      "Sayın": 5663,
      "Temmuz": 5664,
      "itiraf": 5665,
      "Ülkem": 5666,
      "tasarru": 5667,
      "Gali": 5668,
      "SEV": 5669,
      "pirinç": 5670,
      "trafik": 5671,
      "zehirli": 5672,
      "sorununun": 5673,
      "kaynatın": 5674,
      "problem": 5675,
      "çerçevesinde": 5676,
      "Ayakkabı": 5677,
      "büny": 5678,
      "paket": 5679,
      "tencerede": 5680,
      "milliyetçi": 5681,
      "sessizce": 5682,
      "geleneksel": 5683,
      "çoğunlukla": 5684,
      "Aşağıdaki": 5685,
      "Behçet": 5686,
      "Yeşil": 5687,
      "göğüs": 5688,
      "edebiyat": 5689,
      "personel": 5690,
      "Muhammed": 5691,
      "telefonu": 5692,
      "Fakültesi": 5693,
      "Murat": 5694,
      "Uğur": 5695,
      "fizik": 5696,
      "enflasyon": 5697,
      "disiplin": 5698,
      "Güvenlik": 5699,
      "nüfus": 5700,
      "piyonası": 5701,
      "Adana": 5702,
      "Belediye": 5703,
      "somut": 5704,
      "İliş": 5705,
      "Şampiyonası": 5706,
      "Erzurum": 5707,
      "yürüyüş": 5708,
      "Kurtuluş": 5709,
      "Abdullah": 5710,
      "Yardımcısı": 5711,
      "Brezilya": 5712,
      "Ecevit": 5713,
      "Jüpiter": 5714,
      "Moskova": 5715,
      "Olimpiyat": 5716,
      "röportaj": 5717,
      "Bağdat": 5718,
      "roseksüel": 5719,
      "34": 5720,
      "38": 5721,
      "300": 5722,
      "42": 5723,
      "54": 5724,
      "66": 5725,
      "700": 5726,
      "84": 5727,
      "800": 5728,
      "Ac": 5729,
      "Aile": 5730,
      "Acı": 5731,
      "Ayla": 5732,
      "Ağır": 5733,
      "Aaa": 5734,
      "BB": 5735,
      "Bölümü": 5736,
      "Co": 5737,
      "Cor": 5738,
      "Cha": 5739,
      "Coş": 5740,
      "Cihan": 5741,
      "Del": 5742,
      "Dana": 5743,
      "Dönem": 5744,
      "DEN": 5745,
      "Dolayı": 5746,
      "DYP": 5747,
      "EM": 5748,
      "Ee": 5749,
      "Eğ": 5750,
      "Ede": 5751,
      "Ekim": 5752,
      "Emin": 5753,
      "Fı": 5754,
      "Far": 5755,
      "Fas": 5756,
      "Gez": 5757,
      "Gerek": 5758,
      "Gec": 5759,
      "He": 5760,
      "Ho": 5761,
      "Hikmet": 5762,
      "Ir": 5763,
      "KÜ": 5764,
      "Kü": 5765,
      "Kİ": 5766,
      "LI": 5767,
      "Lo": 5768,
      "Lan": 5769,
      "Ley": 5770,
      "Lis": 5771,
      "Lad": 5772,
      "Me": 5773,
      "Men": 5774,
      "Mün": 5775,
      "Meş": 5776,
      "Mide": 5777,
      "Naz": 5778,
      "OR": 5779,
      "Otur": 5780,
      "Pat": 5781,
      "Pop": 5782,
      "Pren": 5783,
      "Ref": 5784,
      "SM": 5785,
      "Sey": 5786,
      "Soy": 5787,
      "Suy": 5788,
      "Sanı": 5789,
      "Selim": 5790,
      "Sizi": 5791,
      "Sov": 5792,
      "Stadı": 5793,
      "TA": 5794,
      "TC": 5795,
      "Tanı": 5796,
      "Taş": 5797,
      "Telek": 5798,
      "TBM": 5799,
      "UL": 5800,
      "Unut": 5801,
      "Uganda": 5802,
      "Ven": 5803,
      "Vol": 5804,
      "Yara": 5805,
      "Yanı": 5806,
      "Yas": 5807,
      "Yusu": 5808,
      "Yazar": 5809,
      "Yurt": 5810,
      "Yakla": 5811,
      "Yunus": 5812,
      "Zi": 5813,
      "Zira": 5814,
      "abi": 5815,
      "acaba": 5816,
      "bara": 5817,
      "ceyi": 5818,
      "dre": 5819,
      "dret": 5820,
      "doz": 5821,
      "dona": 5822,
      "ddam": 5823,
      "eg": 5824,
      "eğini": 5825,
      "fın": 5826,
      "fez": 5827,
      "final": 5828,
      "gh": 5829,
      "gas": 5830,
      "giye": 5831,
      "gah": 5832,
      "gos": 5833,
      "graf": 5834,
      "gram": 5835,
      "hop": 5836,
      "ij": 5837,
      "itik": 5838,
      "ihale": 5839,
      "icat": 5840,
      "kli": 5841,
      "kral": 5842,
      "klasik": 5843,
      "lının": 5844,
      "leleri": 5845,
      "mun": 5846,
      "mün": 5847,
      "mük": 5848,
      "mark": 5849,
      "mülk": 5850,
      "no": 5851,
      "nini": 5852,
      "neye": 5853,
      "ndaki": 5854,
      "ndeki": 5855,
      "ocak": 5856,
      "ph": 5857,
      "rö": 5858,
      "rop": 5859,
      "rının": 5860,
      "rana": 5861,
      "ski": 5862,
      "sök": 5863,
      "suyla": 5864,
      "süslü": 5865,
      "tt": 5866,
      "tül": 5867,
      "tiniz": 5868,
      "tri": 5869,
      "toz": 5870,
      "vuz": 5871,
      "vat": 5872,
      "valtı": 5873,
      "yin": 5874,
      "ysa": 5875,
      "yüc": 5876,
      "Çor": 5877,
      "Çay": 5878,
      "Çuk": 5879,
      "Çalış": 5880,
      "Ömer": 5881,
      "Önemli": 5882,
      "Ümit": 5883,
      "çü": 5884,
      "çlar": 5885,
      "çlı": 5886,
      "çey": 5887,
      "çeli": 5888,
      "çilik": 5889,
      "üle": 5890,
      "ğuna": 5891,
      "İL": 5892,
      "İr": 5893,
      "İdar": 5894,
      "İtal": 5895,
      "ısın": 5896,
      "Şİ": 5897,
      "Şen": 5898,
      "Şiş": 5899,
      "Şev": 5900,
      "şö": 5901,
      "şikâ": 5902,
      "şehr": 5903,
      "arın": 5904,
      "arif": 5905,
      "ano": 5906,
      "anma": 5907,
      "iner": 5908,
      "enen": 5909,
      "enek": 5910,
      "irti": 5911,
      "dele": 5912,
      "delen": 5913,
      "iliyordu": 5914,
      "ilmesine": 5915,
      "dama": 5916,
      "maların": 5917,
      "mason": 5918,
      "mahal": 5919,
      "yası": 5920,
      "yasanın": 5921,
      "laşa": 5922,
      "lamıştı": 5923,
      "lasman": 5924,
      "labalık": 5925,
      "eliyle": 5926,
      "elimizde": 5927,
      "ekol": 5928,
      "ektif": 5929,
      "ord": 5930,
      "oraya": 5931,
      "kalit": 5932,
      "kaderi": 5933,
      "diven": 5934,
      "birinden": 5935,
      "aklar": 5936,
      "eter": 5937,
      "etmem": 5938,
      "etmez": 5939,
      "ettin": 5940,
      "etmiyor": 5941,
      "etmedi": 5942,
      "etmeyen": 5943,
      "etmiştir": 5944,
      "lerdeki": 5945,
      "dırıl": 5946,
      "oluk": 5947,
      "olsaydı": 5948,
      "lıydı": 5949,
      "onlardan": 5950,
      "lep": 5951,
      "leğ": 5952,
      "leyici": 5953,
      "imiş": 5954,
      "imden": 5955,
      "imleri": 5956,
      "imlerin": 5957,
      "ünüz": 5958,
      "ura": 5959,
      "uru": 5960,
      "urdu": 5961,
      "iza": 5962,
      "izlen": 5963,
      "iymiş": 5964,
      "tabak": 5965,
      "est": 5966,
      "esir": 5967,
      "bası": 5968,
      "sata": 5969,
      "satar": 5970,
      "saati": 5971,
      "işbir": 5972,
      "işlerin": 5973,
      "emmel": 5974,
      "emniyet": 5975,
      "ürünü": 5976,
      "duya": 5977,
      "duman": 5978,
      "buhar": 5979,
      "eyse": 5980,
      "ism": 5981,
      "rama": 5982,
      "rası": 5983,
      "denir": 5984,
      "denli": 5985,
      "denilen": 5986,
      "deneyim": 5987,
      "içe": 5988,
      "içten": 5989,
      "ğım": 5990,
      "okuy": 5991,
      "yıkı": 5992,
      "lanacak": 5993,
      "lanınca": 5994,
      "umartesi": 5995,
      "bilet": 5996,
      "bilmiş": 5997,
      "bilmem": 5998,
      "bildiğimiz": 5999,
      "titr": 6000,
      "ticar": 6001,
      "arap": 6002,
      "araş": 6003,
      "arasından": 6004,
      "inip": 6005,
      "alda": 6006,
      "allı": 6007,
      "alterna": 6008,
      "tede": 6009,
      "ikram": 6010,
      "ikisinin": 6011,
      "gitar": 6012,
      "evli": 6013,
      "evden": 6014,
      "evinin": 6015,
      "evlilik": 6016,
      "evvel": 6017,
      "ulus": 6018,
      "tanır": 6019,
      "yaparım": 6020,
      "yapamaz": 6021,
      "manevi": 6022,
      "uzay": 6023,
      "çığ": 6024,
      "yankı": 6025,
      "yanındaki": 6026,
      "başar": 6027,
      "başını": 6028,
      "başlarına": 6029,
      "biter": 6030,
      "biten": 6031,
      "kısım": 6032,
      "kıyılmış": 6033,
      "kısıt": 6034,
      "gelmek": 6035,
      "geldim": 6036,
      "gelmeye": 6037,
      "geldiğini": 6038,
      "gelmiştir": 6039,
      "mec": 6040,
      "mede": 6041,
      "santra": 6042,
      "ayınca": 6043,
      "aykırı": 6044,
      "aynen": 6045,
      "azın": 6046,
      "ilerden": 6047,
      "atak": 6048,
      "görmüş": 6049,
      "gördük": 6050,
      "ültü": 6051,
      "verdik": 6052,
      "vermeye": 6053,
      "vermez": 6054,
      "vererek": 6055,
      "vercin": 6056,
      "verilmiş": 6057,
      "vermedi": 6058,
      "vermiştir": 6059,
      "nef": 6060,
      "şair": 6061,
      "şaat": 6062,
      "güney": 6063,
      "dert": 6064,
      "mekle": 6065,
      "varır": 6066,
      "bulup": 6067,
      "vali": 6068,
      "vası": 6069,
      "yerlere": 6070,
      "dırma": 6071,
      "dırdı": 6072,
      "usunda": 6073,
      "konum": 6074,
      "konuk": 6075,
      "konuyla": 6076,
      "olaya": 6077,
      "özet": 6078,
      "özlem": 6079,
      "arık": 6080,
      "cım": 6081,
      "uyuştur": 6082,
      "lenin": 6083,
      "tırnak": 6084,
      "kadını": 6085,
      "eşliğinde": 6086,
      "durma": 6087,
      "durup": 6088,
      "yıldan": 6089,
      "yılları": 6090,
      "Türkmen": 6091,
      "asta": 6092,
      "olmasa": 6093,
      "olmamakla": 6094,
      "enip": 6095,
      "örtü": 6096,
      "olduğunda": 6097,
      "olduğumuz": 6098,
      "olduğumu": 6099,
      "anladım": 6100,
      "anlatıyor": 6101,
      "Biraz": 6102,
      "kalmak": 6103,
      "kalmıştı": 6104,
      "kalkıp": 6105,
      "düşmüştü": 6106,
      "diğin": 6107,
      "kurulu": 6108,
      "kurduğu": 6109,
      "istey": 6110,
      "isteye": 6111,
      "larınızı": 6112,
      "doğa": 6113,
      "çıkması": 6114,
      "çekim": 6115,
      "çekiş": 6116,
      "çekilmiş": 6117,
      "çekici": 6118,
      "çekilmesi": 6119,
      "yapıyorum": 6120,
      "bilirdi": 6121,
      "süreli": 6122,
      "sürüyor": 6123,
      "sürüldü": 6124,
      "zamana": 6125,
      "zamanında": 6126,
      "imizden": 6127,
      "beli": 6128,
      "terem": 6129,
      "bende": 6130,
      "şeyden": 6131,
      "lüğe": 6132,
      "karşısına": 6133,
      "koz": 6134,
      "koya": 6135,
      "tarif": 6136,
      "katli": 6137,
      "topra": 6138,
      "sizden": 6139,
      "diyecek": 6140,
      "hallet": 6141,
      "ahlâ": 6142,
      "ahşap": 6143,
      "değilsiniz": 6144,
      "döner": 6145,
      "yonel": 6146,
      "yakından": 6147,
      "sorar": 6148,
      "seviy": 6149,
      "sevdiği": 6150,
      "sevdiğim": 6151,
      "tıkça": 6152,
      "muhalefet": 6153,
      "meniz": 6154,
      "mensu": 6155,
      "türü": 6156,
      "ref": 6157,
      "yarın": 6158,
      "yoksun": 6159,
      "Anne": 6160,
      "gereksiz": 6161,
      "gerekiyordu": 6162,
      "gereklidir": 6163,
      "lettir": 6164,
      "metin": 6165,
      "metre": 6166,
      "metroseksüel": 6167,
      "yatr": 6168,
      "keskin": 6169,
      "kestra": 6170,
      "bizleri": 6171,
      "bizdeki": 6172,
      "bizzat": 6173,
      "yaşamış": 6174,
      "yolları": 6175,
      "yolcu": 6176,
      "yazarı": 6177,
      "eliği": 6178,
      "Kad": 6179,
      "Kam": 6180,
      "Kamu": 6181,
      "Kalabalık": 6182,
      "kapasit": 6183,
      "çalıştım": 6184,
      "cuma": 6185,
      "kulüp": 6186,
      "yönde": 6187,
      "yönelt": 6188,
      "İslam": 6189,
      "İslâ": 6190,
      "İspanyol": 6191,
      "Sav": 6192,
      "Salata": 6193,
      "Saddam": 6194,
      "mazsa": 6195,
      "hard": 6196,
      "hareketi": 6197,
      "kendime": 6198,
      "ihtiy": 6199,
      "öğüt": 6200,
      "bulunmak": 6201,
      "memiştir": 6202,
      "sözleş": 6203,
      "sözünü": 6204,
      "ortada": 6205,
      "ortasında": 6206,
      "kayın": 6207,
      "bakmış": 6208,
      "bakkal": 6209,
      "İnşaat": 6210,
      "edildiğini": 6211,
      "edilmesini": 6212,
      "edilmelidir": 6213,
      "gözet": 6214,
      "gözlerini": 6215,
      "gözlük": 6216,
      "yetmez": 6217,
      "Hav": 6218,
      "Hadi": 6219,
      "Hayatı": 6220,
      "alıyordu": 6221,
      "düzgün": 6222,
      "getirin": 6223,
      "otuz": 6224,
      "duyul": 6225,
      "duydum": 6226,
      "duyunca": 6227,
      "beklenen": 6228,
      "güler": 6229,
      "güle": 6230,
      "üsünü": 6231,
      "hemşir": 6232,
      "ehri": 6233,
      "takdir": 6234,
      "yenildi": 6235,
      "sağlığı": 6236,
      "sağlayacak": 6237,
      "hang": 6238,
      "laştırı": 6239,
      "yiği": 6240,
      "düşünerek": 6241,
      "gitmişti": 6242,
      "burun": 6243,
      "burnu": 6244,
      "dığınız": 6245,
      "diyorlardı": 6246,
      "restor": 6247,
      "müyorum": 6248,
      "açtığı": 6249,
      "Erkan": 6250,
      "Erke": 6251,
      "Erkek": 6252,
      "Ertuğ": 6253,
      "sinler": 6254,
      "sesin": 6255,
      "sesle": 6256,
      "sesiyle": 6257,
      "seslendir": 6258,
      "Yaş": 6259,
      "Yavuz": 6260,
      "zordur": 6261,
      "zorluk": 6262,
      "korun": 6263,
      "koruyan": 6264,
      "korkun": 6265,
      "tutum": 6266,
      "tutul": 6267,
      "durumun": 6268,
      "yanıtı": 6269,
      "yazılan": 6270,
      "dünyayı": 6271,
      "alanında": 6272,
      "bağlan": 6273,
      "düğünde": 6274,
      "tümüyle": 6275,
      "başkalarına": 6276,
      "eğin": 6277,
      "eğil": 6278,
      "ağz": 6279,
      "ağın": 6280,
      "ağzı": 6281,
      "hastane": 6282,
      "öğrendik": 6283,
      "öğrenildi": 6284,
      "bunlardan": 6285,
      "olaylar": 6286,
      "uygu": 6287,
      "kazanı": 6288,
      "kendileri": 6289,
      "Aydın": 6290,
      "amlı": 6291,
      "döneme": 6292,
      "dönemlerde": 6293,
      "iddi": 6294,
      "mutfa": 6295,
      "mutlulu": 6296,
      "hafı": 6297,
      "istemiyorum": 6298,
      "edenler": 6299,
      "şudur": 6300,
      "alalım": 6301,
      "esindeki": 6302,
      "Bizi": 6303,
      "aptal": 6304,
      "telek": 6305,
      "taşlar": 6306,
      "koymuş": 6307,
      "aşkı": 6308,
      "irade": 6309,
      "süreç": 6310,
      "süreci": 6311,
      "Engin": 6312,
      "filmin": 6313,
      "tırıyor": 6314,
      "bakıyor": 6315,
      "bakımdan": 6316,
      "ınızın": 6317,
      "kilis": 6318,
      "oturdu": 6319,
      "uğr": 6320,
      "teşem": 6321,
      "teşkil": 6322,
      "kullanımı": 6323,
      "Dava": 6324,
      "eğit": 6325,
      "Özal": 6326,
      "Özdemir": 6327,
      "ediyordum": 6328,
      "söylenen": 6329,
      "babasını": 6330,
      "babasının": 6331,
      "sayılı": 6332,
      "sayısını": 6333,
      "bitti": 6334,
      "bitiyor": 6335,
      "düzenli": 6336,
      "düzenlen": 6337,
      "kullandı": 6338,
      "okuyan": 6339,
      "Fatih": 6340,
      "denize": 6341,
      "tepe": 6342,
      "konuları": 6343,
      "anlattım": 6344,
      "kuşku": 6345,
      "kuşağı": 6346,
      "çevre": 6347,
      "görevine": 6348,
      "yöneten": 6349,
      "harekete": 6350,
      "saatte": 6351,
      "mıyorlar": 6352,
      "mıyoruz": 6353,
      "görünen": 6354,
      "ilişkisi": 6355,
      "Ordu": 6356,
      "Orman": 6357,
      "Yıllar": 6358,
      "Beyoğlu": 6359,
      "cins": 6360,
      "ucunu": 6361,
      "olmaktan": 6362,
      "2000": 6363,
      "2001": 6364,
      "2002": 6365,
      "2007": 6366,
      "2008": 6367,
      "vide": 6368,
      "bırakın": 6369,
      "bırakmış": 6370,
      "bıraktığı": 6371,
      "Elma": 6372,
      "soluk": 6373,
      "çalışmalar": 6374,
      "fış": 6375,
      "lattı": 6376,
      "izlemek": 6377,
      "haberleri": 6378,
      "benzet": 6379,
      "maktadırlar": 6380,
      "Konuk": 6381,
      "boşluk": 6382,
      "biliyorlar": 6383,
      "biliyoruz": 6384,
      "biliyorsunuz": 6385,
      "dikkatli": 6386,
      "duygularını": 6387,
      "ARI": 6388,
      "koltuk": 6389,
      "yapıldı": 6390,
      "yapılması": 6391,
      "yapıldığını": 6392,
      "öğretim": 6393,
      "öğretmeni": 6394,
      "dığın": 6395,
      "oldukları": 6396,
      "ediyoruz": 6397,
      "Babası": 6398,
      "Babacan": 6399,
      "Buradan": 6400,
      "Kardeş": 6401,
      "Onunla": 6402,
      "parçası": 6403,
      "gazetesi": 6404,
      "kolayca": 6405,
      "kolaylıkla": 6406,
      "etkisi": 6407,
      "tahsis": 6408,
      "genelde": 6409,
      "Bunları": 6410,
      "acaktı": 6411,
      "paylaşı": 6412,
      "ardına": 6413,
      "maçın": 6414,
      "maçta": 6415,
      "yaptığım": 6416,
      "büyüm": 6417,
      "anlamsız": 6418,
      "hakkını": 6419,
      "Sevil": 6420,
      "acık": 6421,
      "gizem": 6422,
      "yaşamına": 6423,
      "oluşturduğu": 6424,
      "giys": 6425,
      "yeme": 6426,
      "desinin": 6427,
      "lerimizin": 6428,
      "kahraman": 6429,
      "sıkıl": 6430,
      "ölümüne": 6431,
      "ERİ": 6432,
      "fakir": 6433,
      "gürültü": 6434,
      "şirin": 6435,
      "kalıyordu": 6436,
      "luğun": 6437,
      "mevsim": 6438,
      "mevzu": 6439,
      "dağın": 6440,
      "olog": 6441,
      "olojik": 6442,
      "olojisi": 6443,
      "safha": 6444,
      "erkenden": 6445,
      "bilgileri": 6446,
      "Halil": 6447,
      "tükür": 6448,
      "sıcaklığı": 6449,
      "ulaşmak": 6450,
      "ettiğine": 6451,
      "ettiğiniz": 6452,
      "Toplum": 6453,
      "uyandığımda": 6454,
      "kayık": 6455,
      "gidelim": 6456,
      "geçmişte": 6457,
      "sürdürür": 6458,
      "sürdürüyor": 6459,
      "sevgili": 6460,
      "Geriye": 6461,
      "Gerçi": 6462,
      "Harry": 6463,
      "Sık": 6464,
      "futbolc": 6465,
      "saçlı": 6466,
      "bilimsel": 6467,
      "götürüyor": 6468,
      "ülkeden": 6469,
      "doğrult": 6470,
      "çalışanları": 6471,
      "Kemalizm": 6472,
      "Karadeniz": 6473,
      "ayrılmış": 6474,
      "1961": 6475,
      "temizlik": 6476,
      "değiştirmek": 6477,
      "ısrar": 6478,
      "beklentiler": 6479,
      "dışarıda": 6480,
      "saygılı": 6481,
      "Kırk": 6482,
      "aldığımız": 6483,
      "cezası": 6484,
      "hisseder": 6485,
      "leksi": 6486,
      "margar": 6487,
      "medya": 6488,
      "yetenekleri": 6489,
      "1998": 6490,
      "maddeleri": 6491,
      "ovo": 6492,
      "tanınmış": 6493,
      "örgütü": 6494,
      "ettikleri": 6495,
      "ettikten": 6496,
      "ettiklerini": 6497,
      "köşesine": 6498,
      "temsilcisi": 6499,
      "temsilcileri": 6500,
      "hükümetin": 6501,
      "Uzman": 6502,
      "tulum": 6503,
      "isimler": 6504,
      "yaptıkları": 6505,
      "manızı": 6506,
      "vapur": 6507,
      "isteyenlerin": 6508,
      "severler": 6509,
      "kendilerinin": 6510,
      "söylüyor": 6511,
      "söylüyorum": 6512,
      "Sanatçı": 6513,
      "keşif": 6514,
      "meliyiz": 6515,
      "layık": 6516,
      "düşünürken": 6517,
      "eksiklik": 6518,
      "Denizli": 6519,
      "Afgan": 6520,
      "gayet": 6521,
      "gökyüzünü": 6522,
      "yıllarca": 6523,
      "MİL": 6524,
      "Yorgun": 6525,
      "ağız": 6526,
      "kokusu": 6527,
      "sabaha": 6528,
      "emizdeki": 6529,
      "rahim": 6530,
      "eğlence": 6531,
      "sokakta": 6532,
      "statü": 6533,
      "vakit": 6534,
      "organizasyon": 6535,
      "sapta": 6536,
      "tiyatrosu": 6537,
      "kıpır": 6538,
      "Haydar": 6539,
      "hücre": 6540,
      "masraf": 6541,
      "Canan": 6542,
      "felse": 6543,
      "minik": 6544,
      "dergileri": 6545,
      "anlaşma": 6546,
      "ayakkabıları": 6547,
      "polisler": 6548,
      "Cennet": 6549,
      "KKTC": 6550,
      "Sokak": 6551,
      "musunuz": 6552,
      "biriktir": 6553,
      "düzenlediği": 6554,
      "piyasaya": 6555,
      "desteği": 6556,
      "bağımlı": 6557,
      "stratej": 6558,
      "stratejik": 6559,
      "Bekir": 6560,
      "Hangi": 6561,
      "LERİ": 6562,
      "Yönetim": 6563,
      "cumhuriyet": 6564,
      "küçücük": 6565,
      "yavru": 6566,
      "mantıklı": 6567,
      "sorumluluk": 6568,
      "sorumluluğunu": 6569,
      "Kaptan": 6570,
      "Halkla": 6571,
      "Dedim": 6572,
      "Rıza": 6573,
      "SON": 6574,
      "lokanta": 6575,
      "yayımlanan": 6576,
      "ladığınız": 6577,
      "kabın": 6578,
      "duyarlı": 6579,
      "tedavi": 6580,
      "şahit": 6581,
      "topluma": 6582,
      "muhalif": 6583,
      "Güneydoğu": 6584,
      "seyirci": 6585,
      "elektronik": 6586,
      "Cevdet": 6587,
      "Yengeç": 6588,
      "bileceğimiz": 6589,
      "müşteri": 6590,
      "tasyonu": 6591,
      "hâline": 6592,
      "Ceza": 6593,
      "IMF": 6594,
      "Yugos": 6595,
      "utanç": 6596,
      "alınacak": 6597,
      "verimli": 6598,
      "olduğunuzu": 6599,
      "fabrika": 6600,
      "müsaade": 6601,
      "Günümüzde": 6602,
      "fıstığı": 6603,
      "Kuvvetleri": 6604,
      "devrimci": 6605,
      "Düşünceler": 6606,
      "Etkin": 6607,
      "Mektu": 6608,
      "Takım": 6609,
      "bedeli": 6610,
      "pozisyon": 6611,
      "tokol": 6612,
      "Üzerine": 6613,
      "çağırı": 6614,
      "Amerikalıların": 6615,
      "deplasmanda": 6616,
      "Aşk": 6617,
      "Partisi": 6618,
      "Ulusal": 6619,
      "cirit": 6620,
      "keyf": 6621,
      "kolayla": 6622,
      "şallah": 6623,
      "lezzet": 6624,
      "buğday": 6625,
      "okuyup": 6626,
      "ülkesinde": 6627,
      "sezonu": 6628,
      "Samsun": 6629,
      "Belçika": 6630,
      "Direktörü": 6631,
      "Düzen": 6632,
      "Ekonom": 6633,
      "Gelenek": 6634,
      "Londra": 6635,
      "Oscar": 6636,
      "Silahlı": 6637,
      "Taraf": 6638,
      "psik": 6639,
      "süper": 6640,
      "slogan": 6641,
      "Çift": 6642,
      "Şair": 6643,
      "intihar": 6644,
      "lamento": 6645,
      "işkence": 6646,
      "tedbir": 6647,
      "kariyer": 6648,
      "isteklerini": 6649,
      "Raporu": 6650,
      "objektif": 6651,
      "standart": 6652,
      "Hürriyet": 6653,
      "Mezar": 6654,
      "Sekreteri": 6655,
      "SALAT": 6656,
      "Strate": 6657,
      "Yüksek": 6658,
      "posta": 6659,
      "dayanış": 6660,
      "tabağına": 6661,
      "sakallı": 6662,
      "İstiklal": 6663,
      "müthiş": 6664,
      "efendim": 6665,
      "ATATÜRK": 6666,
      "peygamber": 6667,
      "Dolayısıyla": 6668,
      "Lady": 6669,
      "Sovyet": 6670,
      "Telekom": 6671,
      "TBMM": 6672,
      "Yusuf": 6673,
      "mükemmel": 6674,
      "şikâyet": 6675,
      "Erkeği": 6676,
      "Ertuğrul": 6677,
      "korkunç": 6678,
      "Yugoslav": 6679,
      ".'": 6680,
      "400": 6681,
      "51": 6682,
      "76": 6683,
      "Aç": 6684,
      "Aka": 6685,
      "Ateş": 6686,
      "Atin": 6687,
      "Akıl": 6688,
      "Ağustos": 6689,
      "Bür": 6690,
      "Boğ": 6691,
      "Baz": 6692,
      "Bolu": 6693,
      "BAB": 6694,
      "Bri": 6695,
      "Boz": 6696,
      "CI": 6697,
      "Cer": 6698,
      "Cuma": 6699,
      "DI": 6700,
      "Dan": 6701,
      "Don": 6702,
      "Duy": 6703,
      "EF": 6704,
      "ES": 6705,
      "Eve": 6706,
      "Fet": 6707,
      "Fır": 6708,
      "GK": 6709,
      "GÖ": 6710,
      "Gar": 6711,
      "Güç": 6712,
      "Gümüş": 6713,
      "Hel": 6714,
      "Hiz": 6715,
      "Hey": 6716,
      "His": 6717,
      "Hük": 6718,
      "Helen": 6719,
      "Hora": 6720,
      "Hilmi": 6721,
      "Işık": 6722,
      "Ju": 6723,
      "Kir": 6724,
      "Kek": 6725,
      "Kut": 6726,
      "Karı": 6727,
      "Kana": 6728,
      "Kre": 6729,
      "Kos": 6730,
      "Kimi": 6731,
      "Kona": 6732,
      "Le": 6733,
      "Lu": 6734,
      "Lim": 6735,
      "MA": 6736,
      "Mi": 6737,
      "Mo": 6738,
      "MÜ": 6739,
      "Mit": 6740,
      "MGK": 6741,
      "No": 6742,
      "Neler": 6743,
      "OD": 6744,
      "Of": 6745,
      "Oda": 6746,
      "Otel": 6747,
      "Pu": 6748,
      "Pek": 6749,
      "Por": 6750,
      "Pra": 6751,
      "Para": 6752,
      "Peş": 6753,
      "Pam": 6754,
      "Pap": 6755,
      "Ru": 6756,
      "Rüştü": 6757,
      "Sim": 6758,
      "Sur": 6759,
      "Sus": 6760,
      "Sır": 6761,
      "Stal": 6762,
      "SAN": 6763,
      "Sizin": 6764,
      "Sof": 6765,
      "Sınır": 6766,
      "Ten": 6767,
      "Tes": 6768,
      "Tüz": 6769,
      "Tom": 6770,
      "Tele": 6771,
      "Tuğ": 6772,
      "TAN": 6773,
      "TAR": 6774,
      "Tep": 6775,
      "Temiz": 6776,
      "TEK": 6777,
      "TÜRK": 6778,
      "UM": 6779,
      "UZ": 6780,
      "Ur": 6781,
      "Vİ": 6782,
      "Vur": 6783,
      "Vah": 6784,
      "VAR": 6785,
      "Vic": 6786,
      "Veysel": 6787,
      "Vakıf": 6788,
      "Yo": 6789,
      "Yel": 6790,
      "Yum": 6791,
      "Yarış": 6792,
      "Yarım": 6793,
      "Yeter": 6794,
      "Zav": 6795,
      "ag": 6796,
      "aman": 6797,
      "adil": 6798,
      "adü": 6799,
      "abar": 6800,
      "avan": 6801,
      "aley": 6802,
      "asır": 6803,
      "asansör": 6804,
      "br": 6805,
      "bö": 6806,
      "bında": 6807,
      "binde": 6808,
      "beye": 6809,
      "bör": 6810,
      "binden": 6811,
      "biyet": 6812,
      "bot": 6813,
      "bız": 6814,
      "cher": 6815,
      "cili": 6816,
      "caret": 6817,
      "cilerin": 6818,
      "coğraf": 6819,
      "dop": 6820,
      "dri": 6821,
      "drum": 6822,
      "ediler": 6823,
      "ebilen": 6824,
      "ebileceğini": 6825,
      "fü": 6826,
      "far": 6827,
      "fan": 6828,
      "fte": 6829,
      "fas": 6830,
      "feder": 6831,
      "fina": 6832,
      "güm": 6833,
      "gının": 6834,
      "gre": 6835,
      "gorta": 6836,
      "gümüş": 6837,
      "hu": 6838,
      "hü": 6839,
      "hın": 6840,
      "hüz": 6841,
      "hanı": 6842,
      "hip": 6843,
      "htım": 6844,
      "helik": 6845,
      "ib": 6846,
      "ibar": 6847,
      "ital": 6848,
      "iğe": 6849,
      "jı": 6850,
      "jan": 6851,
      "km": 6852,
      "kine": 6853,
      "kuz": 6854,
      "kük": 6855,
      "keti": 6856,
      "kira": 6857,
      "kilerin": 6858,
      "koku": 6859,
      "koğuş": 6860,
      "lüz": 6861,
      "lini": 6862,
      "lüm": 6863,
      "linin": 6864,
      "ldığında": 6865,
      "muk": 6866,
      "müs": 6867,
      "melerin": 6868,
      "miyim": 6869,
      "misyon": 6870,
      "mimar": 6871,
      "mizah": 6872,
      "nazar": 6873,
      "ocağı": 6874,
      "ojik": 6875,
      "pe": 6876,
      "pis": 6877,
      "pra": 6878,
      "pus": 6879,
      "pren": 6880,
      "porta": 6881,
      "plas": 6882,
      "sö": 6883,
      "sti": 6884,
      "sön": 6885,
      "süm": 6886,
      "sip": 6887,
      "sinden": 6888,
      "siyi": 6889,
      "sünü": 6890,
      "tre": 6891,
      "ularak": 6892,
      "ufacık": 6893,
      "vut": 6894,
      "vri": 6895,
      "vakıf": 6896,
      "yim": 6897,
      "yut": 6898,
      "ydık": 6899,
      "zanne": 6900,
      "Çı": 6901,
      "Çar": 6902,
      "Çiç": 6903,
      "Çele": 6904,
      "Çevr": 6905,
      "Ödül": 6906,
      "ÜZ": 6907,
      "Ür": 6908,
      "çel": 6909,
      "çem": 6910,
      "çiler": 6911,
      "çesi": 6912,
      "çeye": 6913,
      "çöl": 6914,
      "çisi": 6915,
      "çelik": 6916,
      "çesinde": 6917,
      "çilerin": 6918,
      "çanta": 6919,
      "öle": 6920,
      "ölen": 6921,
      "ödedi": 6922,
      "ödem": 6923,
      "ömert": 6924,
      "üf": 6925,
      "übü": 6926,
      "üğü": 6927,
      "İD": 6928,
      "İdil": 6929,
      "İlet": 6930,
      "İster": 6931,
      "İmam": 6932,
      "ışığı": 6933,
      "Şer": 6934,
      "Şir": 6935,
      "Şem": 6936,
      "Şehr": 6937,
      "şak": 6938,
      "şet": 6939,
      "şını": 6940,
      "şük": 6941,
      "şist": 6942,
      "şeri": 6943,
      "şunca": 6944,
      "aran": 6945,
      "artı": 6946,
      "arsa": 6947,
      "erdem": 6948,
      "erbay": 6949,
      "erji": 6950,
      "andı": 6951,
      "andan": 6952,
      "anti": 6953,
      "anları": 6954,
      "andır": 6955,
      "anlarda": 6956,
      "andırı": 6957,
      "analiz": 6958,
      "inmiş": 6959,
      "insaf": 6960,
      "enleri": 6961,
      "enkul": 6962,
      "irt": 6963,
      "irim": 6964,
      "irdek": 6965,
      "deh": 6966,
      "deler": 6967,
      "dete": 6968,
      "demeye": 6969,
      "larmış": 6970,
      "ilme": 6971,
      "illeri": 6972,
      "ilmelidir": 6973,
      "ildiğinde": 6974,
      "dayı": 6975,
      "daşı": 6976,
      "mail": 6977,
      "mağı": 6978,
      "malarda": 6979,
      "madal": 6980,
      "macer": 6981,
      "matema": 6982,
      "magazin": 6983,
      "yalar": 6984,
      "yaya": 6985,
      "yatan": 6986,
      "yaza": 6987,
      "yağını": 6988,
      "yahat": 6989,
      "laç": 6990,
      "lasın": 6991,
      "lamıştır": 6992,
      "elma": 6993,
      "eller": 6994,
      "elle": 6995,
      "elis": 6996,
      "elçi": 6997,
      "elimize": 6998,
      "ekler": 6999,
      "eksil": 7000,
      "ekleyin": 7001,
      "ekledi": 7002,
      "orm": 7003,
      "oru": 7004,
      "kata": 7005,
      "kast": 7006,
      "kader": 7007,
      "kaşık": 7008,
      "kavur": 7009,
      "kaşar": 7010,
      "diken": 7011,
      "diyal": 7012,
      "biris": 7013,
      "biriyle": 7014,
      "akçı": 7015,
      "etini": 7016,
      "etraf": 7017,
      "etmeyi": 7018,
      "etmenin": 7019,
      "etmiyoruz": 7020,
      "olon": 7021,
      "olim": 7022,
      "olmu": 7023,
      "olmaktadır": 7024,
      "leği": 7025,
      "imini": 7026,
      "ünc": 7027,
      "veç": 7028,
      "veda": 7029,
      "ure": 7030,
      "urova": 7031,
      "izlerle": 7032,
      "taz": 7033,
      "taba": 7034,
      "eseri": 7035,
      "balı": 7036,
      "basan": 7037,
      "saz": 7038,
      "satan": 7039,
      "sabet": 7040,
      "sapor": 7041,
      "satıl": 7042,
      "sapan": 7043,
      "sabrı": 7044,
      "savaşı": 7045,
      "lih": 7046,
      "lifi": 7047,
      "işsiz": 7048,
      "işlerde": 7049,
      "işbirliği": 7050,
      "işgal": 7051,
      "emiyor": 7052,
      "emedi": 7053,
      "sıfır": 7054,
      "duyan": 7055,
      "bum": 7056,
      "bus": 7057,
      "bulaş": 7058,
      "isli": 7059,
      "ismi": 7060,
      "mıl": 7061,
      "mışı": 7062,
      "mıdır": 7063,
      "mırıl": 7064,
      "yorlardı": 7065,
      "içk": 7066,
      "ınılmaz": 7067,
      "yıkıl": 7068,
      "yıkayın": 7069,
      "lanmasını": 7070,
      "umcu": 7071,
      "umuzun": 7072,
      "bileş": 7073,
      "bildik": 7074,
      "bilmeyen": 7075,
      "bildiğine": 7076,
      "bildiğiniz": 7077,
      "bilmiyoruz": 7078,
      "ticaret": 7079,
      "larımın": 7080,
      "arayan": 7081,
      "alını": 7082,
      "alması": 7083,
      "almaz": 7084,
      "aldıkları": 7085,
      "alçak": 7086,
      "önünü": 7087,
      "öncü": 7088,
      "gidiş": 7089,
      "evet": 7090,
      "evini": 7091,
      "evlere": 7092,
      "evlerine": 7093,
      "evlerinin": 7094,
      "evlili": 7095,
      "karın": 7096,
      "karnı": 7097,
      "yapay": 7098,
      "yapının": 7099,
      "yapmıştı": 7100,
      "yaprağı": 7101,
      "mana": 7102,
      "manlık": 7103,
      "cay": 7104,
      "cası": 7105,
      "yanını": 7106,
      "yangın": 7107,
      "kenar": 7108,
      "başlandı": 7109,
      "başkent": 7110,
      "başlangıç": 7111,
      "başlıklı": 7112,
      "başkenti": 7113,
      "kıv": 7114,
      "kıza": 7115,
      "kızım": 7116,
      "geleni": 7117,
      "gelmedi": 7118,
      "gelebilir": 7119,
      "medim": 7120,
      "iyorsunuz": 7121,
      "ayen": 7122,
      "aylık": 7123,
      "aze": 7124,
      "azi": 7125,
      "azalt": 7126,
      "azaldı": 7127,
      "caktır": 7128,
      "ümet": 7129,
      "ilerinden": 7130,
      "çam": 7131,
      "çalar": 7132,
      "çası": 7133,
      "çayı": 7134,
      "üştür": 7135,
      "atmaya": 7136,
      "atarak": 7137,
      "attım": 7138,
      "görüp": 7139,
      "gördüğü": 7140,
      "göremez": 7141,
      "görmemiş": 7142,
      "ülük": 7143,
      "ülmesi": 7144,
      "lıklara": 7145,
      "lıklarla": 7146,
      "dirir": 7147,
      "vermeyi": 7148,
      "verebilir": 7149,
      "verilmesi": 7150,
      "verilecek": 7151,
      "stil": 7152,
      "ston": 7153,
      "şaşı": 7154,
      "zıyla": 7155,
      "günah": 7156,
      "gününü": 7157,
      "gündür": 7158,
      "günlerinin": 7159,
      "günümüz": 7160,
      "günüydü": 7161,
      "oldular": 7162,
      "miştik": 7163,
      "zaval": 7164,
      "oyunu": 7165,
      "oyunda": 7166,
      "oynan": 7167,
      "varda": 7168,
      "vardım": 7169,
      "bulmuşlar": 7170,
      "unuta": 7171,
      "vaj": 7172,
      "vadede": 7173,
      "seçici": 7174,
      "seyahat": 7175,
      "yerin": 7176,
      "yerleri": 7177,
      "yeryüzüne": 7178,
      "dırlar": 7179,
      "ileceğini": 7180,
      "usuna": 7181,
      "konuyu": 7182,
      "gereğini": 7183,
      "özgün": 7184,
      "cıların": 7185,
      "uykusuz": 7186,
      "lenmek": 7187,
      "tırmanı": 7188,
      "itesi": 7189,
      "anız": 7190,
      "anış": 7191,
      "opa": 7192,
      "opter": 7193,
      "bütç": 7194,
      "eşiyle": 7195,
      "dura": 7196,
      "durmak": 7197,
      "dursun": 7198,
      "durmadan": 7199,
      "Türkiy": 7200,
      "Türkistan": 7201,
      "asil": 7202,
      "asında": 7203,
      "asgari": 7204,
      "olmam": 7205,
      "olmaları": 7206,
      "olmadığına": 7207,
      "iyede": 7208,
      "geçit": 7209,
      "geçip": 7210,
      "geçmeye": 7211,
      "geçecek": 7212,
      "geçtiği": 7213,
      "örün": 7214,
      "ördün": 7215,
      "olduğunun": 7216,
      "cid": 7217,
      "ciğer": 7218,
      "anlamamış": 7219,
      "Birlikte": 7220,
      "sonraları": 7221,
      "öldüğü": 7222,
      "sınırı": 7223,
      "kalkan": 7224,
      "kalsın": 7225,
      "kalmayacak": 7226,
      "falan": 7227,
      "düşmesi": 7228,
      "diğinin": 7229,
      "kurma": 7230,
      "kuruş": 7231,
      "kurmak": 7232,
      "kurtu": 7233,
      "kurban": 7234,
      "navut": 7235,
      "istiyordu": 7236,
      "dilimi": 7237,
      "doğdu": 7238,
      "doğuş": 7239,
      "doğuyor": 7240,
      "çıkara": 7241,
      "çıktım": 7242,
      "çıkmasına": 7243,
      "çıkınca": 7244,
      "çeker": 7245,
      "çekip": 7246,
      "yapıya": 7247,
      "yapılarını": 7248,
      "yapılıyor": 7249,
      "edef": 7250,
      "edemeye": 7251,
      "edemez": 7252,
      "edebilmek": 7253,
      "bilirsin": 7254,
      "sürgün": 7255,
      "ezsiniz": 7256,
      "olana": 7257,
      "olanların": 7258,
      "turp": 7259,
      "bele": 7260,
      "teraz": 7261,
      "tekni": 7262,
      "teklifi": 7263,
      "çalıyor": 7264,
      "çalışa": 7265,
      "Bayan": 7266,
      "amadı": 7267,
      "tuhaf": 7268,
      "tutacak": 7269,
      "lüt": 7270,
      "lüğ": 7271,
      "berbat": 7272,
      "karşıtı": 7273,
      "karşıladı": 7274,
      "karşılığında": 7275,
      "tenure": 7276,
      "yüzey": 7277,
      "yüzlü": 7278,
      "yüzlerine": 7279,
      "yüzlerce": 7280,
      "romat": 7281,
      "kot": 7282,
      "koor": 7283,
      "koyan": 7284,
      "tarak": 7285,
      "katlar": 7286,
      "katına": 7287,
      "topluluk": 7288,
      "mese": 7289,
      "mesela": 7290,
      "halini": 7291,
      "haliyle": 7292,
      "ahlak": 7293,
      "sular": 7294,
      "suda": 7295,
      "suların": 7296,
      "suika": 7297,
      "döndüm": 7298,
      "yonu": 7299,
      "sorgu": 7300,
      "sorusuna": 7301,
      "seven": 7302,
      "seviyorum": 7303,
      "seviyede": 7304,
      "düler": 7305,
      "tıkları": 7306,
      "mud": 7307,
      "muyorum": 7308,
      "mızdaki": 7309,
      "reform": 7310,
      "başlayarak": 7311,
      "başlayınca": 7312,
      "Ann": 7313,
      "Angel": 7314,
      "Antep": 7315,
      "gerekecek": 7316,
      "gerektiğ": 7317,
      "metr": 7318,
      "kestir": 7319,
      "kesilmiş": 7320,
      "bela": 7321,
      "yolun": 7322,
      "sızdı": 7323,
      "yazma": 7324,
      "yazmaya": 7325,
      "yazdığım": 7326,
      "yazdıkları": 7327,
      "elidir": 7328,
      "Kaç": 7329,
      "Kalan": 7330,
      "kapalı": 7331,
      "kapıl": 7332,
      "çalışması": 7333,
      "çalışkan": 7334,
      "çalıştırı": 7335,
      "küf": 7336,
      "söylediği": 7337,
      "söylemişti": 7338,
      "yönden": 7339,
      "yönündeki": 7340,
      "Sağ": 7341,
      "Sami": 7342,
      "paranın": 7343,
      "hariç": 7344,
      "yaşından": 7345,
      "ihra": 7346,
      "kişiye": 7347,
      "bulunmaktadır": 7348,
      "bulunmadığını": 7349,
      "ding": 7350,
      "dinlen": 7351,
      "dinlendir": 7352,
      "girmek": 7353,
      "girerken": 7354,
      "lanık": 7355,
      "memur": 7356,
      "memeli": 7357,
      "ortasına": 7358,
      "ortalama": 7359,
      "leşiyor": 7360,
      "bakır": 7361,
      "baktım": 7362,
      "baktığınız": 7363,
      "kimisi": 7364,
      "kimyasal": 7365,
      "sende": 7366,
      "senden": 7367,
      "İnşallah": 7368,
      "konuşması": 7369,
      "konuşurken": 7370,
      "konuşuyorlar": 7371,
      "edildiği": 7372,
      "edilemez": 7373,
      "hakiki": 7374,
      "haksızlık": 7375,
      "hakika": 7376,
      "göze": 7377,
      "gözü": 7378,
      "gözlü": 7379,
      "gözaltına": 7380,
      "serp": 7381,
      "serv": 7382,
      "sergil": 7383,
      "yetin": 7384,
      "Hala": 7385,
      "Haber": 7386,
      "Hamil": 7387,
      "Halep": 7388,
      "ombi": 7389,
      "1950": 7390,
      "hediy": 7391,
      "sınav": 7392,
      "getirir": 7393,
      "getiriyor": 7394,
      "getirip": 7395,
      "getirmeye": 7396,
      "getirilmesi": 7397,
      "getirirler": 7398,
      "içindedir": 7399,
      "otter": 7400,
      "milyara": 7401,
      "ikide": 7402,
      "bekler": 7403,
      "beklet": 7404,
      "bekliyordu": 7405,
      "sahte": 7406,
      "tarafa": 7407,
      "tığımız": 7408,
      "000": 7409,
      "takv": 7410,
      "taksi": 7411,
      "yenik": 7412,
      "yenilik": 7413,
      "sağlıyor": 7414,
      "sağlayan": 7415,
      "sağlanması": 7416,
      "hani": 7417,
      "hanesi": 7418,
      "hanede": 7419,
      "laşan": 7420,
      "laştı": 7421,
      "Amaç": 7422,
      "oyunlar": 7423,
      "ilendir": 7424,
      "eledi": 7425,
      "düşünce": 7426,
      "düşündür": 7427,
      "düşündük": 7428,
      "belirsiz": 7429,
      "belirlemek": 7430,
      "tikçe": 7431,
      "köken": 7432,
      "köft": 7433,
      "köpür": 7434,
      "gitmeyi": 7435,
      "gittiğini": 7436,
      "mezun": 7437,
      "devu": 7438,
      "bahs": 7439,
      "gösterdi": 7440,
      "adde": 7441,
      "seks": 7442,
      "burç": 7443,
      "kaçan": 7444,
      "kaçtı": 7445,
      "kaçakçı": 7446,
      "kaçınılmaz": 7447,
      "hattin": 7448,
      "diyorsun": 7449,
      "tanıya": 7450,
      "tanıyor": 7451,
      "tanıdığım": 7452,
      "rese": 7453,
      "ressam": 7454,
      "şekeri": 7455,
      "çıkardı": 7456,
      "çıkarıl": 7457,
      "sırası": 7458,
      "sıradan": 7459,
      "ulup": 7460,
      "nedense": 7461,
      "tarafta": 7462,
      "Başlangıç": 7463,
      "Başbakanı": 7464,
      "Erol": 7465,
      "Ermeni": 7466,
      "gerçekçi": 7467,
      "sesini": 7468,
      "Yağ": 7469,
      "Herkesin": 7470,
      "bölüştür": 7471,
      "koruyu": 7472,
      "korkak": 7473,
      "tuttur": 7474,
      "tutku": 7475,
      "tutup": 7476,
      "durumdan": 7477,
      "durumuna": 7478,
      "Nedim": 7479,
      "arttı": 7480,
      "şıklı": 7481,
      "yanıl": 7482,
      "yanımdaki": 7483,
      "kudret": 7484,
      "yazılar": 7485,
      "yazıyordu": 7486,
      "saydım": 7487,
      "dünyasının": 7488,
      "alanın": 7489,
      "gıp": 7490,
      "Art": 7491,
      "Arnavut": 7492,
      "açılıyor": 7493,
      "açılım": 7494,
      "bağlar": 7495,
      "çocuklarına": 7496,
      "tümü": 7497,
      "liğinden": 7498,
      "etici": 7499,
      "hepsini": 7500,
      "eğilim": 7501,
      "hazırladığı": 7502,
      "hazırlıklarını": 7503,
      "ağlamak": 7504,
      "parasını": 7505,
      "öğrendim": 7506,
      "bunlara": 7507,
      "lırsa": 7508,
      "karısı": 7509,
      "kazana": 7510,
      "kendinizi": 7511,
      "kadınlara": 7512,
      "iddet": 7513,
      "istemeye": 7514,
      "müştür": 7515,
      "takıl": 7516,
      "yüreği": 7517,
      "alabilir": 7518,
      "alabildiğine": 7519,
      "ederiz": 7520,
      "lığındaki": 7521,
      "adamın": 7522,
      "Arada": 7523,
      "Onları": 7524,
      "Onlara": 7525,
      "inanın": 7526,
      "Bizler": 7527,
      "soya": 7528,
      "mayız": 7529,
      "dırıcı": 7530,
      "vuruş": 7531,
      "kemer": 7532,
      "sıklıkla": 7533,
      "Enerji": 7534,
      "yapabilirsiniz": 7535,
      "İstanbullu": 7536,
      "tesadü": 7537,
      "Aksu": 7538,
      "bakıma": 7539,
      "bakışı": 7540,
      "bakıyordu": 7541,
      "bakıldığında": 7542,
      "doya": 7543,
      "doludur": 7544,
      "kilit": 7545,
      "oturan": 7546,
      "oturur": 7547,
      "uğrar": 7548,
      "teşvik": 7549,
      "kullanım": 7550,
      "kullanıcı": 7551,
      "kullanılmış": 7552,
      "Dav": 7553,
      "darma": 7554,
      "lüks": 7555,
      "odasına": 7556,
      "odasının": 7557,
      "vent": 7558,
      "Özgür": 7559,
      "kızdır": 7560,
      "leştirme": 7561,
      "ediyordu": 7562,
      "babamın": 7563,
      "sayılır": 7564,
      "kapısı": 7565,
      "kapıları": 7566,
      "bazılarına": 7567,
      "düzenleyen": 7568,
      "inceye": 7569,
      "arkadaşları": 7570,
      "arkadaşlarına": 7571,
      "ayakları": 7572,
      "eskiden": 7573,
      "gelişmeler": 7574,
      "görüşü": 7575,
      "görüşme": 7576,
      "görüşünü": 7577,
      "yalnızlık": 7578,
      "sahiptir": 7579,
      "etmekte": 7580,
      "etmektedir": 7581,
      "duğunda": 7582,
      "okuyanlar": 7583,
      "kararlar": 7584,
      "layabilir": 7585,
      "kazanan": 7586,
      "kazanmış": 7587,
      "kazanmıştır": 7588,
      "adımı": 7589,
      "görevini": 7590,
      "hareketler": 7591,
      "hareketle": 7592,
      "hastalığı": 7593,
      "hastalıkları": 7594,
      "ağaca": 7595,
      "ağabey": 7596,
      "saatlik": 7597,
      "saatlerce": 7598,
      "sırt": 7599,
      "mıyormuş": 7600,
      "görünüm": 7601,
      "ilişkiye": 7602,
      "Ortak": 7603,
      "Orhan": 7604,
      "havası": 7605,
      "gezip": 7606,
      "Mao": 7607,
      "Maden": 7608,
      "Mavi": 7609,
      "sütü": 7610,
      "dalları": 7611,
      "cinay": 7612,
      "cinayet": 7613,
      "hitap": 7614,
      "politik": 7615,
      "ucuna": 7616,
      "ucundan": 7617,
      "ayrım": 7618,
      "2003": 7619,
      "2004": 7620,
      "dilerim": 7621,
      "seyerek": 7622,
      "yuva": 7623,
      "yakalaya": 7624,
      "yakalanma": 7625,
      "yakalamış": 7626,
      "gönderdiği": 7627,
      "gönderilen": 7628,
      "fısıl": 7629,
      "sosyol": 7630,
      "izleye": 7631,
      "izlediği": 7632,
      "izleyi": 7633,
      "okulun": 7634,
      "okulları": 7635,
      "devleti": 7636,
      "devletinin": 7637,
      "Milliyet": 7638,
      "besin": 7639,
      "kutsal": 7640,
      "kurulmuş": 7641,
      "Mersin": 7642,
      "boşuna": 7643,
      "müziği": 7644,
      "unutul": 7645,
      "unutmuş": 7646,
      "unutulmaz": 7647,
      "çağın": 7648,
      "dikkatle": 7649,
      "İnsanın": 7650,
      "duygular": 7651,
      "duyguları": 7652,
      "ARK": 7653,
      "iciler": 7654,
      "iciydi": 7655,
      "katılacak": 7656,
      "gelirse": 7657,
      "Musa": 7658,
      "dığından": 7659,
      "çıkıyorum": 7660,
      "geçiren": 7661,
      "geçirdi": 7662,
      "geçirme": 7663,
      "larımızdan": 7664,
      "başarılar": 7665,
      "başarıya": 7666,
      "konusunu": 7667,
      "dönüştü": 7668,
      "takımının": 7669,
      "izminin": 7670,
      "taşıya": 7671,
      "tamamladı": 7672,
      "tamamlaya": 7673,
      "parçalar": 7674,
      "gazetesinin": 7675,
      "dostum": 7676,
      "birbirlerine": 7677,
      "birbirlerinden": 7678,
      "duklarını": 7679,
      "kardeşim": 7680,
      "sonuçları": 7681,
      "sonuçlarını": 7682,
      "yaşandığı": 7683,
      "kitapları": 7684,
      "Bunlardan": 7685,
      "Tekstil": 7686,
      "grubun": 7687,
      "nakle": 7688,
      "deydi": 7689,
      "deyse": 7690,
      "damg": 7691,
      "damla": 7692,
      "maçlarda": 7693,
      "rahatsızlık": 7694,
      "yaptığımız": 7695,
      "anlamını": 7696,
      "Belli": 7697,
      "Sevgil": 7698,
      "acıların": 7699,
      "noktada": 7700,
      "noktaya": 7701,
      "sarıl": 7702,
      "mayanlar": 7703,
      "sorunları": 7704,
      "oluşturan": 7705,
      "120": 7706,
      "Ders": 7707,
      "melerine": 7708,
      "yumruk": 7709,
      "beklediğimiz": 7710,
      "değerlendirdi": 7711,
      "değerlendirme": 7712,
      "Bilgi": 7713,
      "ateşe": 7714,
      "ateşte": 7715,
      "tuzlu": 7716,
      "sıkış": 7717,
      "sıkıya": 7718,
      "Kema": 7719,
      "güreş": 7720,
      "kamp": 7721,
      "kamyon": 7722,
      "kalıcı": 7723,
      "savaşta": 7724,
      "hamur": 7725,
      "luğunda": 7726,
      "boşa": 7727,
      "hesab": 7728,
      "hatırlıyorum": 7729,
      "komünist": 7730,
      "toplantıda": 7731,
      "toplantıya": 7732,
      "yaklaşım": 7733,
      "yaklaşımı": 7734,
      "şansı": 7735,
      "tife": 7736,
      "azım": 7737,
      "planının": 7738,
      "soyulmuş": 7739,
      "annesine": 7740,
      "bilgiler": 7741,
      "bilgisi": 7742,
      "konusundaki": 7743,
      "Servis": 7744,
      "sarf": 7745,
      "İçeri": 7746,
      "İçimde": 7747,
      "katıldığı": 7748,
      "bağış": 7749,
      "görülen": 7750,
      "görülüyor": 7751,
      "görüldüğü": 7752,
      "merkeze": 7753,
      "ALI": 7754,
      "geminin": 7755,
      "reklam": 7756,
      "zarif": 7757,
      "elendiren": 7758,
      "bastır": 7759,
      "balıklar": 7760,
      "ulaşma": 7761,
      "yetersiz": 7762,
      "bölümde": 7763,
      "kırmızıbiber": 7764,
      "Hocam": 7765,
      "Suu": 7766,
      "fikri": 7767,
      "uyandır": 7768,
      "eylemi": 7769,
      "biliniyor": 7770,
      "gideceğiz": 7771,
      "başkanlığı": 7772,
      "kurumların": 7773,
      "kendisiyle": 7774,
      "uygulamaya": 7775,
      "Ahmed": 7776,
      "Azerbay": 7777,
      "Harbiye": 7778,
      "çorap": 7779,
      "yaşıyorum": 7780,
      "üreten": 7781,
      "götürdüğü": 7782,
      "doğrultu": 7783,
      "sosyalizm": 7784,
      "Kendini": 7785,
      "Karaca": 7786,
      "lülük": 7787,
      "ayrıldı": 7788,
      "verirken": 7789,
      "cıkları": 7790,
      "fotoğraflar": 7791,
      "Ragıp": 7792,
      "model": 7793,
      "trav": 7794,
      "ısla": 7795,
      "başımıza": 7796,
      "istifade": 7797,
      "oynayan": 7798,
      "tartışma": 7799,
      "tartışmaya": 7800,
      "İsrailli": 7801,
      "çocuğa": 7802,
      "alırken": 7803,
      "saygıyla": 7804,
      "saygısız": 7805,
      "açıldı": 7806,
      "açılması": 7807,
      "itibariyle": 7808,
      "büyüme": 7809,
      "hizmete": 7810,
      "Doğal": 7811,
      "Mücade": 7812,
      "rastlar": 7813,
      "rastlantı": 7814,
      "sebebi": 7815,
      "isterseniz": 7816,
      "destekleyen": 7817,
      "maruz": 7818,
      "engelli": 7819,
      "doktora": 7820,
      "doktorların": 7821,
      "Güvercin": 7822,
      "Kendimi": 7823,
      "Yüzü": 7824,
      "küresel": 7825,
      "numarası": 7826,
      "niteliği": 7827,
      "yoğurt": 7828,
      "Üstün": 7829,
      "şehirlerde": 7830,
      "emediği": 7831,
      "kurallar": 7832,
      "kurallara": 7833,
      "köşk": 7834,
      "Domates": 7835,
      "Hepsi": 7836,
      "Hepimiz": 7837,
      "Proj": 7838,
      "Uzay": 7839,
      "borsa": 7840,
      "Örgü": 7841,
      "demişler": 7842,
      "isimlerinden": 7843,
      "yaptıktan": 7844,
      "yaptıklarını": 7845,
      "severim": 7846,
      "demokrasi": 7847,
      "sohbetler": 7848,
      "söylüyordu": 7849,
      "koşulları": 7850,
      "savundu": 7851,
      "Banka": 7852,
      "INDA": 7853,
      "Latife": 7854,
      "Müzik": 7855,
      "Müziği": 7856,
      "Oldukça": 7857,
      "acil": 7858,
      "kopar": 7859,
      "keşfet": 7860,
      "miras": 7861,
      "süzün": 7862,
      "Üçüncü": 7863,
      "sınıfın": 7864,
      "sıkıntıları": 7865,
      "Görüş": 7866,
      "kumar": 7867,
      "türkü": 7868,
      "defne": 7869,
      "kafası": 7870,
      "yaşadığımız": 7871,
      "karıştırı": 7872,
      "karıştırıp": 7873,
      "MİT": 7874,
      "YOK": 7875,
      "YON": 7876,
      "bürokra": 7877,
      "kokulu": 7878,
      "kelimesi": 7879,
      "Öğren": 7880,
      "çiçeğin": 7881,
      "şiddete": 7882,
      "rahmetli": 7883,
      "amaçla": 7884,
      "yararlanarak": 7885,
      "ilişkilerini": 7886,
      "ihtiyacı": 7887,
      "Komu": 7888,
      "Lig": 7889,
      "ayıra": 7890,
      "elal": 7891,
      "yurtdışına": 7892,
      "iktidara": 7893,
      "teknoloji": 7894,
      "gülümsem": 7895,
      "Adası": 7896,
      "ETİ": 7897,
      "Haydi": 7898,
      "Hayvan": 7899,
      "cilt": 7900,
      "lilerden": 7901,
      "suskun": 7902,
      "etkileyi": 7903,
      "yorgunluk": 7904,
      "yaprakları": 7905,
      "meşhur": 7906,
      "muhtıra": 7907,
      "muhtaç": 7908,
      "muhteşem": 7909,
      "1980": 7910,
      "1981": 7911,
      "1984": 7912,
      "otorite": 7913,
      "sektörü": 7914,
      "yıldızları": 7915,
      "Bölge": 7916,
      "Cantürk": 7917,
      "Kanun": 7918,
      "Köylü": 7919,
      "Kitabı": 7920,
      "vücudum": 7921,
      "İkizler": 7922,
      "ekipleri": 7923,
      "haşlayın": 7924,
      "bilmediğim": 7925,
      "geceleri": 7926,
      "büsbütün": 7927,
      "geçerli": 7928,
      "çalıştığım": 7929,
      "bölgesine": 7930,
      "Arapça": 7931,
      "yarattı": 7932,
      "Nice": 7933,
      "Patates": 7934,
      "Terazi": 7935,
      "fatura": 7936,
      "potansiy": 7937,
      "vekili": 7938,
      "yurdum": 7939,
      "imkânı": 7940,
      "işçiler": 7941,
      "seferinde": 7942,
      "düştüğü": 7943,
      "sergilen": 7944,
      "yetkilileri": 7945,
      "Yaşamı": 7946,
      "kullanıldığı": 7947,
      "yukarıda": 7948,
      "mahkemeye": 7949,
      "tehlikeye": 7950,
      "tehlikeli": 7951,
      "Alex": 7952,
      "Bazıları": 7953,
      "boğaz": 7954,
      "cumhurbaşkanı": 7955,
      "küçüm": 7956,
      "müslümanlar": 7957,
      "İbrahim": 7958,
      "aktarılan": 7959,
      "kırıldı": 7960,
      "görüle": 7961,
      "görüyorum": 7962,
      "yerleştirin": 7963,
      "larınızla": 7964,
      "girişimci": 7965,
      "ortamında": 7966,
      "kaybetmiş": 7967,
      "1945": 7968,
      "düşünceleri": 7969,
      "tanıştım": 7970,
      "Ağabey": 7971,
      "Berlin": 7972,
      "Diğer": 7973,
      "Grup": 7974,
      "Kerim": 7975,
      "Meyv": 7976,
      "Nadir": 7977,
      "Oğlak": 7978,
      "Yanında": 7979,
      "boncuk": 7980,
      "doruk": 7981,
      "Şahin": 7982,
      "bağırdı": 7983,
      "saldırgan": 7984,
      "harcama": 7985,
      "zorluyor": 7986,
      "öğrencilere": 7987,
      "gönüllü": 7988,
      "yarışmalar": 7989,
      "Milletvekili": 7990,
      "fırsatını": 7991,
      "cesaretini": 7992,
      "Cami": 7993,
      "Soğuk": 7994,
      "Timur": 7995,
      "Times": 7996,
      "Yunanistan": 7997,
      "horm": 7998,
      "huku": 7999,
      "kuyru": 8000,
      "kuytu": 8001,
      "zihin": 8002,
      "iyileştir": 8003,
      "olasılıkla": 8004,
      "memnuniyet": 8005,
      "kaynar": 8006,
      "hissettim": 8007,
      "Müdürü": 8008,
      "ayrıntılı": 8009,
      "Balkan": 8010,
      "how": 8011,
      "şeref": 8012,
      "yakışıklı": 8013,
      "sahada": 8014,
      "sanayi": 8015,
      "anlatırken": 8016,
      "sevinçle": 8017,
      "Kapıyı": 8018,
      "hastanede": 8019,
      "idare": 8020,
      "Muhterem": 8021,
      "Sevgili": 8022,
      "Neredeyse": 8023,
      "Keloğlan": 8024,
      "Tayyip": 8025,
      "Tıpkı": 8026,
      "hürmet": 8027,
      "hikây": 8028,
      "hikâye": 8029,
      "zekâ": 8030,
      "yahut": 8031,
      "emeyecek": 8032,
      "danış": 8033,
      "görüyoruz": 8034,
      "kurtulmak": 8035,
      "yöneticisi": 8036,
      "çıkarılan": 8037,
      "bölgelerinde": 8038,
      "nihai": 8039,
      "nihayet": 8040,
      "görüşmelerde": 8041,
      "Tarihi": 8042,
      "sözcükleri": 8043,
      "Bırak": 8044,
      "Federasyonu": 8045,
      "Kişisel": 8046,
      "doyur": 8047,
      "klor": 8048,
      "notlar": 8049,
      "Çabuk": 8050,
      "Çağdaş": 8051,
      "İÇİN": 8052,
      "dahil": 8053,
      "kabukları": 8054,
      "akşama": 8055,
      "tavada": 8056,
      "manzara": 8057,
      "koşup": 8058,
      "rehber": 8059,
      "kumaş": 8060,
      "malzeme": 8061,
      "faktörler": 8062,
      "işlevini": 8063,
      "fedakar": 8064,
      "örgütlenme": 8065,
      "Japonya": 8066,
      "Adnan": 8067,
      "Körfez": 8068,
      "Renk": 8069,
      "Sarkoz": 8070,
      "Vekili": 8071,
      "dolaysız": 8072,
      "şimdilik": 8073,
      "kabiliyet": 8074,
      "etkik": 8075,
      "tecrü": 8076,
      "çırpı": 8077,
      "görünüyor": 8078,
      "stüdy": 8079,
      "olağanüstü": 8080,
      "yardımıyla": 8081,
      "Ermenistan": 8082,
      "kısmını": 8083,
      "peyniri": 8084,
      "George": 8085,
      "Bosna": 8086,
      "DOĞ": 8087,
      "Disney": 8088,
      "Nâzım": 8089,
      "Sonuç": 8090,
      "fuar": 8091,
      "keyif": 8092,
      "kabuğu": 8093,
      "emeyiz": 8094,
      "titiz": 8095,
      "önümüzdeki": 8096,
      "geleceğine": 8097,
      "civarında": 8098,
      "bebeği": 8099,
      "istemiştim": 8100,
      "sürecinde": 8101,
      "kilometre": 8102,
      "hesaba": 8103,
      "Toplantıda": 8104,
      "feodal": 8105,
      "Önceleri": 8106,
      "Bulgaristan": 8107,
      "tasarruf": 8108,
      "Galiba": 8109,
      "Coşkun": 8110,
      "Leyla": 8111,
      "Suyunu": 8112,
      "Yaklaşık": 8113,
      "Ziya": 8114,
      "fındık": 8115,
      "rövan": 8116,
      "Çukurova": 8117,
      "İtalyan": 8118,
      "kaliteli": 8119,
      "alternatif": 8120,
      "toprağa": 8121,
      "mensup": 8122,
      "İslâm": 8123,
      "yiğit": 8124,
      "hafıza": 8125,
      "uğruna": 8126,
      "video": 8127,
      "gizemli": 8128,
      "doğrultusunda": 8129,
      "Afganistan": 8130,
      "SALATASI": 8131,
      "Yugoslavya": 8132,
      "Atina": 8133,
      "Bazen": 8134,
      "Hükümet": 8135,
      "Pamuk": 8136,
      "Telefon": 8137,
      "Yarışması": 8138,
      "Zavallı": 8139,
      "helikopter": 8140,
      "pratik": 8141,
      "stitü": 8142,
      "Çelebi": 8143,
      "çeliş": 8144,
      "mışız": 8145,
      "mırıldan": 8146,
      "zavallı": 8147,
      "ördüncü": 8148,
      "Azerbaycan": 8149,
      "potansiyel": 8150,
      "Sarkozy": 8151,
      "!)": 8152,
      "\"...": 8153,
      "02": 8154,
      "23": 8155,
      "26": 8156,
      "39": 8157,
      "46": 8158,
      "57": 8159,
      "61": 8160,
      "62": 8161,
      "65": 8162,
      "600": 8163,
      "77": 8164,
      "750": 8165,
      "95": 8166,
      "99": 8167,
      "?'": 8168,
      "AF": 8169,
      "AV": 8170,
      "AŞ": 8171,
      "Air": 8172,
      "Akar": 8173,
      "Abi": 8174,
      "Aşık": 8175,
      "Afer": 8176,
      "Acar": 8177,
      "BE": 8178,
      "BO": 8179,
      "Br": 8180,
      "Bon": 8181,
      "Bes": 8182,
      "Bat": 8183,
      "Boy": 8184,
      "Bunda": 8185,
      "Barz": 8186,
      "Bülen": 8187,
      "Cin": 8188,
      "Cil": 8189,
      "Ces": 8190,
      "Che": 8191,
      "Cap": 8192,
      "Chi": 8193,
      "Clay": 8194,
      "Celal": 8195,
      "DÜ": 8196,
      "Dü": 8197,
      "Diy": 8198,
      "Dön": 8199,
      "Düm": 8200,
      "Dili": 8201,
      "Deli": 8202,
      "Dağ": 8203,
      "Dam": 8204,
      "Dök": 8205,
      "Dic": 8206,
      "Dört": 8207,
      "DİN": 8208,
      "Danış": 8209,
      "Dördüncü": 8210,
      "EZ": 8211,
      "Eb": 8212,
      "Eli": 8213,
      "Eti": 8214,
      "Ege": 8215,
      "Emek": 8216,
      "Efes": 8217,
      "Edip": 8218,
      "Efen": 8219,
      "FI": 8220,
      "Fi": 8221,
      "Fü": 8222,
      "Fey": 8223,
      "Fal": 8224,
      "Fat": 8225,
      "Fre": 8226,
      "Fark": 8227,
      "Fang": 8228,
      "Gu": 8229,
      "Gor": 8230,
      "Göl": 8231,
      "Günü": 8232,
      "HO": 8233,
      "Hü": 8234,
      "Hor": 8235,
      "Hes": 8236,
      "Hara": 8237,
      "Huk": 8238,
      "HAB": 8239,
      "Hitler": 8240,
      "Hedef": 8241,
      "IZ": 8242,
      "Is": 8243,
      "Işıl": 8244,
      "Jan": 8245,
      "Jac": 8246,
      "KB": 8247,
      "KÖ": 8248,
      "Kin": 8249,
      "Kuz": 8250,
      "Kas": 8251,
      "Küç": 8252,
      "Kula": 8253,
      "Kele": 8254,
      "Kaldı": 8255,
      "Kişi": 8256,
      "Kesin": 8257,
      "LU": 8258,
      "LÜ": 8259,
      "Lin": 8260,
      "Lev": 8261,
      "List": 8262,
      "Lenin": 8263,
      "Lüt": 8264,
      "Min": 8265,
      "Mem": 8266,
      "Mür": 8267,
      "Mik": 8268,
      "Mağ": 8269,
      "Mani": 8270,
      "Metin": 8271,
      "MAD": 8272,
      "Mumcu": 8273,
      "Nes": 8274,
      "Nev": 8275,
      "Nit": 8276,
      "Neş": 8277,
      "Niye": 8278,
      "Nez": 8279,
      "Nokta": 8280,
      "Nesin": 8281,
      "Neyse": 8282,
      "Novo": 8283,
      "Op": 8284,
      "Oba": 8285,
      "Oku": 8286,
      "PR": 8287,
      "Pan": 8288,
      "Piş": 8289,
      "Paz": 8290,
      "Pas": 8291,
      "Pos": 8292,
      "Phe": 8293,
      "Park": 8294,
      "Pazar": 8295,
      "Pınar": 8296,
      "Potter": 8297,
      "Qu": 8298,
      "RU": 8299,
      "RÜ": 8300,
      "Rü": 8301,
      "Rek": 8302,
      "Ral": 8303,
      "Ras": 8304,
      "Rama": 8305,
      "Rakı": 8306,
      "SS": 8307,
      "SÜ": 8308,
      "Sun": 8309,
      "Sem": 8310,
      "Sön": 8311,
      "Süm": 8312,
      "Sat": 8313,
      "Shar": 8314,
      "Suç": 8315,
      "Seks": 8316,
      "Sela": 8317,
      "SEK": 8318,
      "Tor": 8319,
      "Tey": 8320,
      "Tok": 8321,
      "Tır": 8322,
      "Toz": 8323,
      "Tala": 8324,
      "Tic": 8325,
      "TAS": 8326,
      "TÜR": 8327,
      "Transfer": 8328,
      "Tamam": 8329,
      "UŞ": 8330,
      "Usta": 8331,
      "Umum": 8332,
      "Vi": 8333,
      "Var": 8334,
      "Wil": 8335,
      "YÖ": 8336,
      "Yı": 8337,
      "Yür": 8338,
      "Yoğ": 8339,
      "YAN": 8340,
      "YAR": 8341,
      "Yazı": 8342,
      "Yirmi": 8343,
      "Zen": 8344,
      "Zeki": 8345,
      "Zirve": 8346,
      "aha": 8347,
      "ate": 8348,
      "aca": 8349,
      "alık": 8350,
      "avar": 8351,
      "ami": 8352,
      "atık": 8353,
      "alama": 8354,
      "atım": 8355,
      "aşık": 8356,
      "ayağ": 8357,
      "ayıp": 8358,
      "atif": 8359,
      "bz": 8360,
      "biy": 8361,
      "bok": 8362,
      "bül": 8363,
      "biyle": 8364,
      "bre": 8365,
      "bos": 8366,
      "bise": 8367,
      "bbet": 8368,
      "beleri": 8369,
      "blok": 8370,
      "cun": 8371,
      "cet": 8372,
      "cüz": 8373,
      "cında": 8374,
      "cına": 8375,
      "com": 8376,
      "che": 8377,
      "cusu": 8378,
      "cumartesi": 8379,
      "cömert": 8380,
      "ds": 8381,
      "darı": 8382,
      "dro": 8383,
      "donu": 8384,
      "eda": 8385,
      "eya": 8386,
      "ebilmek": 8387,
      "edon": 8388,
      "fiş": 8389,
      "fını": 8390,
      "füz": 8391,
      "file": 8392,
      "fiye": 8393,
      "feti": 8394,
      "ffak": 8395,
      "fasını": 8396,
      "gor": 8397,
      "gon": 8398,
      "gra": 8399,
      "gut": 8400,
      "ganı": 8401,
      "güzer": 8402,
      "gri": 8403,
      "gesinde": 8404,
      "hir": 8405,
      "hil": 8406,
      "hun": 8407,
      "hul": 8408,
      "hut": 8409,
      "hoy": 8410,
      "hret": 8411,
      "hhat": 8412,
      "hüzün": 8413,
      "ihal": 8414,
      "idim": 8415,
      "isabet": 8416,
      "jen": 8417,
      "klı": 8418,
      "kini": 8419,
      "kına": 8420,
      "kürk": 8421,
      "köl": 8422,
      "kının": 8423,
      "kisi": 8424,
      "kuzu": 8425,
      "lor": 8426,
      "lon": 8427,
      "line": 8428,
      "leler": 8429,
      "lına": 8430,
      "lop": 8431,
      "lileri": 8432,
      "luyum": 8433,
      "lelikle": 8434,
      "mül": 8435,
      "moda": 8436,
      "miyordum": 8437,
      "nö": 8438,
      "nar": 8439,
      "nal": 8440,
      "nine": 8441,
      "neti": 8442,
      "neyin": 8443,
      "obu": 8444,
      "odan": 8445,
      "odağı": 8446,
      "odun": 8447,
      "pur": 8448,
      "pes": 8449,
      "pik": 8450,
      "planı": 8451,
      "pom": 8452,
      "pyeni": 8453,
      "pri": 8454,
      "plat": 8455,
      "pınar": 8456,
      "pembe": 8457,
      "rin": 8458,
      "rem": 8459,
      "ruz": 8460,
      "rına": 8461,
      "rakı": 8462,
      "sara": 8463,
      "sük": 8464,
      "sül": 8465,
      "sola": 8466,
      "seye": 8467,
      "sunun": 8468,
      "skan": 8469,
      "sark": 8470,
      "seyi": 8471,
      "süne": 8472,
      "sper": 8473,
      "sfel": 8474,
      "th": 8475,
      "tun": 8476,
      "tiş": 8477,
      "tti": 8478,
      "tini": 8479,
      "teler": 8480,
      "tının": 8481,
      "tonu": 8482,
      "tınız": 8483,
      "tolon": 8484,
      "uda": 8485,
      "usan": 8486,
      "ugen": 8487,
      "uyanı": 8488,
      "vir": 8489,
      "vol": 8490,
      "veni": 8491,
      "vizyon": 8492,
      "yün": 8493,
      "yiz": 8494,
      "ymiş": 8495,
      "yevi": 8496,
      "zede": 8497,
      "zeki": 8498,
      "Çelik": 8499,
      "Çeşit": 8500,
      "Çoğu": 8501,
      "ÇOK": 8502,
      "Ök": 8503,
      "Öca": 8504,
      "Ölü": 8505,
      "Öbür": 8506,
      "Üs": 8507,
      "Üz": 8508,
      "âr": 8509,
      "âlâ": 8510,
      "âdeta": 8511,
      "çö": 8512,
      "çen": 8513,
      "çın": 8514,
      "çil": 8515,
      "çik": 8516,
      "çuluk": 8517,
      "öde": 8518,
      "ödev": 8519,
      "ötesi": 8520,
      "üyorum": 8521,
      "ğinin": 8522,
      "ğunun": 8523,
      "İK": 8524,
      "İS": 8525,
      "İst": 8526,
      "İleri": 8527,
      "İçi": 8528,
      "İpek": 8529,
      "İlah": 8530,
      "İddi": 8531,
      "Şöyle": 8532,
      "Şeh": 8533,
      "Şap": 8534,
      "Şef": 8535,
      "Şiddet": 8536,
      "şur": 8537,
      "şat": 8538,
      "şına": 8539,
      "şark": 8540,
      "şov": 8541,
      "şınızda": 8542,
      "şarap": 8543,
      "şehri": 8544,
      "aro": 8545,
      "artan": 8546,
      "aryo": 8547,
      "arşi": 8548,
      "arbakır": 8549,
      "eriz": 8550,
      "eriy": 8551,
      "eriyor": 8552,
      "ertel": 8553,
      "ane": 8554,
      "antik": 8555,
      "anneler": 8556,
      "anket": 8557,
      "antren": 8558,
      "int": 8559,
      "inat": 8560,
      "inana": 8561,
      "indiği": 8562,
      "iniyorum": 8563,
      "eniz": 8564,
      "irde": 8565,
      "desen": 8566,
      "dedem": 8567,
      "dediğini": 8568,
      "dezen": 8569,
      "ilmeye": 8570,
      "ilmez": 8571,
      "ilmişti": 8572,
      "dat": 8573,
      "damı": 8574,
      "dayak": 8575,
      "dağa": 8576,
      "dahak": 8577,
      "dayken": 8578,
      "daima": 8579,
      "mav": 8580,
      "maye": 8581,
      "mağını": 8582,
      "masi": 8583,
      "madık": 8584,
      "madaki": 8585,
      "malarının": 8586,
      "mamıştı": 8587,
      "masından": 8588,
      "mamıştır": 8589,
      "madığım": 8590,
      "makası": 8591,
      "mamalıyız": 8592,
      "yaları": 8593,
      "yasını": 8594,
      "yayla": 8595,
      "yaban": 8596,
      "yatırı": 8597,
      "yasayı": 8598,
      "yatıyor": 8599,
      "yakıp": 8600,
      "labil": 8601,
      "latan": 8602,
      "lacağı": 8603,
      "lamanın": 8604,
      "laşır": 8605,
      "lamıyor": 8606,
      "lamayacak": 8607,
      "labor": 8608,
      "ladıklarını": 8609,
      "labileceği": 8610,
      "lacivert": 8611,
      "elem": 8612,
      "eliler": 8613,
      "elleri": 8614,
      "elinin": 8615,
      "elimi": 8616,
      "ellerine": 8617,
      "eleyen": 8618,
      "elveriş": 8619,
      "ellerindeki": 8620,
      "elbise": 8621,
      "ekâ": 8622,
      "ekme": 8623,
      "eklem": 8624,
      "ekleyip": 8625,
      "orkestra": 8626,
      "kasa": 8627,
      "kati": 8628,
      "kadir": 8629,
      "kayanın": 8630,
      "kafes": 8631,
      "und": 8632,
      "dibi": 8633,
      "diyar": 8634,
      "diyet": 8635,
      "diyordum": 8636,
      "diji": 8637,
      "dişi": 8638,
      "dişah": 8639,
      "birimiz": 8640,
      "biriydi": 8641,
      "bireysel": 8642,
      "aki": 8643,
      "ako": 8644,
      "aker": 8645,
      "akan": 8646,
      "aklım": 8647,
      "akıntı": 8648,
      "akkale": 8649,
      "etek": 8650,
      "etleri": 8651,
      "ettiniz": 8652,
      "lerisi": 8653,
      "dız": 8654,
      "ole": 8655,
      "olg": 8656,
      "oli": 8657,
      "olum": 8658,
      "olgu": 8659,
      "olmanız": 8660,
      "lıç": 8661,
      "lıların": 8662,
      "lıştır": 8663,
      "lıyız": 8664,
      "ondu": 8665,
      "onsor": 8666,
      "onlarla": 8667,
      "lemiş": 8668,
      "leye": 8669,
      "lebilir": 8670,
      "lediği": 8671,
      "ledim": 8672,
      "imli": 8673,
      "imiyle": 8674,
      "imiyet": 8675,
      "imarka": 8676,
      "imparator": 8677,
      "vey": 8678,
      "vez": 8679,
      "vefa": 8680,
      "vesi": 8681,
      "ursa": 8682,
      "urmuş": 8683,
      "izli": 8684,
      "izini": 8685,
      "izması": 8686,
      "izliyor": 8687,
      "iyan": 8688,
      "iyesi": 8689,
      "iyse": 8690,
      "iydik": 8691,
      "tadır": 8692,
      "taham": 8693,
      "tabaka": 8694,
      "esna": 8695,
      "esses": 8696,
      "bai": 8697,
      "baha": 8698,
      "badan": 8699,
      "balığı": 8700,
      "sad": 8701,
      "saman": 8702,
      "sava": 8703,
      "sabit": 8704,
      "sapı": 8705,
      "satıcı": 8706,
      "haç": 8707,
      "hael": 8708,
      "hatı": 8709,
      "haba": 8710,
      "hadis": 8711,
      "lisan": 8712,
      "liber": 8713,
      "ligin": 8714,
      "işinden": 8715,
      "işadam": 8716,
      "işbaşı": 8717,
      "emi": 8718,
      "emr": 8719,
      "emper": 8720,
      "embeyaz": 8721,
      "emiyordum": 8722,
      "sızı": 8723,
      "sığın": 8724,
      "sıfat": 8725,
      "ürler": 8726,
      "üreticiler": 8727,
      "duz": 8728,
      "duat": 8729,
      "duvara": 8730,
      "buyur": 8731,
      "bulanık": 8732,
      "eyya": 8733,
      "eyiniz": 8734,
      "iss": 8735,
      "isse": 8736,
      "isiydi": 8737,
      "istif": 8738,
      "mısın": 8739,
      "raya": 8740,
      "razı": 8741,
      "ravo": 8742,
      "radikal": 8743,
      "denin": 8744,
      "deney": 8745,
      "denetim": 8746,
      "içgü": 8747,
      "içlerinde": 8748,
      "içimde": 8749,
      "ğız": 8750,
      "ğımda": 8751,
      "okurlar": 8752,
      "okurken": 8753,
      "yıla": 8754,
      "yığı": 8755,
      "yışın": 8756,
      "yığın": 8757,
      "lanet": 8758,
      "lanmıştır": 8759,
      "umuş": 8760,
      "bilge": 8761,
      "bilmez": 8762,
      "bilmiyor": 8763,
      "bildikleri": 8764,
      "biliyordum": 8765,
      "göbe": 8766,
      "tice": 8767,
      "tivas": 8768,
      "tivali": 8769,
      "tiyatr": 8770,
      "larıdır": 8771,
      "aramak": 8772,
      "arayıp": 8773,
      "aramızda": 8774,
      "arazi": 8775,
      "all": 8776,
      "altü": 8777,
      "aldık": 8778,
      "aldıktan": 8779,
      "teca": 8780,
      "tecek": 8781,
      "tefek": 8782,
      "ceva": 8783,
      "cehen": 8784,
      "önüm": 8785,
      "öngör": 8786,
      "önündeki": 8787,
      "ikna": 8788,
      "ikinc": 8789,
      "gidiyorum": 8790,
      "gideyim": 8791,
      "gidiyordu": 8792,
      "evlerin": 8793,
      "evlerinde": 8794,
      "evimizde": 8795,
      "tanya": 8796,
      "kartı": 8797,
      "karton": 8798,
      "karanfil": 8799,
      "yaptım": 8800,
      "yapmadan": 8801,
      "yapmasını": 8802,
      "manev": 8803,
      "caya": 8804,
      "cağa": 8805,
      "cago": 8806,
      "uzlaşma": 8807,
      "çısı": 8808,
      "çıtır": 8809,
      "yang": 8810,
      "yanağ": 8811,
      "yanlıştır": 8812,
      "kentin": 8813,
      "başları": 8814,
      "başara": 8815,
      "başlarında": 8816,
      "başlangı": 8817,
      "başardı": 8818,
      "biha": 8819,
      "bitip": 8820,
      "kım": 8821,
      "kıç": 8822,
      "kıya": 8823,
      "kıran": 8824,
      "kısık": 8825,
      "kışın": 8826,
      "kılav": 8827,
      "kımıl": 8828,
      "geleri": 8829,
      "gelmez": 8830,
      "gelerek": 8831,
      "geldiler": 8832,
      "gelmekte": 8833,
      "gelmeler": 8834,
      "gelmesine": 8835,
      "geldiğinde": 8836,
      "gelmesin": 8837,
      "mediler": 8838,
      "sanal": 8839,
      "sanatı": 8840,
      "ayın": 8841,
      "aylar": 8842,
      "ayının": 8843,
      "azm": 8844,
      "azaltı": 8845,
      "azalma": 8846,
      "azalmaya": 8847,
      "öyk": 8848,
      "öylelikle": 8849,
      "mıştık": 8850,
      "mışlardı": 8851,
      "sonunu": 8852,
      "sonlarında": 8853,
      "ümit": 8854,
      "ilerine": 8855,
      "çatı": 8856,
      "çağını": 8857,
      "çasına": 8858,
      "üşen": 8859,
      "atu": 8860,
      "atle": 8861,
      "atını": 8862,
      "atmış": 8863,
      "atöl": 8864,
      "atması": 8865,
      "atlama": 8866,
      "atörü": 8867,
      "görkem": 8868,
      "elerdi": 8869,
      "ült": 8870,
      "ülüp": 8871,
      "içindir": 8872,
      "lıktı": 8873,
      "lıktır": 8874,
      "diri": 8875,
      "dirler": 8876,
      "veri": 8877,
      "vergi": 8878,
      "vermem": 8879,
      "vermesi": 8880,
      "vermişti": 8881,
      "veriyorum": 8882,
      "vermesini": 8883,
      "verdiğimiz": 8884,
      "verdikleri": 8885,
      "veriyorlar": 8886,
      "vermemek": 8887,
      "verdikten": 8888,
      "neğiyle": 8889,
      "stur": 8890,
      "stral": 8891,
      "şaka": 8892,
      "...)": 8893,
      "gecek": 8894,
      "gebel": 8895,
      "gecik": 8896,
      "günlerin": 8897,
      "günlerinde": 8898,
      "derek": 8899,
      "derim": 8900,
      "dergi": 8901,
      "derdim": 8902,
      "dernek": 8903,
      "mişim": 8904,
      "mekân": 8905,
      "zası": 8906,
      "yedir": 8907,
      "yedek": 8908,
      "yepyeni": 8909,
      "vardığı": 8910,
      "varlığına": 8911,
      "bulmaya": 8912,
      "buluna": 8913,
      "buluyor": 8914,
      "bulduğu": 8915,
      "bulgur": 8916,
      "buluyorum": 8917,
      "bulunacak": 8918,
      "vadeli": 8919,
      "vaffak": 8920,
      "seçe": 8921,
      "sebz": 8922,
      "çoktur": 8923,
      "değin": 8924,
      "değneğiyle": 8925,
      "yerel": 8926,
      "yerdi": 8927,
      "yerinin": 8928,
      "yerlerinde": 8929,
      "iledi": 8930,
      "ilebilir": 8931,
      "usun": 8932,
      "konunun": 8933,
      "kontör": 8934,
      "kongr": 8935,
      "gerilim": 8936,
      "Buda": 8937,
      "olayın": 8938,
      "olabilecek": 8939,
      "olacağım": 8940,
      "olabileceğini": 8941,
      "olacağına": 8942,
      "arımı": 8943,
      "cıya": 8944,
      "cılara": 8945,
      "cılığı": 8946,
      "cılığa": 8947,
      "uyk": 8948,
      "uyur": 8949,
      "uyuz": 8950,
      "uydur": 8951,
      "uyumsuz": 8952,
      "lenmeye": 8953,
      "leniyordu": 8954,
      "leniyorum": 8955,
      "lenmiştir": 8956,
      "lenebilecek": 8957,
      "itin": 8958,
      "eşim": 8959,
      "eşsiz": 8960,
      "eşleştir": 8961,
      "eşof": 8962,
      "durgun": 8963,
      "durduğunu": 8964,
      "yılını": 8965,
      "yılına": 8966,
      "yılından": 8967,
      "yıldırım": 8968,
      "Türklerin": 8969,
      "Türklerden": 8970,
      "Türkbük": 8971,
      "aslan": 8972,
      "asistan": 8973,
      "olmamış": 8974,
      "olmasın": 8975,
      "olmasının": 8976,
      "olmasaydı": 8977,
      "lup": 8978,
      "luyor": 8979,
      "ırmak": 8980,
      "geçiş": 8981,
      "geçtim": 8982,
      "geçmişti": 8983,
      "geçerek": 8984,
      "geçmeden": 8985,
      "geçeceğini": 8986,
      "ören": 8987,
      "örde": 8988,
      "örneğin": 8989,
      "cihaz": 8990,
      "yüküm": 8991,
      "yüklen": 8992,
      "anlamaz": 8993,
      "anlatıl": 8994,
      "anlatacak": 8995,
      "anlayışı": 8996,
      "Birlik": 8997,
      "ceksin": 8998,
      "ölür": 8999,
      "ölmek": 9000,
      "ölüp": 9001,
      "öldüğünü": 9002,
      "kalkar": 9003,
      "kalması": 9004,
      "kaldım": 9005,
      "kalmaz": 9006,
      "kalmayı": 9007,
      "kalmıyor": 9008,
      "fah": 9009,
      "faat": 9010,
      "fahiş": 9011,
      "düşüş": 9012,
      "düşüyor": 9013,
      "diğeri": 9014,
      "kura": 9015,
      "kurt": 9016,
      "kurmaya": 9017,
      "kurarak": 9018,
      "kuruma": 9019,
      "namaz": 9020,
      "nacık": 9021,
      "nabız": 9022,
      "istler": 9023,
      "istis": 9024,
      "doğran": 9025,
      "çıkmaz": 9026,
      "çıkmıyor": 9027,
      "çıkmadı": 9028,
      "çıkmayacak": 9029,
      "çekmek": 9030,
      "çekmeye": 9031,
      "çekmişti": 9032,
      "çekildiği": 9033,
      "çekirdek": 9034,
      "mayalım": 9035,
      "yapıların": 9036,
      "yapıyoruz": 9037,
      "yapıyorlar": 9038,
      "lerinize": 9039,
      "edep": 9040,
      "edelim": 9041,
      "edemiyor": 9042,
      "edeceğiz": 9043,
      "edebilirim": 9044,
      "sürüp": 9045,
      "sürdüğü": 9046,
      "zamanla": 9047,
      "zamanların": 9048,
      "zamandır": 9049,
      "siki": 9050,
      "sicil": 9051,
      "masız": 9052,
      "beleş": 9053,
      "belgeler": 9054,
      "belgesel": 9055,
      "belleğ": 9056,
      "mih": 9057,
      "tern": 9058,
      "tersi": 9059,
      "terfi": 9060,
      "tekin": 9061,
      "tekneler": 9062,
      "insandı": 9063,
      "insandan": 9064,
      "insanlık": 9065,
      "insanlardan": 9066,
      "insanlığa": 9067,
      "çalışacak": 9068,
      "Babil": 9069,
      "tutan": 9070,
      "tuval": 9071,
      "tuğunu": 9072,
      "şeylere": 9073,
      "dikçe": 9074,
      "diklerine": 9075,
      "akış": 9076,
      "lüğün": 9077,
      "berg": 9078,
      "karşılar": 9079,
      "karşıma": 9080,
      "karşılığı": 9081,
      "karşılıyor": 9082,
      "karşılandı": 9083,
      "karşılığını": 9084,
      "karşılanır": 9085,
      "karşılaşı": 9086,
      "muşlardı": 9087,
      "yüzyıl": 9088,
      "yüzünün": 9089,
      "rock": 9090,
      "katil": 9091,
      "toptan": 9092,
      "toplanan": 9093,
      "toplayan": 9094,
      "toplamış": 9095,
      "toplayıp": 9096,
      "reng": 9097,
      "sizm": 9098,
      "sizler": 9099,
      "sizlerin": 9100,
      "bileceğim": 9101,
      "mesa": 9102,
      "ahmet": 9103,
      "değiller": 9104,
      "adada": 9105,
      "adama": 9106,
      "suları": 9107,
      "dönül": 9108,
      "döndü": 9109,
      "dönmesi": 9110,
      "döndür": 9111,
      "dönmüş": 9112,
      "dönüyor": 9113,
      "dönerken": 9114,
      "genetik": 9115,
      "sordum": 9116,
      "sorgula": 9117,
      "sevda": 9118,
      "seviş": 9119,
      "sevdim": 9120,
      "sevilen": 9121,
      "sevdiğimiz": 9122,
      "salt": 9123,
      "salgı": 9124,
      "tıklarını": 9125,
      "inizin": 9126,
      "tüp": 9127,
      "tüel": 9128,
      "tüyor": 9129,
      "tütün": 9130,
      "muhalle": 9131,
      "muvaffak": 9132,
      "menize": 9133,
      "menfaat": 9134,
      "üzeri": 9135,
      "reisi": 9136,
      "yoklama": 9137,
      "yoksul": 9138,
      "başlaya": 9139,
      "başladığını": 9140,
      "Annesi": 9141,
      "leten": 9142,
      "metal": 9143,
      "metik": 9144,
      "metinde": 9145,
      "Benden": 9146,
      "Benzer": 9147,
      "keser": 9148,
      "kesen": 9149,
      "kesilen": 9150,
      "kesildi": 9151,
      "iliğini": 9152,
      "iliğe": 9153,
      "bedava": 9154,
      "yaşadım": 9155,
      "yaşadığını": 9156,
      "yaşadığım": 9157,
      "yaşadıklarını": 9158,
      "kanal": 9159,
      "yoldan": 9160,
      "yollara": 9161,
      "yolsuzluk": 9162,
      "sızın": 9163,
      "yazan": 9164,
      "yazmış": 9165,
      "yazmak": 9166,
      "yazının": 9167,
      "yazmıştım": 9168,
      "Kalesi": 9169,
      "kapa": 9170,
      "kapta": 9171,
      "kaptan": 9172,
      "kaptır": 9173,
      "kapının": 9174,
      "kapatı": 9175,
      "kaplayan": 9176,
      "kapağı": 9177,
      "kapital": 9178,
      "çalışmanın": 9179,
      "kütüp": 9180,
      "suni": 9181,
      "sunan": 9182,
      "sunduğu": 9183,
      "dünüz": 9184,
      "dünkü": 9185,
      "dünyevi": 9186,
      "kulu": 9187,
      "kulübü": 9188,
      "söylem": 9189,
      "söyleyerek": 9190,
      "söyleyin": 9191,
      "yöne": 9192,
      "yönünü": 9193,
      "yorumlar": 9194,
      "osunda": 9195,
      "İsmet": 9196,
      "Sadi": 9197,
      "Salı": 9198,
      "Satan": 9199,
      "Sabiha": 9200,
      "mazsın": 9201,
      "parlayan": 9202,
      "partiler": 9203,
      "parmağ": 9204,
      "parlamento": 9205,
      "harcan": 9206,
      "hardal": 9207,
      "harika": 9208,
      "yaşlar": 9209,
      "yaşına": 9210,
      "yaşlarda": 9211,
      "yaşanıyor": 9212,
      "yaşanacak": 9213,
      "lığım": 9214,
      "lığımı": 9215,
      "lığımız": 9216,
      "ihtil": 9217,
      "kişileri": 9218,
      "kişilerle": 9219,
      "bulunarak": 9220,
      "bulunmuştu": 9221,
      "bulunurken": 9222,
      "bulunmalıdır": 9223,
      "dinci": 9224,
      "dinam": 9225,
      "dinliyorum": 9226,
      "girmiş": 9227,
      "girip": 9228,
      "girdik": 9229,
      "girmesi": 9230,
      "girmeye": 9231,
      "memurlar": 9232,
      "sözlü": 9233,
      "sözlerine": 9234,
      "sözüyle": 9235,
      "ortamı": 9236,
      "ortadan": 9237,
      "ortaokul": 9238,
      "leşen": 9239,
      "leşmeye": 9240,
      "leşmenin": 9241,
      "bakmak": 9242,
      "bakanlık": 9243,
      "kimler": 9244,
      "senet": 9245,
      "sendro": 9246,
      "senaryo": 9247,
      "oluyoruz": 9248,
      "İnti": 9249,
      "İnce": 9250,
      "İnternet": 9251,
      "İnönü": 9252,
      "konuşacak": 9253,
      "edilip": 9254,
      "edilmez": 9255,
      "hakaret": 9256,
      "tünel": 9257,
      "gözlerinin": 9258,
      "gözlerinden": 9259,
      "gözlerim": 9260,
      "gözyaşı": 9261,
      "gözümün": 9262,
      "gözenek": 9263,
      "arkasında": 9264,
      "arkasındaki": 9265,
      "Haş": 9266,
      "Hatice": 9267,
      "hediye": 9268,
      "heugen": 9269,
      "düzeni": 9270,
      "getirdiği": 9271,
      "getirisi": 9272,
      "getirilen": 9273,
      "getirecek": 9274,
      "getirmişti": 9275,
      "getirilmiş": 9276,
      "getirilir": 9277,
      "getirebilir": 9278,
      "otlar": 9279,
      "reter": 9280,
      "rettin": 9281,
      "yalizm": 9282,
      "duydu": 9283,
      "duymaya": 9284,
      "bekleyin": 9285,
      "üslu": 9286,
      "üsüne": 9287,
      "üsünün": 9288,
      "dürüst": 9289,
      "rane": 9290,
      "rant": 9291,
      "randevu": 9292,
      "banyo": 9293,
      "ehan": 9294,
      "takmış": 9295,
      "takıntı": 9296,
      "taklit": 9297,
      "ilgil": 9298,
      "ilgiyi": 9299,
      "yenil": 9300,
      "yenilen": 9301,
      "yenerek": 9302,
      "sağduy": 9303,
      "sağlığını": 9304,
      "sağladığı": 9305,
      "haneye": 9306,
      "laşması": 9307,
      "laştığı": 9308,
      "laşmayı": 9309,
      "oyunları": 9310,
      "Altı": 9311,
      "düşünül": 9312,
      "düşünmek": 9313,
      "düşünmüyorum": 9314,
      "belirtir": 9315,
      "belirlenen": 9316,
      "mermer": 9317,
      "mergeler": 9318,
      "pala": 9319,
      "paha": 9320,
      "pasapor": 9321,
      "cağımı": 9322,
      "kötüm": 9323,
      "gittiler": 9324,
      "gittiği": 9325,
      "mezdi": 9326,
      "temmuz": 9327,
      "devri": 9328,
      "göstermiş": 9329,
      "gösterdiği": 9330,
      "gösterecek": 9331,
      "gösterirler": 9332,
      "seksen": 9333,
      "burda": 9334,
      "buruk": 9335,
      "burası": 9336,
      "kaçın": 9337,
      "tanıyordu": 9338,
      "resinde": 9339,
      "resme": 9340,
      "şekli": 9341,
      "tımdan": 9342,
      "çıkaran": 9343,
      "çıkartan": 9344,
      "çıkardığı": 9345,
      "çıkartın": 9346,
      "çıkartıp": 9347,
      "çıkarmadım": 9348,
      "çıkarıp": 9349,
      "müesses": 9350,
      "barikat": 9351,
      "binen": 9352,
      "sırasına": 9353,
      "uluyordu": 9354,
      "uluğu": 9355,
      "uluğun": 9356,
      "nedenlerini": 9357,
      "açma": 9358,
      "açarak": 9359,
      "beti": 9360,
      "beton": 9361,
      "olurmuş": 9362,
      "olursanız": 9363,
      "Baştan": 9364,
      "Erken": 9365,
      "Ergen": 9366,
      "Ersever": 9367,
      "sıntı": 9368,
      "sindir": 9369,
      "sinsi": 9370,
      "gerçeklik": 9371,
      "sesler": 9372,
      "seslenen": 9373,
      "sessizlik": 9374,
      "sesleniyorum": 9375,
      "ızgara": 9376,
      "üstlen": 9377,
      "üstelik": 9378,
      "üstlenen": 9379,
      "Yata": 9380,
      "Yaşar": 9381,
      "Yabancı": 9382,
      "Yatırım": 9383,
      "açıklayan": 9384,
      "tatmin": 9385,
      "kep": 9386,
      "kedi": 9387,
      "korkut": 9388,
      "tutmuş": 9389,
      "tutmadı": 9390,
      "tuttuğ": 9391,
      "önemsiz": 9392,
      "önemliydi": 9393,
      "değişime": 9394,
      "durumlar": 9395,
      "durumunu": 9396,
      "ştırdı": 9397,
      "artması": 9398,
      "arttığını": 9399,
      "incecik": 9400,
      "çifte": 9401,
      "yanısıra": 9402,
      "bütünü": 9403,
      "bütünlük": 9404,
      "bütünüyle": 9405,
      "kuca": 9406,
      "yazısı": 9407,
      "yazıyor": 9408,
      "yazısını": 9409,
      "dünyasında": 9410,
      "dünyasına": 9411,
      "dünyasından": 9412,
      "alanları": 9413,
      "alandaki": 9414,
      "alanındaki": 9415,
      "alanlardır": 9416,
      "gıda": 9417,
      "uçuş": 9418,
      "uçurt": 9419,
      "Arif": 9420,
      "Arzu": 9421,
      "açısı": 9422,
      "açılış": 9423,
      "bağlantı": 9424,
      "bağlanarak": 9425,
      "ilerici": 9426,
      "çocukluk": 9427,
      "saklı": 9428,
      "sakınca": 9429,
      "oluşu": 9430,
      "oluşması": 9431,
      "başkası": 9432,
      "başkalarıyla": 9433,
      "hazırlıklar": 9434,
      "paralar": 9435,
      "paraya": 9436,
      "parası": 9437,
      "hassa": 9438,
      "hasret": 9439,
      "gelenler": 9440,
      "geleneğ": 9441,
      "geleneği": 9442,
      "öğrenmek": 9443,
      "öğreniyoruz": 9444,
      "lırmak": 9445,
      "karışım": 9446,
      "olayları": 9447,
      "olayların": 9448,
      "isteğ": 9449,
      "istediler": 9450,
      "istediğimiz": 9451,
      "istediğiniz": 9452,
      "istediklerini": 9453,
      "istediğimi": 9454,
      "bık": 9455,
      "bıçak": 9456,
      "karavan": 9457,
      "karaciğer": 9458,
      "porn": 9459,
      "maliyet": 9460,
      "kazanır": 9461,
      "kazanıyor": 9462,
      "tıldı": 9463,
      "Ayna": 9464,
      "candan": 9465,
      "canlandır": 9466,
      "ozun": 9467,
      "amca": 9468,
      "ceğin": 9469,
      "ceğiniz": 9470,
      "seçmen": 9471,
      "seçimi": 9472,
      "seçkin": 9473,
      "seçildi": 9474,
      "seçilmiş": 9475,
      "seçimde": 9476,
      "kadındı": 9477,
      "dönemine": 9478,
[...]
