{
  "version": "1.0",
  "truncation": null,
  "padding": null,
  "added_tokens": [
    {
      "id": 0,
      "special": true,
      "content": "<UNK>",
      "single_word": false,
      "lstrip": false,
      "rstrip": false,
      "normalized": false
    },
    {
      "id": 1,
      "special": true,
      "content": "<SEP>",
      "single_word": false,
      "lstrip": false,
      "rstrip": false,
      "normalized": false
    },
    {
      "id": 2,
      "special": true,
      "content": "<MASK>",
      "single_word": false,
      "lstrip": false,
      "rstrip": false,
      "normalized": false
    },
    {
      "id": 3,
      "special": true,
      "content": "<CLS>",
      "single_word": false,
      "lstrip": false,
      "rstrip": false,
      "normalized": false
    }
  ],
  "normalizer": null,
  "pre_tokenizer": {
    "type": "Whitespace"
  },
  "post_processor": null,
  "decoder": null,
  "model": {
    "type": "Unigram",
    "unk_id": 0,
    "vocab": [
      [
        "<UNK>",
        0.0
      ],
      [
        "<SEP>",
        0.0
      ],
      [
        "<MASK>",
        0.0
      ],
      [
        "<CLS>",
        0.0
      ],
      [
        ".",
        -3.157250284693271
      ],
      [
        ",",
        -3.267486470639108
      ],
      [
        "n",
        -4.170165590174735
      ],
      [
        "'",
        -4.178653214628367
      ],
      [
        "bir",
        -4.269323015894147
      ],
      [
        "k",
        -4.349349269989358
      ],
      [
        "a",
        -4.371379028019291
      ],
      [
        "\"",
        -4.406167868564498
      ],
      [
        "ve",
        -4.512831262383769
      ],
      [
        "de",
        -4.522058789815657
      ],
      [
        "da",
        -4.57175942445415
      ],
      [
        "e",
        -4.591851850984469
      ],
      [
        "m",
        -4.678840065876676
      ],
      [
        "i",
        -4.801805166359319
      ],
      [
        "ya",
        -5.227265944593712
      ],
      [
        "lar",
        -5.273345575186094
      ],
      [
        "bu",
        -5.299158752533581
      ],
      [
        "ı",
        -5.3577460049881385
      ],
      [
        "en",
        -5.395489402849612
      ],
      [
        "r",
        -5.401801871734308
      ],
      [
        "in",
        -5.434528171128144
      ],
      [
        "ler",
        -5.518997456757378
      ],
      [
        "p",
        -5.566971385578921
      ],
      [
        "o",
        -5.583105474135222
      ],
      [
        "ki",
        -5.594283559919348
      ],
      [
        "ne",
        -5.594302642392164
      ],
      [
        "için",
        -5.697514704842785
      ],
      [
        "t",
        -5.703974428102318
      ],
      [
        "nin",
        -5.726398515665973
      ],
      [
        "ın",
        -5.796381161839705
      ],
      [
        "den",
        -5.810648345625922
      ],
      [
        "dan",
        -5.856356505030066
      ],
      [
        "nın",
        -5.868765343602392
      ],
      [
        "z",
        -5.877249549517996
      ],
      [
        "-",
        -5.887952082157258
      ],
      [
        "li",
        -5.898586467661062
      ],
      [
        "...",
        -5.902557017306919
      ],
      [
        "la",
        -5.9153849496653015
      ],
      [
        "ye",
        -5.94147283182727
      ],
      [
        "si",
        -5.943790399337007
      ],
      [
        "Bu",
        -5.945448949356073
      ],
      [
        ":",
        -5.960535286511551
      ],
      [
        "an",
        -5.984826914801803
      ],
      [
        "leri",
        -5.990717979033372
      ],
      [
        "çok",
        -6.006911870207453
      ],
      [
        "ları",
        -6.01042013867107
      ],
      [
        "A",
        -6.05042765631387
      ],
      [
        "lı",
        -6.05231128654966
      ],
      [
        "le",
        -6.1112852431733105
      ],
      [
        "s",
        -6.139742483865921
      ],
      [
        "gibi",
        -6.187285220169289
      ],
      [
        "u",
        -6.197484057842249
      ],
      [
        "na",
        -6.200911604074727
      ],
      [
        "?",
        -6.20212608167631
      ],
      [
        "di",
        -6.229404907264039
      ],
      [
        "ile",
        -6.308942072578257
      ],
      [
        "sonra",
        -6.3584853183878804
      ],
      [
        "O",
        -6.358921495041468
      ],
      [
        "her",
        -6.360506689039535
      ],
      [
        "daha",
        -6.362255165633853
      ],
      [
        "te",
        -6.3903078401092515
      ],
      [
        "Bir",
        -6.4054248177144375
      ],
      [
        "T",
        -6.423287079560419
      ],
      [
        "S",
        -6.424203074508146
      ],
      [
        "olara",
        -6.44507370841018
      ],
      [
        "ta",
        -6.459657231139269
      ],
      [
        "y",
        -6.462372983949051
      ],
      [
        "sa",
        -6.48250930093885
      ],
      [
        "ma",
        -6.487408866851954
      ],
      [
        "dır",
        -6.492514606981777
      ],
      [
        "kadar",
        -6.512399280394005
      ],
      [
        "var",
        -6.519231611402651
      ],
      [
        "yla",
        -6.529121885639887
      ],
      [
        "sı",
        -6.532444994560143
      ],
      [
        "yı",
        -6.549564264808364
      ],
      [
        "M",
        -6.5573783537494
      ],
      [
        "diye",
        -6.561984796259512
      ],
      [
        "olan",
        -6.5695892493855395
      ],
      [
        "l",
        -6.5857373408123046
      ],
      [
        "K",
        -6.599675420313138
      ],
      [
        "yi",
        -6.599721999685867
      ],
      [
        "1",
        -6.6145680623894325
      ],
      [
        "er",
        -6.616555405748176
      ],
      [
        "dir",
        -6.6216238748840155
      ],
      [
        "yle",
        -6.623379025117213
      ],
      [
        "ca",
        -6.647729131023386
      ],
      [
        "gün",
        -6.6846019556402325
      ],
      [
        "B",
        -6.686779557479085
      ],
      [
        "ların",
        -6.693907239724619
      ],
      [
        "mi",
        -6.7165802157171
      ],
      [
        "h",
        -6.7178407660424835
      ],
      [
        "P",
        -6.721392990813677
      ],
      [
        "al",
        -6.738904919550103
      ],
      [
        ";",
        -6.741491623089941
      ],
      [
        "ama",
        -6.743832686464452
      ],
      [
        "d",
        -6.744321753398698
      ],
      [
        "lerin",
        -6.755907237815369
      ],
      [
        "su",
        -6.76167792448818
      ],
      [
        "ce",
        -6.7667680410294295
      ],
      [
        "larını",
        -6.769756830414758
      ],
      [
        "E",
        -6.773690881661781
      ],
      [
        "ndan",
        -6.7859318185474375
      ],
      [
        "zaman",
        -6.789814276805936
      ],
      [
        "un",
        -6.793504786825204
      ],
      [
        "Y",
        -6.82338360653642
      ],
      [
        "(",
        -6.845330937152996
      ],
      [
        "büyük",
        -6.852555164293372
      ],
      [
        ")",
        -6.85756346745376
      ],
      [
        "Türkiye",
        -6.857614469520229
      ],
      [
        "!",
        -6.866195060919263
      ],
      [
        "D",
        -6.867675436563141
      ],
      [
        "ç",
        -6.882437741125866
      ],
      [
        "ün",
        -6.898109432961647
      ],
      [
        "ken",
        -6.9082039777144555
      ],
      [
        "lik",
        -6.913612996740183
      ],
      [
        "iyi",
        -6.91674130196425
      ],
      [
        "2",
        -6.9325345924847825
      ],
      [
        "şey",
        -6.937436216592586
      ],
      [
        "dı",
        -6.9389380990703735
      ],
      [
        "siz",
        -6.950498253622409
      ],
      [
        "lık",
        -6.966770649677204
      ],
      [
        "ü",
        -6.969514229594491
      ],
      [
        "yeni",
        -6.978721446003969
      ],
      [
        "mış",
        -6.984600232059965
      ],
      [
        "ni",
        -6.989999705036231
      ],
      [
        "değil",
        -6.991262856318305
      ],
      [
        "İ",
        -6.99563413030186
      ],
      [
        "b",
        -6.995743440551726
      ],
      [
        "arak",
        -7.012004206503203
      ],
      [
        "du",
        -7.0292155394195275
      ],
      [
        "oldu",
        -7.029792362693165
      ],
      [
        "iki",
        -7.031315630579461
      ],
      [
        "nda",
        -7.042013981256798
      ],
      [
        "dedi",
        -7.049097929967383
      ],
      [
        "ş",
        -7.063115035028297
      ],
      [
        "Ç",
        -7.078409667994561
      ],
      [
        "kü",
        -7.080670038856374
      ],
      [
        "olduğu",
        -7.080847789163861
      ],
      [
        "im",
        -7.082131186614743
      ],
      [
        "uz",
        -7.088703733662272
      ],
      [
        "Ben",
        -7.089790367875674
      ],
      [
        "yok",
        -7.094194083275751
      ],
      [
        "lerini",
        -7.103016579869879
      ],
      [
        "iz",
        -7.108584433819792
      ],
      [
        "bile",
        -7.111513012503787
      ],
      [
        "me",
        -7.112308196015638
      ],
      [
        "um",
        -7.115749456719308
      ],
      [
        "el",
        -7.118765661764977
      ],
      [
        "karşı",
        -7.128100010646634
      ],
      [
        "3",
        -7.129326588950777
      ],
      [
        "yıl",
        -7.130851068048784
      ],
      [
        "önce",
        -7.140279370241192
      ],
      [
        "ise",
        -7.1439791398575
      ],
      [
        "tan",
        -7.148467791554595
      ],
      [
        "Türk",
        -7.152452769797958
      ],
      [
        "ilk",
        -7.15507509004873
      ],
      [
        "mı",
        -7.160410009039124
      ],
      [
        "içinde",
        -7.1614535665650765
      ],
      [
        "se",
        -7.162581151846231
      ],
      [
        "miş",
        -7.16715713327222
      ],
      [
        "kendi",
        -7.169571348550199
      ],
      [
        "yer",
        -7.16978986669767
      ],
      [
        "olduğunu",
        -7.175934407393131
      ],
      [
        "C",
        -7.1778320049908
      ],
      [
        "Ama",
        -7.1795134898979125
      ],
      [
        "hem",
        -7.194184320867373
      ],
      [
        "ir",
        -7.20192799510763
      ],
      [
        "yorum",
        -7.203145887867581
      ],
      [
        "at",
        -7.211998051324443
      ],
      [
        "g",
        -7.2211910007176074
      ],
      [
        "R",
        -7.240165581467627
      ],
      [
        "ine",
        -7.25410699958152
      ],
      [
        "yor",
        -7.266899408385641
      ],
      [
        "göre",
        -7.269530156047275
      ],
      [
        "kişi",
        -7.271276130011688
      ],
      [
        "nı",
        -7.272657722673259
      ],
      [
        "yan",
        -7.2733558500122095
      ],
      [
        "H",
        -7.273785380774285
      ],
      [
        "hiç",
        -7.283314002686324
      ],
      [
        "vardı",
        -7.285276799169959
      ],
      [
        "nun",
        -7.303687628369536
      ],
      [
        "arasında",
        -7.312353942640516
      ],
      [
        "orta",
        -7.327810053500581
      ],
      [
        "son",
        -7.330573500600915
      ],
      [
        "etti",
        -7.330956483670916
      ],
      [
        "lere",
        -7.33231975071141
      ],
      [
        "lara",
        -7.3337976207079185
      ],
      [
        "daki",
        -7.338440119383201
      ],
      [
        "F",
        -7.338489429285733
      ],
      [
        "insan",
        -7.340674787331993
      ],
      [
        "lığı",
        -7.348163707015444
      ],
      [
        "ini",
        -7.351958066388431
      ],
      [
        "tır",
        -7.359660947791092
      ],
      [
        "erek",
        -7.369123380073481
      ],
      [
        "iş",
        -7.37893790968292
      ],
      [
        "dur",
        -7.379945321503111
      ],
      [
        "bin",
        -7.38334754272443
      ],
      [
        "5",
        -7.3971345775275035
      ],
      [
        "ncak",
        -7.399057179145438
      ],
      [
        "4",
        -7.406596167518123
      ],
      [
        "doğru",
        -7.40960415353727
      ],
      [
        "lu",
        -7.41223903870834
      ],
      [
        "sel",
        -7.421794295344447
      ],
      [
        "on",
        -7.421928046016489
      ],
      [
        "G",
        -7.425534450739628
      ],
      [
        "tek",
        -7.432153943011257
      ],
      [
        "ten",
        -7.4351112773059524
      ],
      [
        "f",
        -7.44245472458554
      ],
      [
        "et",
        -7.448079712424971
      ],
      [
        "tı",
        -7.458593169223679
      ],
      [
        "ben",
        -7.458954588464347
      ],
      [
        "Ne",
        -7.482446035045789
      ],
      [
        "AB",
        -7.483278607988971
      ],
      [
        "böyle",
        -7.488529447074964
      ],
      [
        "mak",
        -7.489941025082581
      ],
      [
        "8",
        -7.494022179009659
      ],
      [
        "ği",
        -7.495566712980997
      ],
      [
        "il",
        -7.501861995586142
      ],
      [
        "üç",
        -7.503661383460437
      ],
      [
        "ci",
        -7.504446881875507
      ],
      [
        "onu",
        -7.507897596922702
      ],
      [
        "ar",
        -7.510221733146196
      ],
      [
        "ır",
        -7.514924469952663
      ],
      [
        "dünya",
        -7.5172032808500395
      ],
      [
        "bütün",
        -7.5214017659453045
      ],
      [
        "sını",
        -7.525445438686508
      ],
      [
        "Her",
        -7.527848718024139
      ],
      [
        "ip",
        -7.5295141475176255
      ],
      [
        "ince",
        -7.538937941929239
      ],
      [
        "deki",
        -7.544624649407193
      ],
      [
        "biri",
        -7.576566563749116
      ],
      [
        "sal",
        -7.579747641287805
      ],
      [
        "biz",
        -7.580438373079947
      ],
      [
        "bana",
        -7.590121412891251
      ],
      [
        "tir",
        -7.613565262764235
      ],
      [
        "şu",
        -7.61394704877547
      ],
      [
        "san",
        -7.615807376110129
      ],
      [
        "kan",
        -7.622753389226693
      ],
      [
        "birlikte",
        -7.62429404186677
      ],
      [
        "onun",
        -7.627682221966307
      ],
      [
        "6",
        -7.636191566724626
      ],
      [
        "başka",
        -7.640562741286247
      ],
      [
        "başladı",
        -7.640573397654781
      ],
      [
        "mu",
        -7.6451941304512925
      ],
      [
        "benim",
        -7.645736207905052
      ],
      [
        "para",
        -7.650667099128396
      ],
      [
        "ay",
        -7.6532451885059345
      ],
      [
        "sız",
        -7.6537421330369515
      ],
      [
        "gelen",
        -7.65499363906804
      ],
      [
        "dığı",
        -7.6630318524448615
      ],
      [
        "güzel",
        -7.669752289969758
      ],
      [
        "rken",
        -7.672910888050829
      ],
      [
        "az",
        -7.6793506061158645
      ],
      [
        "ol",
        -7.6797716306919375
      ],
      [
        "aynı",
        -7.6802232880466175
      ],
      [
        "sine",
        -7.680737560709039
      ],
      [
        "olur",
        -7.686318690809837
      ],
      [
        "yüzde",
        -7.6926909465500755
      ],
      [
        "üzerine",
        -7.692983222765017
      ],
      [
        "U",
        -7.699010010995175
      ],
      [
        "adı",
        -7.702956256690062
      ],
      [
        "ydi",
        -7.7046984727748455
      ],
      [
        "fa",
        -7.709618637008055
      ],
      [
        "iyor",
        -7.711595435243365
      ],
      [
        "larında",
        -7.71944845249572
      ],
      [
        "miz",
        -7.723363712486239
      ],
      [
        "tüm",
        -7.726651369159413
      ],
      [
        "yapı",
        -7.7331277751316
      ],
      [
        "ak",
        -7.735915199823689
      ],
      [
        "söyledi",
        -7.741904759799464
      ],
      [
        "İstanbul",
        -7.751031721515212
      ],
      [
        "ti",
        -7.75140235206596
      ],
      [
        "lü",
        -7.751961574855658
      ],
      [
        "ev",
        -7.752441319562403
      ],
      [
        "bilir",
        -7.7548393983250135
      ],
      [
        "süre",
        -7.759453353653221
      ],
      [
        "siniz",
        -7.75984693399856
      ],
      [
        "cı",
        -7.762974029581775
      ],
      [
        "sini",
        -7.765376756068963
      ],
      [
        "ması",
        -7.772634449482339
      ],
      [
        "sına",
        -7.7731121930415545
      ],
      [
        "7",
        -7.777717210126244
      ],
      [
        "ad",
        -7.778869987944379
      ],
      [
        "söz",
        -7.7793827407518545
      ],
      [
        "yol",
        -7.779985805559838
      ],
      [
        "acak",
        -7.781430382488943
      ],
      [
        "ifade",
        -7.78147356890892
      ],
      [
        "lan",
        -7.788518661905448
      ],
      [
        "maya",
        -7.789451221128906
      ],
      [
        "lerle",
        -7.790931323094246
      ],
      [
        "larda",
        -7.791211542139415
      ],
      [
        "uzun",
        -7.793543541768277
      ],
      [
        "pek",
        -7.801309259545691
      ],
      [
        "larla",
        -7.81274110829502
      ],
      [
        "lerde",
        -7.81304075392327
      ],
      [
        "ülke",
        -7.818147980450816
      ],
      [
        "artık",
        -7.818897684757054
      ],
      [
        "kez",
        -7.821787345535891
      ],
      [
        "liği",
        -7.822861498440378
      ],
      [
        "ilgili",
        -7.826530796877731
      ],
      [
        "tarafında",
        -7.8295011655348885
      ],
      [
        "Ve",
        -7.830670217894555
      ],
      [
        "nız",
        -7.846443907504189
      ],
      [
        "alan",
        -7.848851936303481
      ],
      [
        "geldi",
        -7.854645289626247
      ],
      [
        "ka",
        -7.856329330001621
      ],
      [
        "sin",
        -7.857516769731145
      ],
      [
        "kabul",
        -7.862291441210844
      ],
      [
        "yakın",
        -7.863827919830431
      ],
      [
        "nasıl",
        -7.87061534300996
      ],
      [
        "ara",
        -7.87887023047394
      ],
      [
        "re",
        -7.879162153600322
      ],
      [
        "önemli",
        -7.880054012847241
      ],
      [
        "ktan",
        -7.880154942505622
      ],
      [
        "sinde",
        -7.881260198028309
      ],
      [
        "İş",
        -7.881263573639099
      ],
      [
        "eski",
        -7.881936165519665
      ],
      [
        "N",
        -7.885721429405281
      ],
      [
        "v",
        -7.889358230698562
      ],
      [
        "beni",
        -7.889574362265568
      ],
      [
        "tur",
        -7.893276426317171
      ],
      [
        "*",
        -7.896445497591543
      ],
      [
        "küçük",
        -7.896457349806696
      ],
      [
        "lerden",
        -7.901656805364419
      ],
      [
        "ını",
        -7.90257968124901
      ],
      [
        "bugün",
        -7.903485227448639
      ],
      [
        "hiçbir",
        -7.909151218565906
      ],
      [
        "bel",
        -7.9114974771481155
      ],
      [
        "mız",
        -7.912770714304717
      ],
      [
        "ecek",
        -7.913064149841248
      ],
      [
        "fazla",
        -7.914001264484634
      ],
      [
        "ona",
        -7.916902773184559
      ],
      [
        "mek",
        -7.920139747763862
      ],
      [
        "men",
        -7.925041690537131
      ],
      [
        "diği",
        -7.926565236189023
      ],
      [
        "Er",
        -7.926700773049548
      ],
      [
        "aldı",
        -7.93175434610704
      ],
      [
        "nde",
        -7.93637648871016
      ],
      [
        "iç",
        -7.938292554749215
      ],
      [
        "adam",
        -7.93853897506335
      ],
      [
        "sen",
        -7.941644410085384
      ],
      [
        "Ço",
        -7.944825974764556
      ],
      [
        "dece",
        -7.946066774850121
      ],
      [
        "tür",
        -7.957211069571789
      ],
      [
        "eden",
        -7.961702243366563
      ],
      [
        "bi",
        -7.961735865568473
      ],
      [
        "lardan",
        -7.964857099682312
      ],
      [
        "kat",
        -7.965828817895859
      ],
      [
        "hep",
        -7.9689254354943415
      ],
      [
        "kız",
        -7.9695503784970025
      ],
      [
        "ğı",
        -7.9717671425425145
      ],
      [
        "baş",
        -7.9768267270991124
      ],
      [
        "ça",
        -7.976855265969598
      ],
      [
        "saat",
        -7.98126275723894
      ],
      [
        "der",
        -7.986252548883522
      ],
      [
        "aç",
        -7.987755555699856
      ],
      [
        "sun",
        -7.988872445537327
      ],
      [
        "ına",
        -7.989447990755547
      ],
      [
        "kadın",
        -7.996299399701318
      ],
      [
        "sın",
        -7.996812309149892
      ],
      [
        "yazı",
        -8.000573015287083
      ],
      [
        "çıkar",
        -8.00171861695019
      ],
      [
        "ran",
        -8.003538162326661
      ],
      [
        "!\"",
        -8.006389019128282
      ],
      [
        "aşığı",
        -8.006781568018567
      ],
      [
        "c",
        -8.007676137821422
      ],
      [
        "biraz",
        -8.00842523917322
      ],
      [
        "Bey",
        -8.010120293474227
      ],
      [
        "ba",
        -8.010929074920593
      ],
      [
        "geri",
        -8.014867539465639
      ],
      [
        "is",
        -8.015772481828243
      ],
      [
        "he",
        -8.027826958019812
      ],
      [
        "neden",
        -8.028949125954894
      ],
      [
        "ha",
        -8.031934584310058
      ],
      [
        "olması",
        -8.03346807466467
      ],
      [
        "sında",
        -8.039258663383949
      ],
      [
        "kal",
        -8.039982652487353
      ],
      [
        "birkaç",
        -8.040390369630494
      ],
      [
        "?\"",
        -8.043502932275612
      ],
      [
        "Dünya",
        -8.043920973637178
      ],
      [
        "yüz",
        -8.04496073075251
      ],
      [
        "niz",
        -8.045054288220673
      ],
      [
        "gerek",
        -8.046187948801435
      ],
      [
        "alım",
        -8.050043680973557
      ],
      [
        "0",
        -8.052945745006458
      ],
      [
        "onlar",
        -8.055782923193666
      ],
      [
        "yine",
        -8.063242456204385
      ],
      [
        "ür",
        -8.06481135187041
      ],
      [
        "muş",
        -8.066133922334625
      ],
      [
        "diğer",
        -8.066670641710877
      ],
      [
        "üzerinde",
        -8.06763586130151
      ],
      [
        "geçen",
        -8.07005422929496
      ],
      [
        "lardı",
        -8.071837003985769
      ],
      [
        "dim",
        -8.072081689183685
      ],
      [
        "Z",
        -8.082346049574952
      ],
      [
        "şekil",
        -8.087545668206612
      ],
      [
        "adet",
        -8.089862553520796
      ],
      [
        "ra",
        -8.090633080109765
      ],
      [
        "bazı",
        -8.09082837863808
      ],
      [
        "açık",
        -8.091353582079506
      ],
      [
        "aşa",
        -8.09168164542283
      ],
      [
        "bunu",
        -8.09237255042765
      ],
      [
        "konu",
        -8.092510518105916
      ],
      [
        "bak",
        -8.103429012815853
      ],
      [
        "inin",
        -8.104245575425182
      ],
      [
        "sahip",
        -8.106001768934687
      ],
      [
        "us",
        -8.106032494209863
      ],
      [
        "spor",
        -8.108799622935646
      ],
      [
        "insanlar",
        -8.115871940393381
      ],
      [
        "00",
        -8.11798332516587
      ],
      [
        "Başkan",
        -8.126991699073205
      ],
      [
        "yaptı",
        -8.130304062016211
      ],
      [
        "milyon",
        -8.130513004498425
      ],
      [
        "hafta",
        -8.130513248687516
      ],
      [
        "tu",
        -8.130858788953201
      ],
      [
        "200",
        -8.132888340844529
      ],
      [
        "olma",
        -8.134423526458562
      ],
      [
        "sıra",
        -8.136312411903823
      ],
      [
        "or",
        -8.138766585082358
      ],
      [
        "Sa",
        -8.144070434231983
      ],
      [
        "ının",
        -8.147892773858796
      ],
      [
        "gece",
        -8.150415676192175
      ],
      [
        "ediyor",
        -8.152225762794085
      ],
      [
        "ıp",
        -8.152729267638119
      ],
      [
        "dik",
        -8.152817638337698
      ],
      [
        "Böyle",
        -8.15389230584146
      ],
      [
        "olmak",
        -8.15667810401162
      ],
      [
        "tü",
        -8.157443141392296
      ],
      [
        "hava",
        -8.158204903487603
      ],
      [
        "etmek",
        -8.159916187439578
      ],
      [
        "En",
        -8.166573654156547
      ],
      [
        "oğlu",
        -8.1702524788642
      ],
      [
        "zor",
        -8.17254941887391
      ],
      [
        "olmuştu",
        -8.173836058622847
      ],
      [
        "sık",
        -8.175260820326624
      ],
      [
        "deniz",
        -8.176821731668099
      ],
      [
        "olsa",
        -8.179197205691512
      ],
      [
        "veya",
        -8.182153892094298
      ],
      [
        "yu",
        -8.188952323992572
      ],
      [
        "mü",
        -8.191475154641495
      ],
      [
        "sonun",
        -8.191482364358759
      ],
      [
        "yalnız",
        -8.191572965469458
      ],
      [
        "üzere",
        -8.191702509307293
      ],
      [
        "farklı",
        -8.195541903890563
      ],
      [
        "Avrupa",
        -8.196134026770206
      ],
      [
        "Ö",
        -8.198739001699337
      ],
      [
        "çocuk",
        -8.199121406741911
      ],
      [
        "gerçek",
        -8.200618219218075
      ],
      [
        "ze",
        -8.201834274348688
      ],
      [
        "va",
        -8.202924915689316
      ],
      [
        "dü",
        -8.204024863257771
      ],
      [
        "dikkat",
        -8.206248594526
      ],
      [
        "genç",
        -8.206597714334958
      ],
      [
        "9",
        -8.206633183201443
      ],
      [
        "vi",
        -8.212181478869176
      ],
      [
        "kaç",
        -8.212233603050851
      ],
      [
        "Bakan",
        -8.213916743421866
      ],
      [
        "tam",
        -8.21732079634053
      ],
      [
        "hangi",
        -8.218017869191435
      ],
      [
        "iyle",
        -8.220688548080538
      ],
      [
        "as",
        -8.221666437673811
      ],
      [
        "olsun",
        -8.223159146648213
      ],
      [
        "yere",
        -8.223267574991045
      ],
      [
        "likle",
        -8.223796226596107
      ],
      [
        "Ş",
        -8.224564742862551
      ],
      [
        "kimse",
        -8.22600252100054
      ],
      [
        "es",
        -8.235129540245296
      ],
      [
        "yemek",
        -8.236023973645647
      ],
      [
        "sınız",
        -8.236621416491744
      ],
      [
        "verdi",
        -8.237841690387052
      ],
      [
        "kça",
        -8.23795501892319
      ],
      [
        "Biz",
        -8.240527377628636
      ],
      [
        "Bunun",
        -8.240644766597729
      ],
      [
        "öyle",
        -8.24080495374577
      ],
      [
        "yse",
        -8.241727167920786
      ],
      [
        "nden",
        -8.245257251873973
      ],
      [
        "Atatürk",
        -8.246915221000275
      ],
      [
        "yapılan",
        -8.246981522945624
      ],
      [
        "rek",
        -8.249984873158025
      ],
      [
        "yordu",
        -8.255370581342344
      ],
      [
        "ter",
        -8.256687338986847
      ],
      [
        "anı",
        -8.26845837533918
      ],
      [
        "sabah",
        -8.271925508566936
      ],
      [
        "mişti",
        -8.271951144648074
      ],
      [
        "Genel",
        -8.272016668052654
      ],
      [
        "devam",
        -8.27226963075424
      ],
      [
        "Ka",
        -8.274775906954439
      ],
      [
        "Benim",
        -8.27725566925072
      ],
      [
        "genel",
        -8.27904237731124
      ],
      [
        "Onun",
        -8.280517121010273
      ],
      [
        "yoktu",
        -8.280595668749935
      ],
      [
        "yarı",
        -8.28061573649349
      ],
      [
        "çi",
        -8.281297589800293
      ],
      [
        "Ak",
        -8.281491550306622
      ],
      [
        "can",
        -8.288536279954402
      ],
      [
        "dil",
        -8.294117561787742
      ],
      [
        "verdiği",
        -8.294500318304266
      ],
      [
        "ğu",
        -8.297112115797994
      ],
      [
        "adım",
        -8.297167285819125
      ],
      [
        "it",
        -8.297726571978972
      ],
      [
        "bulunan",
        -8.299599786898403
      ],
      [
        "ver",
        -8.303800671923394
      ],
      [
        "be",
        -8.307759134975111
      ],
      [
        "ım",
        -8.308108348728876
      ],
      [
        "demek",
        -8.310160024678394
      ],
      [
        "köy",
        -8.312630617362977
      ],
      [
        "kar",
        -8.312744808343737
      ],
      [
        "â",
        -8.317245948881896
      ],
      [
        "L",
        -8.31734879098809
      ],
      [
        "10",
        -8.321229986261791
      ],
      [
        "yerin",
        -8.322485838681207
      ],
      [
        "yüksek",
        -8.323772315757063
      ],
      [
        "yavaş",
        -8.323949074855356
      ],
      [
        "Fakat",
        -8.32406426774966
      ],
      [
        "yaşında",
        -8.324185384734044
      ],
      [
        "kten",
        -8.324674015219259
      ],
      [
        "anlat",
        -8.327592937449351
      ],
      [
        "eder",
        -8.328066766845215
      ],
      [
        "maktadır",
        -8.32966243938022
      ],
      [
        "beş",
        -8.329895156109265
      ],
      [
        "gelir",
        -8.334109282762956
      ],
      [
        "konuşma",
        -8.33491319364379
      ],
      [
        "luk",
        -8.335333304327584
      ],
      [
        "kapı",
        -8.33699267230212
      ],
      [
        "boyun",
        -8.340855391443899
      ],
      [
        "çıktı",
        -8.341507389551394
      ],
      [
        "dakika",
        -8.345887457940169
      ],
      [
        "rak",
        -8.34772531400947
      ],
      [
        "gel",
        -8.348686107975787
      ],
      [
        "şöyle",
        -8.351855506304982
      ],
      [
        "Ü",
        -8.351953476993005
      ],
      [
        "erkek",
        -8.353859917107494
      ],
      [
        "şimdi",
        -8.354797757135309
      ],
      [
        "olacak",
        -8.356271517409342
      ],
      [
        "karar",
        -8.358210509064246
      ],
      [
        "aile",
        -8.358693045773004
      ],
      [
        "lerinden",
        -8.35918421245036
      ],
      [
        "bizim",
        -8.359830788722906
      ],
      [
        "hayat",
        -8.360165898746136
      ],
      [
        "sü",
        -8.361327473253578
      ],
      [
        "dolu",
        -8.363783112002118
      ],
      [
        "ydı",
        -8.367987536621204
      ],
      [
        "Ya",
        -8.370314462744062
      ],
      [
        "mez",
        -8.371155611608673
      ],
      [
        "mesi",
        -8.371833516645054
      ],
      [
        "lo",
        -8.37298593860148
      ],
      [
        "sinin",
        -8.378174086464155
      ],
      [
        "akşam",
        -8.37879214698178
      ],
      [
        "yerde",
        -8.378858880590846
      ],
      [
        "ıyor",
        -8.378968557368138
      ],
      [
        "dım",
        -8.38110204715556
      ],
      [
        "istan",
        -8.386133756811315
      ],
      [
        "güç",
        -8.39051216682286
      ],
      [
        "ö",
        -8.394163982877213
      ],
      [
        "halde",
        -8.394845892144538
      ],
      [
        "Dah",
        -8.396935803315523
      ],
      [
        "çalışma",
        -8.397164185401806
      ],
      [
        "ur",
        -8.40179464477458
      ],
      [
        "muz",
        -8.402364302930705
      ],
      [
        "mutlu",
        -8.40462088175984
      ],
      [
        "Ankara",
        -8.407354679483845
      ],
      [
        "Sonra",
        -8.407693622964608
      ],
      [
        "ası",
        -8.409808835487318
      ],
      [
        "kolay",
        -8.412752675812525
      ],
      [
        "kır",
        -8.414861641588633
      ],
      [
        "etme",
        -8.414998895779203
      ],
      [
        "mıştı",
        -8.41501439204524
      ],
      [
        "ıl",
        -8.417186298546184
      ],
      [
        "El",
        -8.418092148877975
      ],
      [
        "çı",
        -8.419288513371944
      ],
      [
        "acı",
        -8.420980728936993
      ],
      [
        "geç",
        -8.422110878065407
      ],
      [
        "şeyler",
        -8.422337605706572
      ],
      [
        "yanında",
        -8.425036207072818
      ],
      [
        "yen",
        -8.426250632278876
      ],
      [
        "alın",
        -8.426649971996913
      ],
      [
        "ebilir",
        -8.43172196333754
      ],
      [
        "yanı",
        -8.433722675918254
      ],
      [
        "ütün",
        -8.434819209012065
      ],
      [
        "bağlı",
        -8.438826876941722
      ],
      [
        "orada",
        -8.439740088891188
      ],
      [
        "HP",
        -8.440579639591146
      ],
      [
        "Yeni",
        -8.441806785989883
      ],
      [
        "I",
        -8.444892481452813
      ],
      [
        "Öz",
        -8.447150102787713
      ],
      [
        "...\"",
        -8.448331716529115
      ],
      [
        "ri",
        -8.451176947405946
      ],
      [
        "sol",
        -8.452018254473177
      ],
      [
        "tarih",
        -8.452068823475642
      ],
      [
        "arası",
        -8.454454698383534
      ],
      [
        "başında",
        -8.454802681101116
      ],
      [
        "rağ",
        -8.454982913402105
      ],
      [
        "özel",
        -8.455369140309912
      ],
      [
        "günü",
        -8.457567620197263
      ],
      [
        "cu",
        -8.457786938973857
      ],
      [
        "işleri",
        -8.46079336022653
      ],
      [
        "oy",
        -8.461691642975616
      ],
      [
        "fi",
        -8.46453777087455
      ],
      [
        "Al",
        -8.46640414218342
      ],
      [
        "ilgi",
        -8.468174383192002
      ],
      [
        "savaş",
        -8.469761324134268
      ],
      [
        "olabilir",
        -8.470387054839083
      ],
      [
        "ikinci",
        -8.470616294050885
      ],
      [
        "gitti",
        -8.470996299970547
      ],
      [
        "sunu",
        -8.473551882390577
      ],
      [
        "ağır",
        -8.473759942809707
      ],
      [
        "değildir",
        -8.47581641428511
      ],
      [
        "çe",
        -8.476312619539536
      ],
      [
        "ana",
        -8.478125309445197
      ],
      [
        "göz",
        -8.480682771040904
      ],
      [
        "duygu",
        -8.482808973888243
      ],
      [
        "üst",
        -8.4831754443683
      ],
      [
        "izin",
        -8.48346248787667
      ],
      [
        "kara",
        -8.48584583853368
      ],
      [
        "film",
        -8.488100849374534
      ],
      [
        "elde",
        -8.492075888308433
      ],
      [
        "ön",
        -8.492164042196208
      ],
      [
        "Irak",
        -8.49582509471463
      ],
      [
        "V",
        -8.497007381897141
      ],
      [
        "dışında",
        -8.499833401910603
      ],
      [
        "çıkan",
        -8.50059540788781
      ],
      [
        "lerinde",
        -8.501691583671228
      ],
      [
        "girdi",
        -8.501976316098643
      ],
      [
        "bilgi",
        -8.502371717014764
      ],
      [
        "yaptığı",
        -8.502636751459958
      ],
      [
        "onları",
        -8.506125676282588
      ],
      [
        "Ha",
        -8.507738359785343
      ],
      [
        "ında",
        -8.509517017102738
      ],
      [
        "altında",
        -8.512801349238815
      ],
      [
        "bil",
        -8.513062661285893
      ],
      [
        "liğini",
        -8.522393178047304
      ],
      [
        "asıl",
        -8.523348092858534
      ],
      [
        "20",
        -8.524678786792169
      ],
      [
        "lira",
        -8.524761259240323
      ],
      [
        "herkes",
        -8.525241437161661
      ],
      [
        "gül",
        -8.526958610876312
      ],
      [
        "parti",
        -8.52996477478453
      ],
      [
        "Anadolu",
        -8.53054918273911
      ],
      [
        "takım",
        -8.530585157941328
      ],
      [
        "Hiç",
        -8.531787311470275
      ],
      [
        "ayrı",
        -8.532868764301655
      ],
      [
        "konusunda",
        -8.534833532569774
      ],
      [
        "ait",
        -8.534881324501463
      ],
      [
        "olu",
        -8.53862295750529
      ],
      [
        "ıyordu",
        -8.546002411550653
      ],
      [
        "hareket",
        -8.548172840856916
      ],
      [
        "ik",
        -8.54895435698839
      ],
      [
        "mayacak",
        -8.551685349393992
      ],
      [
        "Ali",
        -8.552334418700351
      ],
      [
        "türlü",
        -8.555265569294201
      ],
      [
        "ton",
        -8.556234295529155
      ],
      [
        "tik",
        -8.556503499919094
      ],
      [
        "12",
        -8.557474457211198
      ],
      [
        "konuştu",
        -8.558480728586922
      ],
      [
        "toplum",
        -8.558943780742464
      ],
      [
        "ist",
        -8.559972571035171
      ],
      [
        "alt",
        -8.561484607114608
      ],
      [
        "sosyal",
        -8.56365784036757
      ],
      [
        "Mehmet",
        -8.563804927971823
      ],
      [
        "soru",
        -8.564971765163072
      ],
      [
        "şeyi",
        -8.565179358159796
      ],
      [
        "kendini",
        -8.566133089395215
      ],
      [
        "ıyla",
        -8.566175204998018
      ],
      [
        "dün",
        -8.567474566933337
      ],
      [
        "Onlar",
        -8.567785729212593
      ],
      [
        "zat",
        -8.56781517687406
      ],
      [
        "bulunduğu",
        -8.568252151526998
      ],
      [
        "abilir",
        -8.568435682041548
      ],
      [
        "tuz",
        -8.568585973772157
      ],
      [
        "ız",
        -8.569190265262197
      ],
      [
        "annem",
        -8.571304893758462
      ],
      [
        "azı",
        -8.571389525739946
      ],
      [
        "olmuş",
        -8.574597787565535
      ],
      [
        "ah",
        -8.574814090714531
      ],
      [
        "15",
        -8.580472216322045
      ],
      [
        "konusu",
        -8.581845885017508
      ],
      [
        "30",
        -8.582291175977403
      ],
      [
        "gider",
        -8.583827830167149
      ],
      [
        "kimi",
        -8.592270714127457
      ],
      [
        "len",
        -8.594010773806914
      ],
      [
        "edin",
        -8.595431465737285
      ],
      [
        "karşısında",
        -8.595818490495738
      ],
      [
        "yaklaşı",
        -8.59716929367827
      ],
      [
        "dört",
        -8.59855359352355
      ],
      [
        "burada",
        -8.599013207188268
      ],
      [
        "unu",
        -8.599364769888279
      ],
      [
        "Allah",
        -8.599402001341257
      ],
      [
        "hakkında",
        -8.599402950017428
      ],
      [
        "devlet",
        -8.600167605156154
      ],
      [
        "eş",
        -8.600610345166933
      ],
      [
        "cü",
        -8.600748687608542
      ],
      [
        "durum",
        -8.602078640597064
      ],
      [
        "arada",
        -8.602687233384176
      ],
      [
        "Ay",
        -8.60294859034236
      ],
      [
        "din",
        -8.604584243997344
      ],
      [
        "oyun",
        -8.6047779809616
      ],
      [
        "boş",
        -8.60503495571218
      ],
      [
        "Kendi",
        -8.605037400825841
      ],
      [
        "ilişki",
        -8.605655416144751
      ],
      [
        "araştırma",
        -8.60672797109213
      ],
      [
        "dikleri",
        -8.60966959306506
      ],
      [
        "insanların",
        -8.610426885530789
      ],
      [
        "anlam",
        -8.610610209216318
      ],
      [
        "nik",
        -8.610970364970232
      ],
      [
        "dığını",
        -8.611116368356939
      ],
      [
        "tere",
        -8.611625030166444
      ],
      [
        "sevgi",
        -8.611757427977142
      ],
      [
        "bunun",
        -8.61367565732391
      ],
      [
        "larımız",
        -8.613779928705496
      ],
      [
        "fe",
        -8.613954667586436
      ],
      [
        "larımızı",
        -8.616185575992525
      ],
      [
        "geçti",
        -8.616235047904455
      ],
      [
        "bunlar",
        -8.616825237422
      ],
      [
        "elinde",
        -8.618881318288317
      ],
      [
        "Bunu",
        -8.620837554212525
      ],
      [
        "rtık",
        -8.625447615369598
      ],
      [
        "19",
        -8.62659368266089
      ],
      [
        "verme",
        -8.626851580556973
      ],
      [
        "olmadığı",
        -8.630618232774175
      ],
      [
        "ses",
        -8.631118905140296
      ],
      [
        "imiz",
        -8.63138113549797
      ],
      [
        "inde",
        -8.631984296190929
      ],
      [
        "Hoca",
        -8.634738697225398
      ],
      [
        "silah",
        -8.634873449697267
      ],
      [
        "çeşitli",
        -8.635174354968427
      ],
      [
        "sana",
        -8.635608769572562
      ],
      [
        "Büyük",
        -8.63724194370197
      ],
      [
        "yayın",
        -8.637755952582364
      ],
      [
        "bit",
        -8.638065400497215
      ],
      [
        "kap",
        -8.639279219456174
      ],
      [
        "ğ",
        -8.639755319804214
      ],
      [
        "yıp",
        -8.640413724736314
      ],
      [
        "evi",
        -8.640945909998912
      ],
      [
        "dile",
        -8.643196854196209
      ],
      [
        "man",
        -8.647170157912491
      ],
      [
        "luğu",
        -8.649077799145147
      ],
      [
        "beyaz",
        -8.6520675652824
      ],
      [
        "elim",
        -8.652975909442038
      ],
      [
        "yılında",
        -8.655929445647596
      ],
      [
        "landı",
        -8.656016725187314
      ],
      [
        "bo",
        -8.65710553441102
      ],
      [
        "İlk",
        -8.657136563363371
      ],
      [
        "edilen",
        -8.659098501963824
      ],
      [
        "yoruz",
        -8.65920438524478
      ],
      [
        "Pek",
        -8.663667077382518
      ],
      [
        "tak",
        -8.664207949521304
      ],
      [
        "Siz",
        -8.665419177828909
      ],
      [
        "bizi",
        -8.666283421797562
      ],
      [
        "ardında",
        -8.666968660209852
      ],
      [
        "ladı",
        -8.668638736071427
      ],
      [
        "sının",
        -8.669070207131984
      ],
      [
        "geçmiş",
        -8.66957299893032
      ],
      [
        "oluyor",
        -8.67002584172949
      ],
      [
        "sahibi",
        -8.67104035992949
      ],
      [
        "bardağı",
        -8.671092674610193
      ],
      [
        "itibar",
        -8.671121832876704
      ],
      [
        "sürekli",
        -8.671356982211442
      ],
      [
        "diğini",
        -8.671431319091184
      ],
      [
        "demir",
        -8.672117048419024
      ],
      [
        "ılmaz",
        -8.677601614043446
      ],
      [
        "başın",
        -8.679605389671575
      ],
      [
        "Ar",
        -8.680277063330314
      ],
      [
        "Ban",
        -8.681165813550427
      ],
      [
        "hatt",
        -8.684167001644795
      ],
      [
        "belirt",
        -8.684510245026177
      ],
      [
        "leme",
        -8.68636527892783
      ],
      [
        "yet",
        -8.687038597746756
      ],
      [
        "har",
        -8.687401396730595
      ],
      [
        "art",
        -8.689316257170985
      ],
      [
        "Tek",
        -8.69298449198488
      ],
      [
        "kent",
        -8.701791851229677
      ],
      [
        "hak",
        -8.702501239690218
      ],
      [
        "nca",
        -8.706159295640044
      ],
      [
        "buna",
        -8.709124889118428
      ],
      [
        "mümkün",
        -8.709501191306105
      ],
      [
        "milyar",
        -8.709561918107987
      ],
      [
        "kesin",
        -8.709682071906641
      ],
      [
        "uygun",
        -8.709863485693742
      ],
      [
        "edip",
        -8.709881773432068
      ],
      [
        "Batı",
        -8.710781770059748
      ],
      [
        "maz",
        -8.711486632230308
      ],
      [
        "tamam",
        -8.715312859055775
      ],
      [
        "yapan",
        -8.715402322260614
      ],
      [
        "sanat",
        -8.715531001856032
      ],
      [
        "sırada",
        -8.716810449718613
      ],
      [
        "eğitim",
        -8.717553882924769
      ],
      [
        "anne",
        -8.719109469411276
      ],
      [
        "suz",
        -8.720932672423485
      ],
      [
        "ölçü",
        -8.721702275310303
      ],
      [
        "min",
        -8.721807559073325
      ],
      [
        "İki",
        -8.72211362938442
      ],
      [
        "yapmak",
        -8.722276038739732
      ],
      [
        "altı",
        -8.7230246274773
      ],
      [
        "aşk",
        -8.731597863920944
      ],
      [
        "tım",
        -8.73203345766293
      ],
      [
        "işte",
        -8.735711045410095
      ],
      [
        "anda",
        -8.73590690358771
      ],
      [
        "önünde",
        -8.736656179654336
      ],
      [
        "halinde",
        -8.737193471887016
      ],
      [
        "bulun",
        -8.737290233154019
      ],
      [
        "lerce",
        -8.738460075157384
      ],
      [
        "inan",
        -8.738941638419886
      ],
      [
        "Ma",
        -8.742654854081987
      ],
      [
        "istedi",
        -8.743966390218176
      ],
      [
        "lük",
        -8.744215023183013
      ],
      [
        "yabancı",
        -8.74508533890962
      ],
      [
        "yapma",
        -8.74676267968262
      ],
      [
        "kaldı",
        -8.748898347830849
      ],
      [
        "İsrail",
        -8.749500597917532
      ],
      [
        "hizmet",
        -8.749503393032152
      ],
      [
        "kırmızı",
        -8.749575130090358
      ],
      [
        "Su",
        -8.74998415362311
      ],
      [
        "Tabi",
        -8.750104824276068
      ],
      [
        "Musta",
        -8.750111267592716
      ],
      [
        "sağlık",
        -8.750409644850386
      ],
      [
        "sordu",
        -8.75211646723544
      ],
      [
        "bölge",
        -8.752580517662963
      ],
      [
        "iyet",
        -8.752730270035064
      ],
      [
        "top",
        -8.753848517962878
      ],
      [
        "Bel",
        -8.75571616181999
      ],
      [
        "dür",
        -8.756025763917371
      ],
      [
        "Eğ",
        -8.756208751772267
      ],
      [
        "Da",
        -8.757263605021315
      ],
      [
        "yaz",
        -8.757317797281132
      ],
      [
        "sar",
        -8.757614778152664
      ],
      [
        "bunları",
        -8.758564707322101
      ],
      [
        "gereken",
        -8.759372666466582
      ],
      [
        "lığını",
        -8.759393854532911
      ],
      [
        "yana",
        -8.759654748882344
      ],
      [
        "kim",
        -8.75969776471922
      ],
      [
        "İyi",
        -8.76071617282183
      ],
      [
        "verir",
        -8.762375069940378
      ],
      [
        "Bunlar",
        -8.767774674479831
      ],
      [
        "üm",
        -8.773091486721452
      ],
      [
        "suyu",
        -8.77646045735603
      ],
      [
        "dönemin",
        -8.777200018859116
      ],
      [
        "yrıca",
        -8.777570860620957
      ],
      [
        "Ev",
        -8.777697046093888
      ],
      [
        "yaşam",
        -8.778159145020073
      ],
      [
        "işi",
        -8.77862236738574
      ],
      [
        "meye",
        -8.77878350787049
      ],
      [
        "yaşama",
        -8.77889245678546
      ],
      [
        "doğan",
        -8.779632541298142
      ],
      [
        "haber",
        -8.780311609041727
      ],
      [
        "iyordu",
        -8.781363829050964
      ],
      [
        "hal",
        -8.78485558178421
      ],
      [
        "ettiği",
        -8.785565219682772
      ],
      [
        "aklı",
        -8.786320248366195
      ],
      [
        "hoş",
        -8.78724911421434
      ],
      [
        "alıp",
        -8.787337651387638
      ],
      [
        "diyor",
        -8.78799701615742
      ],
      [
        "eyin",
        -8.788082373984029
      ],
      [
        "lıyor",
        -8.789457499167135
      ],
      [
        "içer",
        -8.790400963846604
      ],
      [
        "gördü",
        -8.791029349208536
      ],
      [
        "Hazırla",
        -8.791167538006835
      ],
      [
        "saygı",
        -8.791172478076692
      ],
      [
        "tekrar",
        -8.791403623149336
      ],
      [
        "Demir",
        -8.79143021411161
      ],
      [
        "resim",
        -8.79178747024504
      ],
      [
        "Za",
        -8.79286778841653
      ],
      [
        "do",
        -8.793051763867282
      ],
      [
        "ez",
        -8.793610052204308
      ],
      [
        "yap",
        -8.79648054473198
      ],
      [
        "kendisi",
        -8.796825090122747
      ],
      [
        "Yan",
        -8.797622625089627
      ],
      [
        "kısa",
        -8.79800726867259
      ],
      [
        "başta",
        -8.799115789101723
      ],
      [
        "araba",
        -8.799268639926975
      ],
      [
        "onların",
        -8.8002485035381
      ],
      [
        "ğin",
        -8.800961033408349
      ],
      [
        "güçlü",
        -8.803010893293806
      ],
      [
        "uzak",
        -8.803426124820382
      ],
      [
        "açı",
        -8.804403352600316
      ],
      [
        "ulaş",
        -8.804764977672003
      ],
      [
        "belli",
        -8.80711055577919
      ],
      [
        "veren",
        -8.809620264248625
      ],
      [
        "uyu",
        -8.80984130498176
      ],
      [
        "196",
        -8.810470710010575
      ],
      [
        "başarı",
        -8.813195798985134
      ],
      [
        "bey",
        -8.815818743511109
      ],
      [
        "Bak",
        -8.815912788662931
      ],
      [
        "raya",
        -8.82045803873276
      ],
      [
        "sorun",
        -8.820943073019626
      ],
      [
        "Gün",
        -8.821956287878601
      ],
      [
        "olay",
        -8.822978869925482
      ],
      [
        "ot",
        -8.82855286948951
      ],
      [
        "taki",
        -8.830426018675185
      ],
      [
        "Sen",
        -8.830538754062063
      ],
      [
        "kon",
        -8.830857515721814
      ],
      [
        "temel",
        -8.831566209437629
      ],
      [
        "ekonomi",
        -8.832007426083752
      ],
      [
        "nışı",
        -8.833030362723225
      ],
      [
        "kötü",
        -8.833177499738245
      ],
      [
        "kullan",
        -8.833568952606559
      ],
      [
        "özellikle",
        -8.833861142539448
      ],
      [
        "Kemal",
        -8.834300153195022
      ],
      [
        "yaş",
        -8.834330765030014
      ],
      [
        "çorba",
        -8.834652205407806
      ],
      [
        "iddia",
        -8.834675955747194
      ],
      [
        "ör",
        -8.83509423605619
      ],
      [
        "Oysa",
        -8.835156479935145
      ],
      [
        "nedeniyle",
        -8.83570388197942
      ],
      [
        "bilim",
        -8.836082607023947
      ],
      [
        "inden",
        -8.836420843345586
      ],
      [
        "çoğu",
        -8.836508765224465
      ],
      [
        "Orta",
        -8.836640648761
      ],
      [
        "nün",
        -8.838790403371998
      ],
      [
        "çalışan",
        -8.83948034992169
      ],
      [
        "mektedir",
        -8.840619747808207
      ],
      [
        "yazar",
        -8.840746287788038
      ],
      [
        "baz",
        -8.842039467140312
      ],
      [
        "kuş",
        -8.842694558021332
      ],
      [
        "sağ",
        -8.845667695629903
      ],
      [
        "oyna",
        -8.846113409508952
      ],
      [
        "AK",
        -8.846462262726897
      ],
      [
        "Annem",
        -8.846735320857277
      ],
      [
        "Amerikan",
        -8.846766095066236
      ],
      [
        "ge",
        -8.848042025743052
      ],
      [
        "açıklama",
        -8.848451952483822
      ],
      [
        "sürü",
        -8.848800417809862
      ],
      [
        "hedef",
        -8.85160614812649
      ],
      [
        "oluş",
        -8.853051970140285
      ],
      [
        "parça",
        -8.855480840463196
      ],
      [
        "zamanlar",
        -8.85577006119753
      ],
      [
        "rahat",
        -8.856673807709756
      ],
      [
        "199",
        -8.858129454418266
      ],
      [
        "nüz",
        -8.858822219204034
      ],
      [
        "kış",
        -8.85907504315372
      ],
      [
        "ğa",
        -8.861320649418033
      ],
      [
        "!..",
        -8.862428177779385
      ],
      [
        "lidir",
        -8.863502263934837
      ],
      [
        "gir",
        -8.863946493637537
      ],
      [
        "kitap",
        -8.865755680465728
      ],
      [
        "cak",
        -8.865993756720332
      ],
      [
        "hâl",
        -8.866972528025823
      ],
      [
        "dağ",
        -8.867118168835926
      ],
      [
        "aldığı",
        -8.867133567227441
      ],
      [
        "yıllar",
        -8.867413967151345
      ],
      [
        "fı",
        -8.867880640879585
      ],
      [
        "50",
        -8.871385515176225
      ],
      [
        "çevre",
        -8.871760765778044
      ],
      [
        "derece",
        -8.874055807023836
      ],
      [
        "yağ",
        -8.87527156601423
      ],
      [
        "aslı",
        -8.877868535412958
      ],
      [
        "yolu",
        -8.877928395821094
      ],
      [
        "seri",
        -8.878334216778823
      ],
      [
        "tel",
        -8.878416019698317
      ],
      [
        "cümle",
        -8.880129264474103
      ],
      [
        "gizli",
        -8.880155813297042
      ],
      [
        "to",
        -8.882300838368947
      ],
      [
        "halin",
        -8.883371632458697
      ],
      [
        "almak",
        -8.883824175794057
      ],
      [
        "yım",
        -8.883913924380295
      ],
      [
        "dönü",
        -8.885484441265074
      ],
      [
        "başlaya",
        -8.887340316074592
      ],
      [
        "st",
        -8.88761955361103
      ],
      [
        "çün",
        -8.887669629989816
      ],
      [
        "arkadaş",
        -8.890893408193373
      ],
      [
        "masa",
        -8.891039771649826
      ],
      [
        "düğü",
        -8.892518683335116
      ],
      [
        "düşün",
        -8.893687097702383
      ],
      [
        "uf",
        -8.893703598671626
      ],
      [
        "Ni",
        -8.893939402379798
      ],
      [
        "zi",
        -8.894222275674451
      ],
      [
        "sonuç",
        -8.895175927872794
      ],
      [
        "gr",
        -8.895490273278522
      ],
      [
        "yapacak",
        -8.89616001162001
      ],
      [
        "met",
        -8.896850056172768
      ],
      [
        "içeri",
        -8.900992717047437
      ],
      [
        "beraber",
        -8.90120230224964
      ],
      [
        "ateş",
        -8.902831405009415
      ],
      [
        "öz",
        -8.90500180573363
      ],
      [
        "imi",
        -8.905875075442971
      ],
      [
        "hasta",
        -8.910892042306203
      ],
      [
        "okuma",
        -8.910892447928376
      ],
      [
        "ul",
        -8.911652812798831
      ],
      [
        "eli",
        -8.91292736516026
      ],
      [
        "üz",
        -8.913149672821419
      ],
      [
        "kol",
        -8.913818427924047
      ],
      [
        "sam",
        -8.914846469697194
      ],
      [
        "kadınlar",
        -8.916994782605004
      ],
      [
        "tekne",
        -8.91708774528895
      ],
      [
        "tabi",
        -8.917665780143611
      ],
      [
        "so",
        -8.918094923823034
      ],
      [
        "öğrenci",
        -8.9187856656812
      ],
      [
        "ortak",
        -8.919611696062077
      ],
      [
        "çalış",
        -8.922783560092236
      ],
      [
        "erken",
        -8.923996302064534
      ],
      [
        "gerektiğin",
        -8.924069503585756
      ],
      [
        "güven",
        -8.92604095851358
      ],
      [
        "/",
        -8.927719054880216
      ],
      [
        "Doğu",
        -8.92794358082168
      ],
      [
        "yanlış",
        -8.927953297476996
      ],
      [
        "Mer",
        -8.928097139314175
      ],
      [
        "servis",
        -8.92811132585977
      ],
      [
        "şeklinde",
        -8.928225829077117
      ],
      [
        "olmalı",
        -8.928639605961926
      ],
      [
        "hızla",
        -8.928969174855082
      ],
      [
        "sizi",
        -8.930270120547975
      ],
      [
        "merak",
        -8.93340862285267
      ],
      [
        "teki",
        -8.933685409081129
      ],
      [
        "neler",
        -8.934150678619734
      ],
      [
        "ayesinde",
        -8.934530702205958
      ],
      [
        "biliyor",
        -8.935689429694397
      ],
      [
        "bırak",
        -8.938358141139823
      ],
      [
        "ğe",
        -8.938396063347065
      ],
      [
        "ileri",
        -8.939308095017118
      ],
      [
        "görün",
        -8.939595792413725
      ],
      [
        "geldiği",
        -8.9402651250177
      ],
      [
        "çık",
        -8.94039518488826
      ],
      [
        "ağrı",
        -8.940403498584661
      ],
      [
        "yapıyor",
        -8.941603767037758
      ],
      [
        "müş",
        -8.94226316707927
      ],
      [
        "leşme",
        -8.943716090151321
      ],
      [
        "Bo",
        -8.944635449317023
      ],
      [
        "okul",
        -8.945625312190195
      ],
      [
        "sene",
        -8.946543381120355
      ],
      [
        "öykü",
        -8.948323740520708
      ],
      [
        "miyor",
        -8.948754859732606
      ],
      [
        "zamanda",
        -8.949404532831483
      ],
      [
        "alır",
        -8.94947241344229
      ],
      [
        "insanın",
        -8.95089186229529
      ],
      [
        "os",
        -8.950989631993197
      ],
      [
        "söyle",
        -8.952273246292075
      ],
      [
        "mızı",
        -8.952369193748664
      ],
      [
        "telefon",
        -8.952464850659966
      ],
      [
        "görev",
        -8.953844326488161
      ],
      [
        "dış",
        -8.95492135272665
      ],
      [
        "nü",
        -8.955841122677695
      ],
      [
        "sayı",
        -8.957569045709427
      ],
      [
        "25",
        -8.95939726382424
      ],
      [
        "başlar",
        -8.960233155388924
      ],
      [
        "değildi",
        -8.960358763862853
      ],
      [
        "sanız",
        -8.962594922375517
      ],
      [
        "up",
        -8.963616985901234
      ],
      [
        "sıcak",
        -8.966122090664912
      ],
      [
        "yara",
        -8.967880436150237
      ],
      [
        "mızda",
        -8.968131217963572
      ],
      [
        "lama",
        -8.968717602464709
      ],
      [
        "şarkı",
        -8.969158016639676
      ],
      [
        "ış",
        -8.969931285269869
      ],
      [
        "olursa",
        -8.971357023969023
      ],
      [
        "lerim",
        -8.972099491074784
      ],
      [
        "manın",
        -8.973149819422861
      ],
      [
        "kur",
        -8.973279024004698
      ],
      [
        "yim",
        -8.974835995235567
      ],
      [
        "adını",
        -8.976031259831487
      ],
      [
        "İngil",
        -8.976854847312307
      ],
      [
        "alzemeler",
        -8.977230290936937
      ],
      [
        "yeşil",
        -8.97752991031584
      ],
      [
        "zengin",
        -8.977627001137936
      ],
      [
        "ziyaret",
        -8.977721600875649
      ],
      [
        "çift",
        -8.977766937802846
      ],
      [
        "meydan",
        -8.977768252446017
      ],
      [
        "Şimdi",
        -8.977776382800888
      ],
      [
        "ylül",
        -8.97786574046949
      ],
      [
        "pişiri",
        -8.978116585132954
      ],
      [
        "Önce",
        -8.97825271957007
      ],
      [
        "klerini",
        -8.979193666300699
      ],
      [
        "seçim",
        -8.979443635717317
      ],
      [
        "Almanya",
        -8.981303825506647
      ],
      [
        "gerekir",
        -8.98172366997585
      ],
      [
        "üye",
        -8.982117647954684
      ],
      [
        "mıyor",
        -8.98274435778024
      ],
      [
        "konuda",
        -8.982818435748143
      ],
      [
        "çocuklar",
        -8.983110644982842
      ],
      [
        "olmaz",
        -8.98808212874362
      ],
      [
        "kçe",
        -8.990452668041154
      ],
      [
        "edi",
        -8.991123246376945
      ],
      [
        "hali",
        -8.99129306636645
      ],
      [
        "yardım",
        -8.991990029226152
      ],
      [
        "üstü",
        -8.991990735868692
      ],
      [
        "edere",
        -8.992317439042166
      ],
      [
        "politika",
        -8.993477302847127
      ],
      [
        "çay",
        -8.993863740242803
      ],
      [
        "içi",
        -8.995233190712488
      ],
      [
        "eşi",
        -8.996313998027087
      ],
      [
        "ıza",
        -8.996707138961856
      ],
      [
        "çağ",
        -8.997305878994723
      ],
      [
        "yaşadığı",
        -8.998042916350228
      ],
      [
        "ıştır",
        -8.99900059924358
      ],
      [
        "yöneli",
        -8.999696514007129
      ],
      [
        "Hem",
        -9.00045616325831
      ],
      [
        "benzer",
        -9.000561171953567
      ],
      [
        "seniz",
        -9.000970439409242
      ],
      [
        "hale",
        -9.001422708333303
      ],
      [
        "bilmek",
        -9.001445452730797
      ],
      [
        "ova",
        -9.002555404487204
      ],
      [
        "mda",
        -9.006976878465023
      ],
      [
        "dum",
        -9.007814535566608
      ],
      [
        "önem",
        -9.008165233606396
      ],
      [
        "Devlet",
        -9.008536720536995
      ],
      [
        "nedenle",
        -9.011628776022022
      ],
      [
        "üstünde",
        -9.012052930043872
      ],
      [
        "ımız",
        -9.012791816358863
      ],
      [
        "hazır",
        -9.012877498610035
      ],
      [
        "İnsan",
        -9.01662018087055
      ],
      [
        "içerisin",
        -9.017064152781408
      ],
      [
        "ünlü",
        -9.01873556357636
      ],
      [
        "gidi",
        -9.019082470131963
      ],
      [
        "sırasın",
        -9.020698206851971
      ],
      [
        "söylen",
        -9.020851870387872
      ],
      [
        "plan",
        -9.022763697477536
      ],
      [
        "zorunda",
        -9.023194793259892
      ],
      [
        "açma",
        -9.024601673773896
      ],
      [
        "ölüm",
        -9.025681834730905
      ],
      [
        "soy",
        -9.025988411317172
      ],
      [
        "korku",
        -9.026192232311587
      ],
      [
        "görme",
        -9.026607788259644
      ],
      [
        "düz",
        -9.029393035232488
      ],
      [
        "İngiliz",
        -9.030048297618329
      ],
      [
        "beri",
        -9.030306621953683
      ],
      [
        "Üniversite",
        -9.030350634358427
      ],
      [
        "tercih",
        -9.030352177132892
      ],
      [
        "soğuk",
        -9.030354630509677
      ],
      [
        "resmi",
        -9.030398928346859
      ],
      [
        "tatlı",
        -9.030507618820545
      ],
      [
        "verilen",
        -9.030769996406903
      ],
      [
        "doğal",
        -9.031126491409434
      ],
      [
        "geliyor",
        -9.031552329287727
      ],
      [
        "miştir",
        -9.031889696940432
      ],
      [
        "Güneş",
        -9.032607047392016
      ],
      [
        "dık",
        -9.03410462261819
      ],
      [
        "yeri",
        -9.034696998022916
      ],
      [
        "karıştırı",
        -9.034781410038464
      ],
      [
        "idi",
        -9.034904171155524
      ],
      [
        "18",
        -9.035822461151264
      ],
      [
        "veri",
        -9.036026025033564
      ],
      [
        "kriz",
        -9.036615906540797
      ],
      [
        "makta",
        -9.038034522073616
      ],
      [
        "ban",
        -9.038709222541247
      ],
      [
        "olmayan",
        -9.038736386250363
      ],
      [
        "rım",
        -9.038881802386989
      ],
      [
        "doğu",
        -9.0405137320064
      ],
      [
        "olmadığını",
        -9.04234347930203
      ],
      [
        "ınız",
        -9.042772277345339
      ],
      [
        "şart",
        -9.045145304540945
      ],
      [
        "kültür",
        -9.045674813216692
      ],
      [
        "çıkı",
        -9.045733122041128
      ],
      [
        "cılar",
        -9.046423033320009
      ],
      [
        "göster",
        -9.048725477487613
      ],
      [
        "van",
        -9.05029053676375
      ],
      [
        "j",
        -9.05037876809429
      ],
      [
        "iste",
        -9.051303605088
      ],
      [
        "durumda",
        -9.051399309544989
      ],
      [
        "attı",
        -9.051524579444404
      ],
      [
        "Le",
        -9.051966148061716
      ],
      [
        "ılır",
        -9.053837124135335
      ],
      [
        "mizi",
        -9.057283589030966
      ],
      [
        "eri",
        -9.057494460335365
      ],
      [
        "Kara",
        -9.059154311799194
      ],
      [
        "La",
        -9.060117007131588
      ],
      [
        "gerçekte",
        -9.060202829293294
      ],
      [
        "ucu",
        -9.060988930239153
      ],
      [
        "nokta",
        -9.062377019371077
      ],
      [
        "ilav",
        -9.063557876677962
      ],
      [
        "kalan",
        -9.066289913191346
      ],
      [
        "gide",
        -9.067115580285204
      ],
      [
        "durumu",
        -9.067983864243942
      ],
      [
        "altın",
        -9.068739976421794
      ],
      [
        "hükümet",
        -9.070057208191713
      ],
      [
        "San",
        -9.070975095766574
      ],
      [
        "yerinde",
        -9.071440756571356
      ],
      [
        "kes",
        -9.071477716441718
      ],
      [
        "defa",
        -9.073764353935042
      ],
      [
        "dışarı",
        -9.077785317000298
      ],
      [
        "sistemi",
        -9.080057407444112
      ],
      [
        "Kay",
        -9.082818178064464
      ],
      [
        "müzik",
        -9.083410278931947
      ],
      [
        "EN",
        -9.084521949835645
      ],
      [
        "dar",
        -9.085541964504102
      ],
      [
        "şiddet",
        -9.085906587689008
      ],
      [
        "Fenerbahçe",
        -9.085916460997293
      ],
      [
        "Hanım",
        -9.086028918712413
      ],
      [
        "Aslın",
        -9.086212924829642
      ],
      [
        "sorumlu",
        -9.086271207951032
      ],
      [
        "Milli",
        -9.086633224583
      ],
      [
        "Osmanlı",
        -9.086665652294894
      ],
      [
        "Kurulu",
        -9.08672148227208
      ],
      [
        "lerimiz",
        -9.086811035558732
      ],
      [
        "yüzünde",
        -9.087723737794743
      ],
      [
        "araya",
        -9.08858417804473
      ],
      [
        "TL",
        -9.088828118173272
      ],
      [
        "kutu",
        -9.089676379563539
      ],
      [
        "sarı",
        -9.089830706712165
      ],
      [
        "gören",
        -9.089910796361986
      ],
      [
        "temiz",
        -9.090323231800095
      ],
      [
        "mavi",
        -9.090487261139753
      ],
      [
        "asla",
        -9.091190089173248
      ],
      [
        "güneş",
        -9.091979643287432
      ],
      [
        "saldırı",
        -9.092042686035592
      ],
      [
        "sinema",
        -9.092911552023455
      ],
      [
        "ilan",
        -9.093390448393587
      ],
      [
        "bahçe",
        -9.094669728007363
      ],
      [
        "üstün",
        -9.097444404964582
      ],
      [
        "klarını",
        -9.099023765676026
      ],
      [
        "öne",
        -9.100474179988328
      ],
      [
        "bar",
        -9.100482713464126
      ],
      [
        "uygulama",
        -9.103659438953574
      ],
      [
        "etmeye",
        -9.104604786904599
      ],
      [
        "ışık",
        -9.108445441189849
      ],
      [
        "tutu",
        -9.10882049156213
      ],
      [
        "önü",
        -9.109544734971177
      ],
      [
        "girme",
        -9.111062843531254
      ],
      [
        "toplantı",
        -9.112470987166265
      ],
      [
        "giden",
        -9.11277786910154
      ],
      [
        "W",
        -9.112875463147784
      ],
      [
        "nerede",
        -9.115305047758849
      ],
      [
        "kaya",
        -9.115492829939344
      ],
      [
        "gelmiş",
        -9.116360104583388
      ],
      [
        "go",
        -9.117328965619453
      ],
      [
        "As",
        -9.117818473224176
      ],
      [
        "lıkla",
        -9.118314278394958
      ],
      [
        "düş",
        -9.119658218282414
      ],
      [
        "alma",
        -9.120884488501087
      ],
      [
        "görü",
        -9.12149997693962
      ],
      [
        "Eve",
        -9.122356145741813
      ],
      [
        "hayatın",
        -9.122632745444953
      ],
      [
        "Bay",
        -9.12320811157601
      ],
      [
        "nce",
        -9.124907016212452
      ],
      [
        "Amerika",
        -9.125765210748453
      ],
      [
        "abı",
        -9.125813014476705
      ],
      [
        "baba",
        -9.12631720857405
      ],
      [
        "Par",
        -9.127968446574203
      ],
      [
        "gan",
        -9.128403952272928
      ],
      [
        "kayd",
        -9.128714300099722
      ],
      [
        "ruh",
        -9.130115352054876
      ],
      [
        "gücü",
        -9.132366729961042
      ],
      [
        "iri",
        -9.132816722015603
      ],
      [
        "af",
        -9.133024835529088
      ],
      [
        "izm",
        -9.13348361729905
      ],
      [
        "Kar",
        -9.135634637581195
      ],
      [
        "Hat",
        -9.139448823526804
      ],
      [
        "Ku",
        -9.139489544332532
      ],
      [
        "gen",
        -9.14057197654718
      ],
      [
        "Bizim",
        -9.143442929650819
      ],
      [
        "Kıbrıs",
        -9.144729718811842
      ],
      [
        "Yalnız",
        -9.144735638779778
      ],
      [
        "işaret",
        -9.144762676715846
      ],
      [
        "Fransız",
        -9.144894247471166
      ],
      [
        "hayal",
        -9.145270891227923
      ],
      [
        "Sabah",
        -9.145274620030557
      ],
      [
        "kızı",
        -9.145470309415966
      ],
      [
        "Orada",
        -9.145536811342238
      ],
      [
        "kitabı",
        -9.145965070120994
      ],
      [
        "Hüs",
        -9.146201322861257
      ],
      [
        "Özel",
        -9.146435005448094
      ],
      [
        "lerdi",
        -9.146604022942313
      ],
      [
        "fer",
        -9.14686941563599
      ],
      [
        "biber",
        -9.147412817382632
      ],
      [
        "Adam",
        -9.149264168791543
      ],
      [
        "heyecan",
        -9.149759211153388
      ],
      [
        "ağı",
        -9.149848110069769
      ],
      [
        "takımı",
        -9.150546731815089
      ],
      [
        "kişilik",
        -9.151719127862927
      ],
      [
        "sinir",
        -9.152873345840888
      ],
      [
        "Cem",
        -9.153146694772154
      ],
      [
        "ölü",
        -9.153889972163007
      ],
      [
        "ser",
        -9.154240751628684
      ],
      [
        "nize",
        -9.154311999920088
      ],
      [
        "anlattı",
        -9.154716387844555
      ],
      [
        "malı",
        -9.15477291882653
      ],
      [
        "RT",
        -9.156312784815933
      ],
      [
        "Ahme",
        -9.156662903297343
      ],
      [
        "lığa",
        -9.156864611241463
      ],
      [
        "evde",
        -9.15721530669027
      ],
      [
        "Buna",
        -9.158678977842207
      ],
      [
        "çıkma",
        -9.159095201282184
      ],
      [
        "gol",
        -9.159105481555509
      ],
      [
        "kendisini",
        -9.159159305820612
      ],
      [
        "dışı",
        -9.159866454961726
      ],
      [
        "asker",
        -9.161015225248057
      ],
      [
        "taş",
        -9.161584996608244
      ],
      [
        "kitle",
        -9.161837810741263
      ],
      [
        "maçın",
        -9.16396441472532
      ],
      [
        "kâ",
        -9.1651425933479
      ],
      [
        "geçme",
        -9.165708314865348
      ],
      [
        "yapar",
        -9.165866048738884
      ],
      [
        "lim",
        -9.167327416067945
      ],
      [
        "öğren",
        -9.168143878289655
      ],
      [
        "eser",
        -9.168340035473028
      ],
      [
        "ılmış",
        -9.169201560829956
      ],
      [
        "sözü",
        -9.169577746676081
      ],
      [
        "kalı",
        -9.170070883679939
      ],
      [
        "id",
        -9.170919761002217
      ],
      [
        "luğunu",
        -9.174727181008357
      ],
      [
        "kardeş",
        -9.1747424705271
      ],
      [
        "Do",
        -9.174762106067902
      ],
      [
        "hakkı",
        -9.176683106560382
      ],
      [
        "kişiler",
        -9.177238735226771
      ],
      [
        "mayı",
        -9.177551945195841
      ],
      [
        "ulus",
        -9.178882643355841
      ],
      [
        "önün",
        -9.179199013399726
      ],
      [
        "derin",
        -9.18006272996874
      ],
      [
        "cik",
        -9.18037265422779
      ],
      [
        "inci",
        -9.180420970933245
      ],
      [
        "açıkladı",
        -9.182531312838337
      ],
      [
        "senin",
        -9.18367674800025
      ],
      [
        "sahne",
        -9.183924553351716
      ],
      [
        "ister",
        -9.1842583387117
      ],
      [
        "Baş",
        -9.184833000685703
      ],
      [
        "ayı",
        -9.185331935872366
      ],
      [
        "sıyla",
        -9.185830184715313
      ],
      [
        "Yıllar",
        -9.1865502713737
      ],
      [
        "koy",
        -9.186561633386699
      ],
      [
        "ardı",
        -9.18709957934303
      ],
      [
        "olmadı",
        -9.188042006273857
      ],
      [
        "gözleri",
        -9.188633995275618
      ],
      [
        "etki",
        -9.18880143470164
      ],
      [
        "geli",
        -9.189111462866075
      ],
      [
        "par",
        -9.19038053150416
      ],
      [
        "sıkı",
        -9.191257159191593
      ],
      [
        "kullanıla",
        -9.191281624198183
      ],
      [
        "alıyor",
        -9.192191458236016
      ],
      [
        "ren",
        -9.192451538423004
      ],
      [
        "gelmişti",
        -9.192521176005597
      ],
      [
        "bank",
        -9.192650814370289
      ],
      [
        "insanları",
        -9.19314889817141
      ],
      [
        "oyuncu",
        -9.193576234268512
      ],
      [
        "kalma",
        -9.19493468194277
      ],
      [
        "taşın",
        -9.195042415071665
      ],
      [
        "diğim",
        -9.195055540081254
      ],
      [
        "tane",
        -9.195301998609107
      ],
      [
        "birbirin",
        -9.195317030592753
      ],
      [
        "dost",
        -9.19537874219321
      ],
      [
        "geniş",
        -9.198104629399674
      ],
      [
        "net",
        -9.199328569639377
      ],
      [
        "yıllarda",
        -9.200022797981363
      ],
      [
        "dolar",
        -9.20099726328271
      ],
      [
        "11",
        -9.202856364579267
      ],
      [
        "roman",
        -9.20297593056629
      ],
      [
        "liğin",
        -9.20353812827865
      ],
      [
        "ordu",
        -9.204733798022044
      ],
      [
        "aktar",
        -9.204967059183506
      ],
      [
        "fil",
        -9.205978775579814
      ],
      [
        "getir",
        -9.206214607007178
      ],
      [
        "Mar",
        -9.206968240314339
      ],
      [
        "hesap",
        -9.207167057957344
      ],
      [
        "Küçük",
        -9.207229812344329
      ],
      [
        "mücadele",
        -9.207229814275507
      ],
      [
        "Sultan",
        -9.207233270852278
      ],
      [
        "kontrol",
        -9.20725022928109
      ],
      [
        "imza",
        -9.207387476788927
      ],
      [
        "istediği",
        -9.207438996705218
      ],
      [
        "tepki",
        -9.20755560664894
      ],
      [
        "Ulus",
        -9.207718502738993
      ],
      [
        "Tanrı",
        -9.207771965869817
      ],
      [
        "op",
        -9.208275182374427
      ],
      [
        "Dış",
        -9.208600198216654
      ],
      [
        "güvenlik",
        -9.208755009778912
      ],
      [
        "Deniz",
        -9.208836056113828
      ],
      [
        "Bil",
        -9.208873541933649
      ],
      [
        "günleri",
        -9.20923416997425
      ],
      [
        "Sanat",
        -9.209371390240628
      ],
      [
        "enerji",
        -9.209659656550011
      ],
      [
        "sak",
        -9.210167709657622
      ],
      [
        "puan",
        -9.210189977361237
      ],
      [
        "yön",
        -9.21028990281403
      ],
      [
        "yardımcı",
        -9.21073815577536
      ],
      [
        "Öyle",
        -9.210976838280699
      ],
      [
        "yedi",
        -9.211005810304773
      ],
      [
        "akıl",
        -9.21127727562774
      ],
      [
        "yürü",
        -9.211670907364908
      ],
      [
        "öteki",
        -9.212155968705378
      ],
      [
        "gösteren",
        -9.213226680676595
      ],
      [
        "yönetim",
        -9.213397156153125
      ],
      [
        "ham",
        -9.216632143899545
      ],
      [
        "biçimde",
        -9.217234382424866
      ],
      [
        "Re",
        -9.217674893426077
      ],
      [
        "babam",
        -9.21831297124423
      ],
      [
        "kalp",
        -9.220862543252217
      ],
      [
        "topla",
        -9.220910411484615
      ],
      [
        "duvar",
        -9.22101307868493
      ],
      [
        "Sarı",
        -9.22155859966761
      ],
      [
        "ici",
        -9.22201422010372
      ],
      [
        "oluştur",
        -9.22228157411464
      ],
      [
        "Ara",
        -9.222937987230647
      ],
      [
        "sohbet",
        -9.223786433357704
      ],
      [
        "tarihi",
        -9.22380169436065
      ],
      [
        "babası",
        -9.224611923446616
      ],
      [
        "yılın",
        -9.225525645688021
      ],
      [
        "16",
        -9.226183580216354
      ],
      [
        "kaldır",
        -9.228175105046414
      ],
      [
        "sh",
        -9.228299255287338
      ],
      [
        "arkasında",
        -9.232637796281889
      ],
      [
        "acağını",
        -9.233060602917623
      ],
      [
        "bakan",
        -9.234485265448198
      ],
      [
        "çekil",
        -9.23872156533298
      ],
      [
        "fotoğraf",
        -9.239081075754335
      ],
      [
        "önceki",
        -9.239291295629046
      ],
      [
        "ndaki",
        -9.24171936853547
      ],
      [
        "sorunu",
        -9.241981934469553
      ],
      [
        "dahi",
        -9.242920004885423
      ],
      [
        "Mü",
        -9.243224688438177
      ],
      [
        "Çin",
        -9.244630953274248
      ],
      [
        "ırım",
        -9.245069000507804
      ],
      [
        "Baba",
        -9.245286350726984
      ],
      [
        "değiştir",
        -9.246091490002316
      ],
      [
        "başı",
        -9.247969288667283
      ],
      [
        "malıdır",
        -9.248632766760931
      ],
      [
        "yılı",
        -9.250021239916277
      ],
      [
        "sevi",
        -9.25022635810494
      ],
      [
        "sem",
        -9.250894205448418
      ],
      [
        "bulma",
        -9.251103608154406
      ],
      [
        "bul",
        -9.252373273830381
      ],
      [
        "annesi",
        -9.253030371439946
      ],
      [
        "Di",
        -9.253031562605797
      ],
      [
        "götür",
        -9.253100730067137
      ],
      [
        "anlatı",
        -9.253254631464666
      ],
      [
        "anlama",
        -9.253974197642181
      ],
      [
        "koca",
        -9.25762698896058
      ],
      [
        "getirdi",
        -9.259495126450734
      ],
      [
        "cinsel",
        -9.259943250752057
      ],
      [
        "198",
        -9.263373522223933
      ],
      [
        "arkadaşı",
        -9.263990891966381
      ],
      [
        "etmiş",
        -9.264082905476052
      ],
      [
        "yapın",
        -9.264988840009938
      ],
      [
        "sek",
        -9.26526837931345
      ],
      [
        "oluşu",
        -9.266555620686907
      ],
      [
        "DA",
        -9.267605190244248
      ],
      [
        "söylüyor",
        -9.268023720089747
      ],
      [
        "gerekiyor",
        -9.269266795208956
      ],
      [
        "bakım",
        -9.270420488425579
      ],
      [
        "demiş",
        -9.272935192821429
      ],
      [
        "vatandaş",
        -9.273108867695916
      ],
      [
        "hafif",
        -9.273897950633906
      ],
      [
        "soğan",
        -9.273903386927515
      ],
      [
        "piyasa",
        -9.273933606076568
      ],
      [
        "ceza",
        -9.274080040591485
      ],
      [
        "çalışıyor",
        -9.274119963446989
      ],
      [
        "karabiber",
        -9.27415180146359
      ],
      [
        "çekti",
        -9.274326407952906
      ],
      [
        "yüzü",
        -9.27432936195489
      ],
      [
        "Merkez",
        -9.274492999360302
      ],
      [
        "olmuyor",
        -9.274622083664049
      ],
      [
        "Parti",
        -9.274883584808803
      ],
      [
        "Burada",
        -9.274928225509779
      ],
      [
        "Top",
        -9.275836462445398
      ],
      [
        "ilaç",
        -9.276357669463284
      ],
      [
        "Tur",
        -9.276522736036151
      ],
      [
        "Üç",
        -9.276540949732269
      ],
      [
        "ımı",
        -9.277404778203763
      ],
      [
        "saray",
        -9.277518074209203
      ],
      [
        "yaşlı",
        -9.277688026940233
      ],
      [
        "mal",
        -9.278979355552234
      ],
      [
        "grubu",
        -9.279153686780255
      ],
      [
        "baktı",
        -9.280529637845786
      ],
      [
        "süt",
        -9.280946781960285
      ],
      [
        "işe",
        -9.280995809885543
      ],
      [
        "yazdı",
        -9.281239245423262
      ],
      [
        "renkli",
        -9.282527736144882
      ],
      [
        "bulunuyor",
        -9.282992457881518
      ],
      [
        "dolayı",
        -9.284429265200643
      ],
      [
        "ısı",
        -9.284656156994018
      ],
      [
        "kazan",
        -9.28501094064471
      ],
      [
        "yanıt",
        -9.285804768843791
      ],
      [
        "engel",
        -9.285821113001859
      ],
      [
        "ilişkin",
        -9.286126146978155
      ],
      [
        "Savaşı",
        -9.286602293738238
      ],
      [
        "mizde",
        -9.287153033176677
      ],
      [
        "üste",
        -9.287959863148323
      ],
      [
        "açtı",
        -9.288525232082065
      ],
      [
        "gaz",
        -9.288998749444428
      ],
      [
        "sonrası",
        -9.289483261422685
      ],
      [
        "sevin",
        -9.289532669173116
      ],
      [
        "bağla",
        -9.290242456955326
      ],
      [
        "örnek",
        -9.291132081893798
      ],
      [
        "Kız",
        -9.292700275253457
      ],
      [
        "biliyoru",
        -9.29344042877958
      ],
      [
        "ber",
        -9.293598398633923
      ],
      [
        "ele",
        -9.295095563220901
      ],
      [
        "gençlik",
        -9.295180004510756
      ],
      [
        "Hak",
        -9.297120145918303
      ],
      [
        "Mu",
        -9.297908259015156
      ],
      [
        "duydu",
        -9.29957563831079
      ],
      [
        "şunu",
        -9.300745756879707
      ],
      [
        "dergi",
        -9.301605533269115
      ],
      [
        "açıl",
        -9.303207405818801
      ],
      [
        "acağım",
        -9.30433707322993
      ],
      [
        "gezi",
        -9.304577621760995
      ],
      [
        "düşü",
        -9.30489822181365
      ],
      [
        "elini",
        -9.305049287490016
      ],
      [
        "birinde",
        -9.305293317089516
      ],
      [
        "lığın",
        -9.30620845646375
      ],
      [
        "maları",
        -9.306306226779062
      ],
      [
        "deyim",
        -9.306328604370616
      ],
      [
        "Babam",
        -9.307220989946074
      ],
      [
        "uğra",
        -9.30810124007878
      ],
      [
        "Cumhuriyet",
        -9.308106874376353
      ],
      [
        "polis",
        -9.308804104861467
      ],
      [
        "Ayn",
        -9.310655427402722
      ],
      [
        "sesi",
        -9.311081893745316
      ],
      [
        "sıkıntı",
        -9.311495553662441
      ],
      [
        "yasa",
        -9.313645801824975
      ],
      [
        "ayında",
        -9.316454687363443
      ],
      [
        "etmesi",
        -9.318201897186919
      ],
      [
        "dönem",
        -9.318816605235543
      ],
      [
        "yapılaca",
        -9.319215349405173
      ],
      [
        "dığında",
        -9.319746951097322
      ],
      [
        "olaylar",
        -9.320517833524812
      ],
      [
        "fark",
        -9.321441019612633
      ],
      [
        "bal",
        -9.323268079547734
      ],
      [
        "yılda",
        -9.323573109192772
      ],
      [
        "amacı",
        -9.3242330659339
      ],
      [
        "kalmış",
        -9.325169663513808
      ],
      [
        "yapmaya",
        -9.326729265139214
      ],
      [
        "olacağı",
        -9.326763866841064
      ],
      [
        "televizyon",
        -9.327787815912139
      ],
      [
        "görevi",
        -9.327939500397077
      ],
      [
        "grup",
        -9.328247690976752
      ],
      [
        "kararı",
        -9.328945780612703
      ],
      [
        "co",
        -9.329478342737184
      ],
      [
        "say",
        -9.329845109136674
      ],
      [
        "Ba",
        -9.330344182509306
      ],
      [
        "AN",
        -9.331255931511762
      ],
      [
        "Gel",
        -9.332219293308524
      ],
      [
        "öte",
        -9.332834024118497
      ],
      [
        "dünyada",
        -9.335286607167411
      ],
      [
        "Hep",
        -9.335489836800274
      ],
      [
        "yaşamın",
        -9.335504182563238
      ],
      [
        "DE",
        -9.336807000476215
      ],
      [
        "ınca",
        -9.336928725455916
      ],
      [
        "sınır",
        -9.338169943900999
      ],
      [
        "liğinde",
        -9.338855348483529
      ],
      [
        "lenme",
        -9.340968478379573
      ],
      [
        "proje",
        -9.341875804500699
      ],
      [
        "gene",
        -9.34208504137346
      ],
      [
        "kahve",
        -9.342361990344097
      ],
      [
        "Halk",
        -9.342469717990177
      ],
      [
        "edecek",
        -9.343049237129204
      ],
      [
        "eğer",
        -9.34430588133338
      ],
      [
        "şiir",
        -9.344365929752897
      ],
      [
        "futbol",
        -9.344786577877269
      ],
      [
        "strateji",
        -9.34532495754558
      ],
      [
        "tehlike",
        -9.34532594928342
      ],
      [
        "teslim",
        -9.34533227143491
      ],
      [
        "lazım",
        -9.34538192163134
      ],
      [
        "Örne",
        -9.345382498425154
      ],
      [
        "yaşanan",
        -9.345474967581211
      ],
      [
        "Kızıl",
        -9.345836822015585
      ],
      [
        "beklenti",
        -9.34586045807725
      ],
      [
        "ciddi",
        -9.34619209896989
      ],
      [
        "kuşku",
        -9.346270664853417
      ],
      [
        "sever",
        -9.346347495289793
      ],
      [
        "zevk",
        -9.346611057009055
      ],
      [
        "Va",
        -9.34681147658686
      ],
      [
        "lüğü",
        -9.348564324392775
      ],
      [
        "Ca",
        -9.348659888538624
      ],
      [
        "Üste",
        -9.348823464529723
      ],
      [
        "saç",
        -9.349064809555792
      ],
      [
        "gemi",
        -9.349243321444034
      ],
      [
        "destek",
        -9.350092998680555
      ],
      [
        "sergi",
        -9.351239531000314
      ],
      [
        "varmış",
        -9.351544238639043
      ],
      [
        "devre",
        -9.352086636709537
      ],
      [
        "program",
        -9.35325919157501
      ],
      [
        "kayna",
        -9.354016319713121
      ],
      [
        "Har",
        -9.354122277260116
      ],
      [
        "14",
        -9.35510412108421
      ],
      [
        "gidiyor",
        -9.356138271934345
      ],
      [
        "savunma",
        -9.356164430387366
      ],
      [
        "22",
        -9.356669943487347
      ],
      [
        "ayıs",
        -9.356691545974828
      ],
      [
        "isti",
        -9.358385387578238
      ],
      [
        "tin",
        -9.358882557913159
      ],
      [
        "pazar",
        -9.359334329402731
      ],
      [
        "cağız",
        -9.359985512792813
      ],
      [
        "kocama",
        -9.36016303091923
      ],
      [
        "mayın",
        -9.360354962146793
      ],
      [
        "yapılır",
        -9.362363051744214
      ],
      [
        "seni",
        -9.363862565625611
      ],
      [
        "düşünme",
        -9.364967254994072
      ],
      [
        "kâğıt",
        -9.365722461014624
      ],
      [
        "ders",
        -9.366800529001146
      ],
      [
        "isteği",
        -9.366915158729807
      ],
      [
        "ünü",
        -9.367142145956755
      ],
      [
        "gönderil",
        -9.367517047420261
      ],
      [
        "yasak",
        -9.368508304316475
      ],
      [
        "atı",
        -9.368771671890082
      ],
      [
        "tip",
        -9.369256732047841
      ],
      [
        "belge",
        -9.370412761238967
      ],
      [
        "kinci",
        -9.371591274268756
      ],
      [
        "halka",
        -9.372745606175178
      ],
      [
        "üniversite",
        -9.373969919102194
      ],
      [
        "tören",
        -9.374318380372447
      ],
      [
        "Türkler",
        -9.376123473212516
      ],
      [
        "açar",
        -9.376123862575643
      ],
      [
        "toprak",
        -9.377823819300211
      ],
      [
        "kafa",
        -9.378486018705342
      ],
      [
        "davranış",
        -9.379330733177355
      ],
      [
        "öğretmen",
        -9.379649049483191
      ],
      [
        "yat",
        -9.379795236313115
      ],
      [
        "meyi",
        -9.379958054796482
      ],
      [
        "Tem",
        -9.381325121984059
      ],
      [
        "ndeki",
        -9.381777516391754
      ],
      [
        "yazdığı",
        -9.38194987386791
      ],
      [
        "giy",
        -9.382070665092336
      ],
      [
        "Has",
        -9.383798295127242
      ],
      [
        "VE",
        -9.38415256240912
      ],
      [
        "siyas",
        -9.384900679441554
      ],
      [
        "kaba",
        -9.3850102306401
      ],
      [
        "han",
        -9.385049914314328
      ],
      [
        "haberi",
        -9.385119765047376
      ],
      [
        "etmişti",
        -9.385700661861062
      ],
      [
        "öl",
        -9.386238835283551
      ],
      [
        "mekte",
        -9.387000721887745
      ],
      [
        "ettiler",
        -9.39171659512181
      ],
      [
        "dev",
        -9.391813906155807
      ],
      [
        "pay",
        -9.391972962764045
      ],
      [
        "lideri",
        -9.392808727724962
      ],
      [
        "katılma",
        -9.392931830632289
      ],
      [
        "doktor",
        -9.393216772516041
      ],
      [
        "huzur",
        -9.394028441297916
      ],
      [
        "birisi",
        -9.394116890044955
      ],
      [
        "kul",
        -9.394431903995715
      ],
      [
        "Der",
        -9.394453242960047
      ],
      [
        "ulaşma",
        -9.39461842823231
      ],
      [
        "So",
        -9.394736821640477
      ],
      [
        "eceğini",
        -9.394840037290976
      ],
      [
        "anlamı",
        -9.39583689003899
      ],
      [
        "halk",
        -9.39676832582477
      ],
      [
        "internet",
        -9.396803014694077
      ],
      [
        "lamak",
        -9.396962942820648
      ],
      [
        "ülkede",
        -9.398456678443761
      ],
      [
        "dediği",
        -9.398463177667047
      ],
      [
        "bizde",
        -9.39922100346922
      ],
      [
        "buldu",
        -9.400211159621028
      ],
      [
        "limon",
        -9.4008676545764
      ],
      [
        "abileceği",
        -9.40252099471918
      ],
      [
        "dinle",
        -9.40277817764117
      ],
      [
        "renk",
        -9.402874771466466
      ],
      [
        "gez",
        -9.403986137899796
      ],
      [
        "üs",
        -9.405418665111291
      ],
      [
        "meyen",
        -9.405439567614854
      ],
      [
        "değiş",
        -9.405894675361191
      ],
      [
        "ölme",
        -9.40621794650766
      ],
      [
        "Bugün",
        -9.406463971807243
      ],
      [
        "tesi",
        -9.406800757864614
      ],
      [
        "paylaş",
        -9.408377218116932
      ],
      [
        "halkın",
        -9.408598571807975
      ],
      [
        "Herkes",
        -9.408761493985583
      ],
      [
        "ağacın",
        -9.408886014957018
      ],
      [
        "kök",
        -9.409179568339411
      ],
      [
        "dağıt",
        -9.410289580165324
      ],
      [
        "tif",
        -9.410398883920218
      ],
      [
        "gerekli",
        -9.410420330601514
      ],
      [
        "değer",
        -9.411176673031859
      ],
      [
        "olanlar",
        -9.41235472907168
      ],
      [
        "ebilecek",
        -9.412506566155457
      ],
      [
        "mediği",
        -9.414391616894392
      ],
      [
        "AL",
        -9.414509691512919
      ],
      [
        "lider",
        -9.415021464385806
      ],
      [
        "askeri",
        -9.41571150558815
      ],
      [
        "saydı",
        -9.415827410469216
      ],
      [
        "yönetimin",
        -9.416381727982616
      ],
      [
        "Alman",
        -9.41745882327489
      ],
      [
        "ayakta",
        -9.418364444185734
      ],
      [
        "ayır",
        -9.418494792768174
      ],
      [
        "görmek",
        -9.418905950329309
      ],
      [
        "cevap",
        -9.419383697652492
      ],
      [
        "attığı",
        -9.419983299585548
      ],
      [
        "zarar",
        -9.420049725143542
      ],
      [
        "aşırı",
        -9.420314339124822
      ],
      [
        "sebep",
        -9.420884099109966
      ],
      [
        "yalan",
        -9.421611892479362
      ],
      [
        "mesini",
        -9.421929007391928
      ],
      [
        "Hindistan",
        -9.42224804937682
      ],
      [
        "şoför",
        -9.422248084394912
      ],
      [
        "serbest",
        -9.422248087338112
      ],
      [
        "Beşiktaş",
        -9.422248365015088
      ],
      [
        "Kültür",
        -9.42224838877726
      ],
      [
        "zorunlu",
        -9.422250578711806
      ],
      [
        "Gece",
        -9.42233872619137
      ],
      [
        "kayıt",
        -9.422350560844794
      ],
      [
        "Polis",
        -9.42236477412161
      ],
      [
        "Eski",
        -9.422368996749675
      ],
      [
        "Frans",
        -9.42238438647598
      ],
      [
        "milli",
        -9.422481192592203
      ],
      [
        "biçimi",
        -9.422491627902295
      ],
      [
        "sayısı",
        -9.422506484262655
      ],
      [
        "siyah",
        -9.422815135788836
      ],
      [
        "maçı",
        -9.422915177378341
      ],
      [
        "ayrıldı",
        -9.42316875133317
      ],
      [
        "sert",
        -9.424100894799558
      ],
      [
        "elbette",
        -9.424265819465667
      ],
      [
        "banka",
        -9.424339512070079
      ],
      [
        "bulundu",
        -9.424401167589219
      ],
      [
        "oturu",
        -9.42543446278492
      ],
      [
        "yıldır",
        -9.425478761114013
      ],
      [
        "Tüm",
        -9.425500382906353
      ],
      [
        "İran",
        -9.426342192950582
      ],
      [
        "kendilerini",
        -9.426709491260226
      ],
      [
        "istiyoru",
        -9.427474302063588
      ],
      [
        "masını",
        -9.428602382871077
      ],
      [
        "eceği",
        -9.428910483738612
      ],
      [
        "Tah",
        -9.429167891154414
      ],
      [
        "cık",
        -9.429647773145229
      ],
      [
        "sağlam",
        -9.43030120848061
      ],
      [
        "BA",
        -9.430775911537411
      ],
      [
        "yüzyıl",
        -9.430905774199076
      ],
      [
        "müştü",
        -9.431398456667445
      ],
      [
        "yeterli",
        -9.432362444602143
      ],
      [
        "beyin",
        -9.432530512561621
      ],
      [
        "yazma",
        -9.432885418646066
      ],
      [
        "düşündü",
        -9.433065870294083
      ],
      [
        "Manç",
        -9.433160906157209
      ],
      [
        "llah",
        -9.434130869407078
      ],
      [
        "başlamıştı",
        -9.434154498736184
      ],
      [
        "Fer",
        -9.4347411010201
      ],
      [
        "tümü",
        -9.434956772462861
      ],
      [
        "düşünce",
        -9.435376647121549
      ],
      [
        "karşın",
        -9.435437157966414
      ],
      [
        "koydu",
        -9.436483835276096
      ],
      [
        "desteği",
        -9.436839955746393
      ],
      [
        "ıydı",
        -9.437071772796108
      ],
      [
        "nu",
        -9.439087646127408
      ],
      [
        "Can",
        -9.439106159980543
      ],
      [
        "beden",
        -9.439120518216278
      ],
      [
        "İtalya",
        -9.43919316521636
      ],
      [
        "aşı",
        -9.439513280745967
      ],
      [
        "acağı",
        -9.440308363064524
      ],
      [
        "hane",
        -9.440777479656536
      ],
      [
        "Şu",
        -9.440836263562623
      ],
      [
        "deli",
        -9.440914300790073
      ],
      [
        "sev",
        -9.442589640798413
      ],
      [
        "Lo",
        -9.442797332776252
      ],
      [
        "Uz",
        -9.443057946335482
      ],
      [
        "yaka",
        -9.443782621336467
      ],
      [
        "nızı",
        -9.444618978717008
      ],
      [
        "KK",
        -9.44567906504689
      ],
      [
        "dizi",
        -9.446490364337837
      ],
      [
        "edilmesi",
        -9.44692160365313
      ],
      [
        "tre",
        -9.447534450231297
      ],
      [
        "oku",
        -9.448209112427033
      ],
      [
        "caba",
        -9.448861078690616
      ],
      [
        "verecek",
        -9.450034267312532
      ],
      [
        "ellerinde",
        -9.451191149223645
      ],
      [
        "ğım",
        -9.451649416228204
      ],
      [
        "ıyorlar",
        -9.452482273851784
      ],
      [
        "tanım",
        -9.452573400039636
      ],
      [
        "ğini",
        -9.452817458398679
      ],
      [
        "uç",
        -9.452881383903428
      ],
      [
        "acık",
        -9.453323145714998
      ],
      [
        "ğü",
        -9.453329832818522
      ],
      [
        "düşman",
        -9.454440392631609
      ],
      [
        "giyi",
        -9.455316252555942
      ],
      [
        "mayacağı",
        -9.45605464109746
      ],
      [
        "hastane",
        -9.456162051850278
      ],
      [
        "laştır",
        -9.456318865623667
      ],
      [
        "arkadaşlar",
        -9.456385052615966
      ],
      [
        "doğum",
        -9.456877426191713
      ],
      [
        "yo",
        -9.457950733378427
      ],
      [
        "gelme",
        -9.458267732271299
      ],
      [
        "mini",
        -9.459443053630263
      ],
      [
        "unun",
        -9.462094540128984
      ],
      [
        "davran",
        -9.46288771434119
      ],
      [
        "batı",
        -9.463282628667876
      ],
      [
        "düşünü",
        -9.46377119272196
      ],
      [
        "kalem",
        -9.46477810106033
      ],
      [
        "karıştır",
        -9.464838738321347
      ],
      [
        "ettin",
        -9.465015321592572
      ],
      [
        "çocukların",
        -9.465190915793656
      ],
      [
        "anlar",
        -9.465281153154306
      ],
      [
        "iktidar",
        -9.465459246080664
      ],
      [
        "Kur",
        -9.465461531798894
      ],
      [
        "una",
        -9.466399025600595
      ],
      [
        "halkı",
        -9.466556646428373
      ],
      [
        "basın",
        -9.466911209140902
      ],
      [
        "mit",
        -9.467907917543352
      ],
      [
        "İnsanlar",
        -9.467957714661555
      ],
      [
        "eksik",
        -9.468087435343904
      ],
      [
        "evinde",
        -9.468408400672295
      ],
      [
        "kuru",
        -9.468585922444241
      ],
      [
        "yüksel",
        -9.468722398364097
      ],
      [
        "arka",
        -9.468730844858628
      ],
      [
        "gazete",
        -9.47237119257028
      ],
      [
        "kesim",
        -9.472904955408849
      ],
      [
        "ğını",
        -9.472938209287161
      ],
      [
        "uzan",
        -9.473569597878196
      ],
      [
        "ödül",
        -9.473689173936899
      ],
      [
        "Gök",
        -9.47393646067688
      ],
      [
        "bol",
        -9.473967260632257
      ],
      [
        "Deme",
        -9.47448498632478
      ],
      [
        "Yer",
        -9.475690932257761
      ],
      [
        "olun",
        -9.47942523524328
      ],
      [
        "mişler",
        -9.479908883478892
      ],
      [
        "An",
        -9.480122463883017
      ],
      [
        "veriyor",
        -9.480487875485823
      ],
      [
        "irmi",
        -9.4807674948405
      ],
      [
        "hakları",
        -9.480851415719767
      ],
      [
        "cep",
        -9.481183844957322
      ],
      [
        "bet",
        -9.481209917107623
      ],
      [
        "tar",
        -9.481472611765398
      ],
      [
        "koyu",
        -9.481908771734123
      ],
      [
        "dön",
        -9.482625512186049
      ],
      [
        "Mİ",
        -9.482851128190637
      ],
      [
        "dönemde",
        -9.483357237686995
      ],
      [
        "gı",
        -9.484236800195058
      ],
      [
        "sezon",
        -9.484368104473303
      ],
      [
        "sizlik",
        -9.484616612039876
      ],
      [
        "yerleş",
        -9.48501045858168
      ],
      [
        "Man",
        -9.485231481556877
      ],
      [
        "layı",
        -9.486404510949725
      ],
      [
        "60",
        -9.48642036899868
      ],
      [
        "lerimizi",
        -9.486628756870719
      ],
      [
        "nere",
        -9.48734248405302
      ],
      [
        "kelime",
        -9.488126747059338
      ],
      [
        "edildi",
        -9.48861814666119
      ],
      [
        "17",
        -9.489223359051241
      ],
      [
        "zorlu",
        -9.489489084914137
      ],
      [
        "girer",
        -9.489776460210168
      ],
      [
        "çıkıyor",
        -9.48986158631781
      ],
      [
        "boya",
        -9.490496155791
      ],
      [
        "tiyatro",
        -9.49147666256899
      ],
      [
        "sesleri",
        -9.492718502226626
      ],
      [
        "çalıştığı",
        -9.493304539408715
      ],
      [
        "ing",
        -9.493701098330167
      ],
      [
        "toplan",
        -9.49425753653664
      ],
      [
        "yeter",
        -9.494932516670673
      ],
      [
        "atma",
        -9.495416948232902
      ],
      [
        "yola",
        -9.496782883550038
      ],
      [
        "derler",
        -9.497266790665101
      ],
      [
        "kanun",
        -9.498336958869151
      ],
      [
        "ırdı",
        -9.498866227055183
      ],
      [
        "lanmış",
        -9.49921275363009
      ],
      [
        "süren",
        -9.499332731987034
      ],
      [
        "seyre",
        -9.50080061505192
      ],
      [
        "girişim",
        -9.500823967747786
      ],
      [
        "gü",
        -9.501125507707172
      ],
      [
        "alanda",
        -9.501459678280433
      ],
      [
        "Ona",
        -9.501788461530946
      ],
      [
        "rengi",
        -9.501809381598864
      ],
      [
        "konuşa",
        -9.50207808095598
      ],
      [
        "amıyor",
        -9.502646702552559
      ],
      [
        "aşağı",
        -9.502800506506707
      ],
      [
        "ediliyor",
        -9.503175768127576
      ],
      [
        "rtesi",
        -9.503311590856299
      ],
      [
        "çeşit",
        -9.503422931740802
      ],
      [
        "bekliyor",
        -9.50368941301038
      ],
      [
        "lup",
        -9.504631169503469
      ],
      [
        "hastalık",
        -9.505572631313356
      ],
      [
        "Trabzon",
        -9.50558136715972
      ],
      [
        "Müslüman",
        -9.505581367609754
      ],
      [
        "şampiyon",
        -9.505581370024
      ],
      [
        "doğrayı",
        -9.505581375878359
      ],
      [
        "Araştırma",
        -9.505581421199512
      ],
      [
        "kavga",
        -9.50558143328187
      ],
      [
        "Mirkelam",
        -9.505581608230525
      ],
      [
        "yumurta",
        -9.505581779176197
      ],
      [
        "zayıf",
        -9.505585051904296
      ],
      [
        "bilgisayar",
        -9.505586037191417
      ],
      [
        "tahmin",
        -9.505590460867417
      ],
      [
        "Meclis",
        -9.505591754946241
      ],
      [
        "Kuzey",
        -9.505595040684451
      ],
      [
        "sigara",
        -9.505595560555491
      ],
      [
        "elbise",
        -9.505633471280735
      ],
      [
        "tedavi",
        -9.505659878202941
      ],
      [
        "Radyo",
        -9.505735720455299
      ],
      [
        "heykel",
        -9.505751106302732
      ],
      [
        "Akşam",
        -9.5057690683609
      ],
      [
        "bardak",
        -9.505794545660514
      ],
      [
        "ilginç",
        -9.506055707444979
      ],
      [
        "oyuncak",
        -9.50608174782732
      ],
      [
        "gari",
        -9.506085125396488
      ],
      [
        "çaba",
        -9.506101286333305
      ],
      [
        "terör",
        -9.506116351784765
      ],
      [
        "dolayısıyla",
        -9.50619160815743
      ],
      [
        "yon",
        -9.506328829161468
      ],
      [
        "darbe",
        -9.50633051698729
      ],
      [
        "firma",
        -9.506448717683806
      ],
      [
        "Hayır",
        -9.506462439963029
      ],
      [
        "TÜR",
        -9.506671057592948
      ],
      [
        "verici",
        -9.506939867175198
      ],
      [
        "Ra",
        -9.507045347868276
      ],
      [
        "yapılmış",
        -9.507301525608973
      ],
      [
        "chat",
        -9.507309019144019
      ],
      [
        "merkez",
        -9.507703434662535
      ],
      [
        "çek",
        -9.507852070667226
      ],
      [
        "Türkçe",
        -9.508031781882778
      ],
      [
        "oranı",
        -9.50820750821316
      ],
      [
        "Rus",
        -9.50866548453044
      ],
      [
        "Nerede",
        -9.50884716348602
      ],
      [
        "deprem",
        -9.509422104026797
      ],
      [
        "hayatı",
        -9.510057949865628
      ],
      [
        "abil",
        -9.51017474180442
      ],
      [
        "gösterir",
        -9.510400469666541
      ],
      [
        "Ocak",
        -9.510781646338625
      ],
      [
        "uygulan",
        -9.511955557871607
      ],
      [
        "taze",
        -9.512332762712203
      ],
      [
        "halat",
        -9.512520976204636
      ],
      [
        "açan",
        -9.51399403458897
      ],
      [
        "belir",
        -9.514160822530885
      ],
      [
        "oluml",
        -9.514552508377019
      ],
      [
        "SI",
        -9.51458171294631
      ],
      [
        "tartışma",
        -9.514755480453552
      ],
      [
        "sözleri",
        -9.514781090625085
      ],
      [
        "yapacağı",
        -9.514956059461351
      ],
      [
        "takip",
        -9.515284013089573
      ],
      [
        "yerler",
        -9.516498114885511
      ],
      [
        "değerlendirme",
        -9.516711870969779
      ],
      [
        "yaşaya",
        -9.516730911629429
      ],
      [
        "anladı",
        -9.516811033833873
      ],
      [
        "rası",
        -9.518070919062549
      ],
      [
        "atla",
        -9.518500650133879
      ],
      [
        "öğrendi",
        -9.518747350980238
      ],
      [
        "gitme",
        -9.520009125479765
      ],
      [
        "durma",
        -9.520613385847525
      ],
      [
        "Beyaz",
        -9.521709760934238
      ],
      [
        "lıklar",
        -9.52289220257014
      ],
      [
        "194",
        -9.522968577012607
      ],
      [
        "çocuğun",
        -9.523092727209193
      ],
      [
        "büyü",
        -9.52328438392044
      ],
      [
        "durdu",
        -9.523640951010115
      ],
      [
        "uy",
        -9.52478849600382
      ],
      [
        "orman",
        -9.524958383067244
      ],
      [
        "hayatını",
        -9.526630485055467
      ],
      [
        "yum",
        -9.527926432879502
      ],
      [
        "numara",
        -9.529593441050926
      ],
      [
        "saha",
        -9.530112058176398
      ],
      [
        "hepsi",
        -9.530476663833863
      ],
      [
        "BM",
        -9.530707709498763
      ],
      [
        "yü",
        -9.53081517938428
      ],
      [
        "kullanma",
        -9.532511641286517
      ],
      [
        "gittik",
        -9.533073057384325
      ],
      [
        "alacak",
        -9.534438701173999
      ],
      [
        "ılması",
        -9.534725846652407
      ],
      [
        "hat",
        -9.535221005976554
      ],
      [
        "kart",
        -9.53524091034364
      ],
      [
        "tim",
        -9.535501765751151
      ],
      [
        "durumlar",
        -9.535605947403942
      ],
      [
        "195",
        -9.5359940111867
      ],
      [
        "mışlar",
        -9.537374965277676
      ],
      [
        "sat",
        -9.53773678895849
      ],
      [
        "sakın",
        -9.53818399579728
      ],
      [
        "iken",
        -9.538432977588698
      ],
      [
        "rlar",
        -9.538592440877995
      ],
      [
        "kalacak",
        -9.539343429989804
      ],
      [
        "umu",
        -9.53951143795711
      ],
      [
        "şeyin",
        -9.539977541953355
      ],
      [
        "bekle",
        -9.54001953801692
      ],
      [
        "günlerde",
        -9.540167419099822
      ],
      [
        "Mart",
        -9.541265795115951
      ],
      [
        "koru",
        -9.541757573594985
      ],
      [
        "He",
        -9.541797102706356
      ],
      [
        "ch",
        -9.542296661602307
      ],
      [
        "aşkın",
        -9.545950862668903
      ],
      [
        "liğ",
        -9.546281600547431
      ],
      [
        "sokak",
        -9.54709566410088
      ],
      [
        "marka",
        -9.547111789815292
      ],
      [
        "başkanı",
        -9.548529627178464
      ],
      [
        "göl",
        -9.549205976345299
      ],
      [
        "ismi",
        -9.550695820898103
      ],
      [
        "vermiş",
        -9.550843494946628
      ],
      [
        "nan",
        -9.550852559985024
      ],
      [
        "bekleme",
        -9.552234074123636
      ],
      [
        "Çek",
        -9.552868709977783
      ],
      [
        "yapısı",
        -9.552983768926032
      ],
      [
        "Kır",
        -9.5539389638666
      ],
      [
        "tanıma",
        -9.554100535233694
      ],
      [
        "almış",
        -9.556005523949777
      ],
      [
        "197",
        -9.556036079628097
      ],
      [
        "muştu",
        -9.556079997448919
      ],
      [
        "söyleme",
        -9.556861172893655
      ],
      [
        "anlaşıl",
        -9.557458488411886
      ],
      [
        "Per",
        -9.557731424255373
      ],
      [
        "dünyası",
        -9.55825960311182
      ],
      [
        "per",
        -9.559159006535237
      ],
      [
        "hayatta",
        -9.55930988197869
      ],
      [
        "laşma",
        -9.55948924382696
      ],
      [
        "olmasını",
        -9.562228910474172
      ],
      [
        "azar",
        -9.56288213293196
      ],
      [
        "ağl",
        -9.563469513799909
      ],
      [
        "tör",
        -9.563499593169468
      ],
      [
        "katı",
        -9.56418081832505
      ],
      [
        "ğimiz",
        -9.565116592894823
      ],
      [
        "yapması",
        -9.565426071260946
      ],
      [
        "ıldığını",
        -9.565568866508547
      ],
      [
        "araç",
        -9.565972168654904
      ],
      [
        "AR",
        -9.56645971153835
      ],
      [
        "devletin",
        -9.56668006602557
      ],
      [
        "düşünür",
        -9.56761569390327
      ],
      [
        "adayı",
        -9.56801551507856
      ],
      [
        "taşı",
        -9.568129059444644
      ],
      [
        "ettiğini",
        -9.56814048166174
      ],
      [
        "Gö",
        -9.570079791723753
      ],
      [
        "iğe",
        -9.570227294574002
      ],
      [
        "kum",
        -9.570882043835681
      ],
      [
        "gazetesi",
        -9.573174208175253
      ],
      [
        "kurum",
        -9.573609071164203
      ],
      [
        "w",
        -9.573941240485205
      ],
      [
        "kuralları",
        -9.574309085704762
      ],
      [
        "yorgun",
        -9.575538418455777
      ],
      [
        "beklen",
        -9.576357023762185
      ],
      [
        "isteyen",
        -9.577512912492057
      ],
      [
        "günde",
        -9.577572444855663
      ],
      [
        "geliş",
        -9.578187186130247
      ],
      [
        "yurt",
        -9.581413439137888
      ],
      [
        "insanı",
        -9.5820758191615
      ],
      [
        "madde",
        -9.582955133394035
      ],
      [
        "kayb",
        -9.583077979099727
      ],
      [
        "tutma",
        -9.583330434005916
      ],
      [
        "olacaktı",
        -9.583577201255894
      ],
      [
        "geçiyor",
        -9.583706771080287
      ],
      [
        "merkezi",
        -9.583863895754103
      ],
      [
        "birini",
        -9.583870750583083
      ],
      [
        "istifa",
        -9.58453846987889
      ],
      [
        "şiş",
        -9.584849248293517
      ],
      [
        "ildi",
        -9.58534754057349
      ],
      [
        "ang",
        -9.585367566848916
      ],
      [
        "dilim",
        -9.585377613080139
      ],
      [
        "kalır",
        -9.585647621634514
      ],
      [
        "ükle",
        -9.586620985282318
      ],
      [
        "sözler",
        -9.58683735700697
      ],
      [
        "Gül",
        -9.586996415360186
      ],
      [
        "kutla",
        -9.587575304653821
      ],
      [
        "dans",
        -9.588131653039849
      ],
      [
        "etkisi",
        -9.588492800022793
      ],
      [
        "Hali",
        -9.588658410653917
      ],
      [
        "Bin",
        -9.589248505049326
      ],
      [
        "derdi",
        -9.589500868658359
      ],
      [
        "usul",
        -9.589540345605906
      ],
      [
        "ünün",
        -9.589572142193475
      ],
      [
        "Bar",
        -9.589584922147136
      ],
      [
        "bağ",
        -9.589928853866768
      ],
      [
        "sor",
        -9.59061599006233
      ],
      [
        "dönemi",
        -9.591220347143256
      ],
      [
        "faaliyet",
        -9.592676475288489
      ],
      [
        "krizi",
        -9.592885633440545
      ],
      [
        "dini",
        -9.594647441512059
      ],
      [
        "Yaşam",
        -9.594778677885039
      ],
      [
        "değişik",
        -9.595131862261237
      ],
      [
        "Din",
        -9.595380467562212
      ],
      [
        "görüşme",
        -9.595489095478749
      ],
      [
        "kale",
        -9.59600112210071
      ],
      [
        "imkân",
        -9.59602368099623
      ],
      [
        "x",
        -9.596357835051942
      ],
      [
        "kurmay",
        -9.596431354484414
      ],
      [
        "olumsuz",
        -9.596475089467763
      ],
      [
        "teşekkür",
        -9.596490484823955
      ],
      [
        "mevcut",
        -9.596490502972529
      ],
      [
        "ücret",
        -9.596490539558427
      ],
      [
        "İzmir",
        -9.596490958614917
      ],
      [
        "gezegen",
        -9.596492234461916
      ],
      [
        "üçüncü",
        -9.596492429124877
      ],
      [
        "radyo",
        -9.596493763376229
      ],
      [
        "göç",
        -9.596498598868369
      ],
      [
        "Efendi",
        -9.596500287557237
      ],
      [
        "bildirdi",
        -9.596503218370469
      ],
      [
        "çağdaş",
        -9.596510497891188
      ],
      [
        "ağzı",
        -9.596524649207332
      ],
      [
        "karanlık",
        -9.596554651315056
      ],
      [
        "Kasım",
        -9.596600344291184
      ],
      [
        "Gazete",
        -9.596609022536574
      ],
      [
        "petrol",
        -9.596681791328818
      ],
      [
        "Müdür",
        -9.596733970022607
      ],
      [
        "yağmur",
        -9.596798108185562
      ],
      [
        "defter",
        -9.596832271538503
      ],
      [
        "seçme",
        -9.596978987703514
      ],
      [
        "New",
        -9.597100371153331
      ],
      [
        "konuşur",
        -9.597310956857063
      ],
      [
        "kasaba",
        -9.59738167890902
      ],
      [
        "Aziz",
        -9.597461268891058
      ],
      [
        "bilinç",
        -9.597467146253472
      ],
      [
        "ilerle",
        -9.597580029824542
      ],
      [
        "barış",
        -9.597627868312472
      ],
      [
        "Yunan",
        -9.59776893558928
      ],
      [
        "dönüştür",
        -9.597799890249863
      ],
      [
        "sekiz",
        -9.598130171015104
      ],
      [
        "espit",
        -9.598149474990258
      ],
      [
        "tanın",
        -9.598415462242576
      ],
      [
        "metre",
        -9.598460881267513
      ],
      [
        "İngilizce",
        -9.598630449290113
      ],
      [
        "gündüz",
        -9.598804721937507
      ],
      [
        "özgür",
        -9.59896585406599
      ],
      [
        "rüzgâr",
        -9.599032535345046
      ],
      [
        "yağı",
        -9.599160736685683
      ],
      [
        "kurdu",
        -9.59944988769938
      ],
      [
        "uçak",
        -9.599815577777314
      ],
      [
        "Lü",
        -9.599966550489366
      ],
      [
        "Ermeni",
        -9.60056878008867
      ],
      [
        "yollar",
        -9.601320315941399
      ],
      [
        "Kişi",
        -9.601388896532999
      ],
      [
        "lamıştı",
        -9.60154343467889
      ],
      [
        "Bunları",
        -9.601762723160581
      ],
      [
        "Arap",
        -9.601810283742747
      ],
      [
        "tarihinde",
        -9.60343018215623
      ],
      [
        "olurdu",
        -9.604520720882995
      ],
      [
        "olgu",
        -9.604572153821229
      ],
      [
        "çıkmıştı",
        -9.604763088559606
      ],
      [
        "futbolcu",
        -9.604800961616128
      ],
      [
        "dava",
        -9.605364631138514
      ],
      [
        "layan",
        -9.60547568659929
      ],
      [
        "Rum",
        -9.605569843427313
      ],
      [
        "kıyı",
        -9.605806023365382
      ],
      [
        "J",
        -9.605888822248211
      ],
      [
        "Kadın",
        -9.60653652531406
      ],
      [
        "giren",
        -9.606771222546502
      ],
      [
        "devrim",
        -9.606806510632754
      ],
      [
        "dili",
        -9.607208312177935
      ],
      [
        "lmiş",
        -9.607638149437161
      ],
      [
        "atan",
        -9.607855727918334
      ],
      [
        "sınıf",
        -9.608381515914177
      ],
      [
        "vatan",
        -9.609888747166208
      ],
      [
        "Kö",
        -9.610706508114696
      ],
      [
        "patla",
        -9.612423949822407
      ],
      [
        "Po",
        -9.612596973467092
      ],
      [
        "anlaşma",
        -9.613336348264045
      ],
      [
        "On",
        -9.614275424728369
      ],
      [
        "Az",
        -9.614592438603442
      ],
      [
        "alıyordu",
        -9.615230630031652
      ],
      [
        "Mahkemesi",
        -9.615741204583736
      ],
      [
        "yorsun",
        -9.61576431175591
      ],
      [
        "tor",
        -9.615993820065762
      ],
      [
        "rdı",
        -9.616783062156802
      ],
      [
        "talep",
        -9.617013585232987
      ],
      [
        "Çocuklar",
        -9.617339578845087
      ],
      [
        "ılacak",
        -9.618641197870275
      ],
      [
        "bulur",
        -9.619751120141075
      ],
      [
        "çuk",
        -9.62019596407061
      ],
      [
        "geçirme",
        -9.620809453369517
      ],
      [
        "pit",
        -9.620906034385714
      ],
      [
        "kâr",
        -9.621366493599174
      ],
      [
        "doğa",
        -9.621804738399499
      ],
      [
        "istiyor",
        -9.622909076133544
      ],
      [
        "içki",
        -9.623788959402908
      ],
      [
        "ilişkileri",
        -9.624046300778467
      ],
      [
        "kredi",
        -9.624365490540415
      ],
      [
        "tarafta",
        -9.624875602380184
      ],
      [
        "söyley",
        -9.624959313414244
      ],
      [
        "Na",
        -9.625282673587263
      ],
      [
        "bat",
        -9.625397379996226
      ],
      [
        "adamları",
        -9.625903829628033
      ],
      [
        "olduğum",
        -9.626840154637675
      ],
      [
        "gündem",
        -9.627570538127049
      ],
      [
        "düğünü",
        -9.628032027095742
      ],
      [
        "kazanma",
        -9.628843383373344
      ],
      [
        "başlıyor",
        -9.629204217790209
      ],
      [
        "kısmı",
        -9.629386027423603
      ],
      [
        "Tim",
        -9.631807966623132
      ],
      [
        "Biri",
        -9.632157631272278
      ],
      [
        "evlerin",
        -9.632724562920185
      ],
      [
        "Başbakan",
        -9.633706727045643
      ],
      [
        "sanatçı",
        -9.634103732420279
      ],
      [
        "yapıl",
        -9.634395944030082
      ],
      [
        "dönüşü",
        -9.634721480441739
      ],
      [
        "yetiş",
        -9.634741921386876
      ],
      [
        "arkadaşları",
        -9.63494135064808
      ],
      [
        "bizler",
        -9.636064652259584
      ],
      [
        "gösterme",
        -9.636151420148206
      ],
      [
        "yıllarında",
        -9.637271422219179
      ],
      [
        "tekni",
        -9.637822189919042
      ],
      [
        "karşılık",
        -9.638488908539653
      ],
      [
        "uğu",
        -9.638585466305285
      ],
      [
        "Ker",
        -9.64144734501969
      ],
      [
        "Kaya",
        -9.642512324352554
      ],
      [
        "ilişkiler",
        -9.643795209249664
      ],
      [
        "demişti",
        -9.643875478388804
      ],
      [
        "İsv",
        -9.644191254860868
      ],
      [
        "ayakkabı",
        -9.644533169687952
      ],
      [
        "etkilen",
        -9.64488347228611
      ],
      [
        "yaşa",
        -9.646442412448401
      ],
      [
        "hata",
        -9.64653063044102
      ],
      [
        "if",
        -9.64688100437609
      ],
      [
        "car",
        -9.647023847597486
      ],
      [
        "mekten",
        -9.647659738194555
      ],
      [
        "isten",
        -9.648289036417962
      ],
      [
        "kor",
        -9.648378972815078
      ],
      [
        "uluslar",
        -9.648527088710303
      ],
      [
        "Ho",
        -9.648792385822613
      ],
      [
        "öldü",
        -9.64903325435248
      ],
      [
        "edil",
        -9.64937025489199
      ],
      [
        "şunlar",
        -9.650586883733824
      ],
      [
        "Ja",
        -9.651433823722368
      ],
      [
        "salla",
        -9.651635537162862
      ],
      [
        "oru",
        -9.65236537528199
      ],
      [
        "kaldığı",
        -9.653262954739557
      ],
      [
        "başkan",
        -9.654502475369302
      ],
      [
        "amadı",
        -9.654584546398619
      ],
      [
        "ralık",
        -9.654844481908517
      ],
      [
        "teklif",
        -9.655096455021878
      ],
      [
        "saf",
        -9.655463259252906
      ],
      [
        "Li",
        -9.65560897200437
      ],
      [
        "başladık",
        -9.65570679602028
      ],
      [
        "yansıt",
        -9.65583719898746
      ],
      [
        "asit",
        -9.656866848124686
      ],
      [
        "Sev",
        -9.658253290382632
      ],
      [
        "13",
        -9.658302675037216
      ],
      [
        "başladığı",
        -9.658756433355197
      ],
      [
        "ekmek",
        -9.659175836000406
      ],
      [
        "atmış",
        -9.659887567304928
      ],
      [
        "taraf",
        -9.661665821733813
      ],
      [
        "koşu",
        -9.66210532601325
      ],
      [
        "pası",
        -9.662859203410758
      ],
      [
        "Ser",
        -9.665686960771945
      ],
      [
        "unutma",
        -9.666799315848763
      ],
      [
        "şa",
        -9.667662005901652
      ],
      [
        "kadro",
        -9.66828801630017
      ],
      [
        "rapor",
        -9.668462765054015
      ],
      [
        "bas",
        -9.668640628034414
      ],
      [
        "fikir",
        -9.66917311711093
      ],
      [
        "park",
        -9.671875019402105
      ],
      [
        "yoğun",
        -9.672821706329488
      ],
      [
        "don",
        -9.67360112018177
      ],
      [
        "dığım",
        -9.675406389272235
      ],
      [
        "bilin",
        -9.675774431898047
      ],
      [
        "programı",
        -9.676650976946346
      ],
      [
        "günlük",
        -9.676775986824401
      ],
      [
        "yıllı",
        -9.676969475855012
      ],
      [
        "Savaş",
        -9.677627812708542
      ],
      [
        "dolaş",
        -9.677641951663613
      ],
      [
        "makine",
        -9.67782598954655
      ],
      [
        "iyoruz",
        -9.678039121384225
      ],
      [
        "sevgili",
        -9.678642473587178
      ],
      [
        "labilecek",
        -9.679075954204983
      ],
      [
        "luğun",
        -9.679719651750482
      ],
      [
        "ydu",
        -9.68031389622023
      ],
      [
        "çalışmaları",
        -9.68137297422329
      ],
      [
        "rüya",
        -9.682095386220247
      ],
      [
        "ME",
        -9.682280140733106
      ],
      [
        "yapmış",
        -9.68261659486102
      ],
      [
        "atmak",
        -9.68295286064554
      ],
      [
        "yerlerde",
        -9.683225060716588
      ],
      [
        "git",
        -9.684263219453547
      ],
      [
        "öner",
        -9.684316917945711
      ],
      [
        "pat",
        -9.68437521240241
      ],
      [
        "seçil",
        -9.685329707799111
      ],
      [
        "arış",
        -9.685527241875107
      ],
      [
        "oturdu",
        -9.685863570262512
      ],
      [
        "ayakları",
        -9.6862986039338
      ],
      [
        "ff",
        -9.686349377308614
      ],
      [
        "gönder",
        -9.688089351118876
      ],
      [
        "asyonu",
        -9.68950113186153
      ],
      [
        "lenen",
        -9.689584216552365
      ],
      [
        "düzey",
        -9.689945240351602
      ],
      [
        "lendirme",
        -9.690750125724858
      ],
      [
        "Sina",
        -9.691114881572965
      ],
      [
        "İç",
        -9.691742559255815
      ],
      [
        "sonucu",
        -9.691869330158546
      ],
      [
        "Filistin",
        -9.693321534789693
      ],
      [
        "Aile",
        -9.694560253749973
      ],
      [
        "Sevgi",
        -9.695705282722114
      ],
      [
        "mutla",
        -9.695962432908512
      ],
      [
        "etmiyor",
        -9.695969774162457
      ],
      [
        "miyordu",
        -9.695982210093645
      ],
      [
        "mahalle",
        -9.696009027693037
      ],
      [
        "esi",
        -9.69604157790763
      ],
      [
        "temsil",
        -9.696445920429113
      ],
      [
        "Süleyman",
        -9.69649045811277
      ],
      [
        "Tiyatro",
        -9.696490458493209
      ],
      [
        "Futbol",
        -9.696490463986338
      ],
      [
        "tehdit",
        -9.696491048855728
      ],
      [
        "Doktor",
        -9.696492163712009
      ],
      [
        "misafir",
        -9.696493489133415
      ],
      [
        "karmaşık",
        -9.696498488278493
      ],
      [
        "şüphe",
        -9.696510927944672
      ],
      [
        "Kürt",
        -9.69651396765837
      ],
      [
        "Doğan",
        -9.69651607474454
      ],
      [
        "sivil",
        -9.696528492480873
      ],
      [
        "gerekçesi",
        -9.696543224079395
      ],
      [
        "Güzel",
        -9.696549416116271
      ],
      [
        "akraba",
        -9.696615935299908
      ],
      [
        "general",
        -9.696624402438369
      ],
      [
        "baskı",
        -9.696710588003615
      ],
      [
        "ATA",
        -9.696725226672847
      ],
      [
        "tencere",
        -9.696785942581414
      ],
      [
        "Elbet",
        -9.696786569868273
      ],
      [
        "verilir",
        -9.696792712013767
      ],
      [
        "bahar",
        -9.696795675830376
      ],
      [
        "köle",
        -9.69679743487536
      ],
      [
        "sefer",
        -9.696846982597725
      ],
      [
        "kere",
        -9.696919351927015
      ],
      [
        "Günümüz",
        -9.696941522976392
      ],
      [
        "Mahmut",
        -9.697055872068878
      ],
      [
        "Yahudi",
        -9.69706596683005
      ],
      [
        "Kitap",
        -9.697125542085985
      ],
      [
        "yayımlan",
        -9.697127564393911
      ],
      [
        "yakala",
        -9.697163132352483
      ],
      [
        "tanık",
        -9.697579660148188
      ],
      [
        "eğlence",
        -9.697652227200528
      ],
      [
        "yolcu",
        -9.697678682758962
      ],
      [
        "gelenek",
        -9.697721120848195
      ],
      [
        "sessiz",
        -9.697781939940251
      ],
      [
        "Cumhurbaşkanı",
        -9.697988613725165
      ],
      [
        "kesi",
        -9.698242343716164
      ],
      [
        "edilir",
        -9.698279843212818
      ],
      [
        "ettir",
        -9.698593880676903
      ],
      [
        "ırlar",
        -9.698985506632555
      ],
      [
        "kurulan",
        -9.699017759317176
      ],
      [
        "idare",
        -9.699342049062096
      ],
      [
        "tutar",
        -9.69979974302556
      ],
      [
        "belirtil",
        -9.699867493249856
      ],
      [
        "gelince",
        -9.699987441547437
      ],
      [
        "fırın",
        -9.700034837796247
      ],
      [
        "giriş",
        -9.7000864242191
      ],
      [
        "Işı",
        -9.700137450925512
      ],
      [
        "fen",
        -9.700205509095666
      ],
      [
        "duruyordu",
        -9.700362465528878
      ],
      [
        "konuşuyor",
        -9.70048268838991
      ],
      [
        "amaçla",
        -9.700564977500914
      ],
      [
        "Beni",
        -9.700671373288564
      ],
      [
        "Balık",
        -9.700768502134217
      ],
      [
        "kay",
        -9.70090638413047
      ],
      [
        "hedefleri",
        -9.701317616477061
      ],
      [
        "hur",
        -9.70155680201161
      ],
      [
        "Seni",
        -9.701808869009042
      ],
      [
        "ülya",
        -9.701868779495424
      ],
      [
        "UR",
        -9.702031586522462
      ],
      [
        "okuyan",
        -9.702262016802868
      ],
      [
        "dönüş",
        -9.702442104346611
      ],
      [
        "katılan",
        -9.702444770058385
      ],
      [
        "davet",
        -9.703041320516029
      ],
      [
        "doğrusu",
        -9.703125500893556
      ],
      [
        "27",
        -9.703497369308936
      ],
      [
        "olmayı",
        -9.704617312651722
      ],
      [
        "çalışıyordu",
        -9.704947111191736
      ],
      [
        "Altın",
        -9.70497927174482
      ],
      [
        "müze",
        -9.706190660948728
      ],
      [
        "haklı",
        -9.706451537295543
      ],
      [
        "çeken",
        -9.706535484431775
      ],
      [
        "KA",
        -9.707375451578804
      ],
      [
        "Zaman",
        -9.708046663868547
      ],
      [
        "gidecek",
        -9.708370013855657
      ],
      [
        "Dede",
        -9.70840143432947
      ],
      [
        "görülme",
        -9.709015630291928
      ],
      [
        "Kral",
        -9.709463163158059
      ],
      [
        "yaşar",
        -9.709551471658433
      ],
      [
        "bıraktı",
        -9.710321074971578
      ],
      [
        "sağlar",
        -9.71124287722131
      ],
      [
        "bitki",
        -9.711522550102359
      ],
      [
        "ufak",
        -9.711541880300718
      ],
      [
        "çevir",
        -9.71156737765437
      ],
      [
        "peş",
        -9.711668608733987
      ],
      [
        "dıklarını",
        -9.711757756402609
      ],
      [
        "acaktı",
        -9.713025573566858
      ],
      [
        "irade",
        -9.714221113921063
      ],
      [
        "kem",
        -9.714287883514771
      ],
      [
        "EV",
        -9.714360319036256
      ],
      [
        "eşya",
        -9.71457921726945
      ],
      [
        "kör",
        -9.714762679339085
      ],
      [
        "geçer",
        -9.714971480298871
      ],
      [
        "duyu",
        -9.715627572897697
      ],
      [
        "salonun",
        -9.716196727229656
      ],
      [
        "hangisi",
        -9.716430511887083
      ],
      [
        "kurumun",
        -9.71648576935646
      ],
      [
        "isteyenler",
        -9.718446992566307
      ],
      [
        "konut",
        -9.71846684330111
      ],
      [
        "ül",
        -9.718660712572827
      ],
      [
        "düşür",
        -9.720317482379567
      ],
      [
        "tadı",
        -9.720491778694514
      ],
      [
        "getirildi",
        -9.720618311333734
      ],
      [
        "yaptık",
        -9.720827470948946
      ],
      [
        "hatırla",
        -9.721707209817518
      ],
      [
        "suyun",
        -9.721864737437219
      ],
      [
        "bağlan",
        -9.722297681218132
      ],
      [
        "düzen",
        -9.722484625689152
      ],
      [
        "eleştiri",
        -9.72364002297246
      ],
      [
        "saçları",
        -9.725394984988899
      ],
      [
        "rol",
        -9.726120268636262
      ],
      [
        "gerçekleş",
        -9.726318187454362
      ],
      [
        "gerçekleştir",
        -9.726866655448328
      ],
      [
        "hız",
        -9.728715579345009
      ],
      [
        "lenir",
        -9.729465816836136
      ],
      [
        "ırmak",
        -9.729765021011126
      ],
      [
        "masında",
        -9.73033298776179
      ],
      [
        "Neden",
        -9.731020182964803
      ],
      [
        "Ver",
        -9.732152282688375
      ],
      [
        "çıkart",
        -9.732415438659764
      ],
      [
        "40",
        -9.732425336438336
      ],
      [
        "kalın",
        -9.733265835763982
      ],
      [
        "yerli",
        -9.733347357767009
      ],
      [
        "hayvan",
        -9.733752708812482
      ],
      [
        "Öte",
        -9.73414362032323
      ],
      [
        "millet",
        -9.734928022407116
      ],
      [
        "ayrıca",
        -9.735493447703316
      ],
      [
        "öncesi",
        -9.735610256079005
      ],
      [
        "yerini",
        -9.735660576552997
      ],
      [
        "şeyleri",
        -9.735899841190284
      ],
      [
        "vur",
        -9.737349785452352
      ],
      [
        "sonu",
        -9.738059584379881
      ],
      [
        "bozul",
        -9.738496672186008
      ],
      [
        "alay",
        -9.739105121377253
      ],
      [
        "gelecek",
        -9.739611134887175
      ],
      [
        "öğrenciler",
        -9.741314429054176
      ],
      [
        "Tan",
        -9.741676860508752
      ],
      [
        "mesele",
        -9.741779073837964
      ],
      [
        "özelliği",
        -9.741800353957993
      ],
      [
        "ülkemiz",
        -9.74183156318842
      ],
      [
        "karşılaşma",
        -9.74306452285027
      ],
      [
        "tava",
        -9.744558313887564
      ],
      [
        "Den",
        -9.744887433587385
      ],
      [
        "ediyordu",
        -9.74538856655144
      ],
      [
        "pul",
        -9.745636224524711
      ],
      [
        "Cev",
        -9.7466881653391
      ],
      [
        "kararlı",
        -9.746869097209654
      ],
      [
        "siyaset",
        -9.747004458605858
      ],
      [
        "ters",
        -9.747335186568693
      ],
      [
        "toplam",
        -9.747916571210308
      ],
      [
        "ic",
        -9.748180394134744
      ],
      [
        "değişiklikler",
        -9.748606272219394
      ],
      [
        "getirmiş",
        -9.749422039858189
      ],
      [
        "malıyı",
        -9.749730422755153
      ],
      [
        "yatırım",
        -9.749952169300695
      ],
      [
        "bilen",
        -9.75001751269297
      ],
      [
        "zamanı",
        -9.750436369220072
      ],
      [
        "ınar",
        -9.750885472062182
      ],
      [
        "büyüme",
        -9.752125151825318
      ],
      [
        "onunda",
        -9.753215766805297
      ],
      [
        "ayak",
        -9.753781101578735
      ],
      [
        "İn",
        -9.754060588968754
      ],
      [
        "ateşte",
        -9.754175419117017
      ],
      [
        "tıp",
        -9.754190641159129
      ],
      [
        "Ham",
        -9.754514297713648
      ],
      [
        "sözlerini",
        -9.754724254377031
      ],
      [
        "Kadı",
        -9.755378053557616
      ],
      [
        "görüş",
        -9.75549096858246
      ],
      [
        "500",
        -9.756610158378745
      ],
      [
        "çalışır",
        -9.758386211524508
      ],
      [
        "köşe",
        -9.758416637611322
      ],
      [
        "tepe",
        -9.758920797261306
      ],
      [
        "eğlen",
        -9.759544328876121
      ],
      [
        "Anne",
        -9.759982735611123
      ],
      [
        "Hal",
        -9.760333043934061
      ],
      [
        "Dedi",
        -9.761013799274423
      ],
      [
        "kendimiz",
        -9.761911067132903
      ],
      [
        "sür",
        -9.763005686928164
      ],
      [
        "oş",
        -9.765143856663663
      ],
      [
        "lenmiş",
        -9.765305542085208
      ],
      [
        "çıkarı",
        -9.765714591289514
      ],
      [
        "mantık",
        -9.765995299366109
      ],
      [
        "anma",
        -9.766047295241757
      ],
      [
        "etmedi",
        -9.766195915678399
      ],
      [
        "Ana",
        -9.766360746709251
      ],
      [
        "yukarı",
        -9.767829424064782
      ],
      [
        "Banka",
        -9.768155128513914
      ],
      [
        "katkı",
        -9.769120434433841
      ],
      [
        "otel",
        -9.7700235038894
      ],
      [
        "deri",
        -9.77032328123749
      ],
      [
        "lanır",
        -9.77271065904716
      ],
      [
        "sos",
        -9.773757765487943
      ],
      [
        "68",
        -9.774147969633097
      ],
      [
        "bakma",
        -9.774252193634306
      ],
      [
        "ymış",
        -9.77471461330072
      ],
      [
        "Or",
        -9.774896760457334
      ],
      [
        "yormuş",
        -9.774924200874091
      ],
      [
        "mahkeme",
        -9.775231000986336
      ],
      [
        "çap",
        -9.775617865952011
      ],
      [
        "efsane",
        -9.775721082549794
      ],
      [
        "çet",
        -9.775883877615968
      ],
      [
        "arama",
        -9.77602617034337
      ],
      [
        "gösteril",
        -9.776524797219965
      ],
      [
        "çekiyor",
        -9.776831830236267
      ],
      [
        "bur",
        -9.77698605963425
      ],
      [
        "şeker",
        -9.779797315344647
      ],
      [
        "başla",
        -9.780059942593425
      ],
      [
        "burcu",
        -9.781297296926628
      ],
      [
        "belirtti",
        -9.782264715128242
      ],
      [
        "toplumun",
        -9.783534760988038
      ],
      [
        "lanması",
        -9.785718820680119
      ],
      [
        "gösteri",
        -9.785788568795498
      ],
      [
        "emez",
        -9.787332782097138
      ],
      [
        "kalite",
        -9.787644876488526
      ],
      [
        "Onu",
        -9.787962558478368
      ],
      [
        "yüzün",
        -9.788347839730339
      ],
      [
        "mazdı",
        -9.788707397827139
      ],
      [
        "olduğunda",
        -9.78892638322677
      ],
      [
        "193",
        -9.789225435554572
      ],
      [
        "ürün",
        -9.78942963405246
      ],
      [
        "ell",
        -9.790124407148705
      ],
      [
        "yetki",
        -9.79064143573714
      ],
      [
        "dayan",
        -9.791474954543677
      ],
      [
        "bölümü",
        -9.792470540468893
      ],
      [
        "çocuğu",
        -9.793038704584735
      ],
      [
        "hazırlana",
        -9.793875333218498
      ],
      [
        "ğına",
        -9.794232327047496
      ],
      [
        "eceğim",
        -9.794273573048349
      ],
      [
        "hepsini",
        -9.7946281788486
      ],
      [
        "ayna",
        -9.795261763394805
      ],
      [
        "diren",
        -9.795538097227174
      ],
      [
        "örgü",
        -9.79583016259533
      ],
      [
        "asyon",
        -9.79604797662688
      ],
      [
        "dası",
        -9.797585117335396
      ],
      [
        "laf",
        -9.798371224480823
      ],
      [
        "luyor",
        -9.799938070197939
      ],
      [
        "katıldı",
        -9.800318835965912
      ],
      [
        "arkasın",
        -9.800567836272016
      ],
      [
        "hücre",
        -9.802060181135271
      ],
      [
        "okur",
        -9.802418471201971
      ],
      [
        "seks",
        -9.80284246526639
      ],
      [
        "bakıyor",
        -9.803039496411248
      ],
      [
        "ac",
        -9.803127478614856
      ],
      [
        "yaprak",
        -9.804228344656687
      ],
      [
        "boy",
        -9.80427578089338
      ],
      [
        "kamu",
        -9.804486357645448
      ],
      [
        "artış",
        -9.804490666376786
      ],
      [
        "rolü",
        -9.80456233389457
      ],
      [
        "boyu",
        -9.804847876830694
      ],
      [
        "Genç",
        -9.804871681373928
      ],
      [
        "Kırmızı",
        -9.80498873323159
      ],
      [
        "aracı",
        -9.806099255066126
      ],
      [
        "Kısa",
        -9.806290321711291
      ],
      [
        "hissetti",
        -9.806668240829177
      ],
      [
        "gönül",
        -9.807153712196776
      ],
      [
        "İspany",
        -9.807272119504553
      ],
      [
        "Sosyal",
        -9.807450180817106
      ],
      [
        "vşar",
        -9.807538725465237
      ],
      [
        "unutul",
        -9.80757669637105
      ],
      [
        "hikâye",
        -9.807601746366972
      ],
      [
        "ameliyat",
        -9.80760174941188
      ],
      [
        "Bölge",
        -9.807601907121564
      ],
      [
        "bağımsız",
        -9.807602018282932
      ],
      [
        "Geçen",
        -9.807602518793363
      ],
      [
        "Fakülte",
        -9.80760265989438
      ],
      [
        "öfke",
        -9.807603592755092
      ],
      [
        "coşku",
        -9.807604940141431
      ],
      [
        "delikanlı",
        -9.807605492165525
      ],
      [
        "çirkin",
        -9.807605852928262
      ],
      [
        "doğrultu",
        -9.807606182481198
      ],
      [
        "iletişim",
        -9.807607332443524
      ],
      [
        "fabrika",
        -9.807608331892025
      ],
      [
        "egemen",
        -9.807613674066486
      ],
      [
        "personel",
        -9.807616983000193
      ],
      [
        "Şeker",
        -9.807617302557727
      ],
      [
        "ihtiyaç",
        -9.807620256655355
      ],
      [
        "çoğal",
        -9.807623220198373
      ],
      [
        "solunum",
        -9.80762765751161
      ],
      [
        "müdahale",
        -9.807630206953771
      ],
      [
        "Japon",
        -9.807638431319285
      ],
      [
        "husus",
        -9.807638656963535
      ],
      [
        "Taksi",
        -9.80765331091135
      ],
      [
        "kurşun",
        -9.807658361405299
      ],
      [
        "bayram",
        -9.807659548824049
      ],
      [
        "çök",
        -9.807665728997781
      ],
      [
        "York",
        -9.807679221056466
      ],
      [
        "âşık",
        -9.807696178282498
      ],
      [
        "İnşa",
        -9.8076998196072
      ],
      [
        "Şubat",
        -9.807700419537301
      ],
      [
        "harita",
        -9.807749872498796
      ],
      [
        "Anayasa",
        -9.807788723973443
      ],
      [
        "motor",
        -9.807822162973725
      ],
      [
        "zafer",
        -9.807883444002671
      ],
      [
        "Beh",
        -9.807898042618671
      ],
      [
        "ekibi",
        -9.80802151803542
      ],
      [
        "işlev",
        -9.808192002413637
      ],
      [
        "İbn",
        -9.808256150690259
      ],
      [
        "Müze",
        -9.80827076894866
      ],
      [
        "final",
        -9.808457863161301
      ],
      [
        "yaptığını",
        -9.808632084472592
      ],
      [
        "zincir",
        -9.808864956166452
      ],
      [
        "yaşanma",
        -9.808953268588263
      ],
      [
        "boz",
        -9.809216661030915
      ],
      [
        "selam",
        -9.809576473931804
      ],
      [
        "nefes",
        -9.809690839085686
      ],
      [
        "olunca",
        -9.810238343697737
      ],
      [
        "işlerini",
        -9.810612748767038
      ],
      [
        "çare",
        -9.810625411742677
      ],
      [
        "Saray",
        -9.81077917055513
      ],
      [
        "atıl",
        -9.810998382020395
      ],
      [
        "aralarında",
        -9.811099877305223
      ],
      [
        "getiri",
        -9.811331467228097
      ],
      [
        "vücudun",
        -9.81146477641412
      ],
      [
        "yenil",
        -9.811566437522636
      ],
      [
        "peşinde",
        -9.811896248614385
      ],
      [
        "tatil",
        -9.811993620839294
      ],
      [
        "başarıl",
        -9.811994398758756
      ],
      [
        "farkında",
        -9.812358742676379
      ],
      [
        "Saat",
        -9.812427018811338
      ],
      [
        "yüreği",
        -9.812675006940083
      ],
      [
        "algıla",
        -9.812744484465163
      ],
      [
        "bilinen",
        -9.813139281825904
      ],
      [
        "arkadaşım",
        -9.813292792194202
      ],
      [
        "makam",
        -9.813404137256487
      ],
      [
        "gelin",
        -9.814742750752416
      ],
      [
        "geliyordu",
        -9.815161255003941
      ],
      [
        "Hastane",
        -9.815186393234848
      ],
      [
        "alacağı",
        -9.81523587625784
      ],
      [
        "koyun",
        -9.815505790557859
      ],
      [
        "Sch",
        -9.815820387810636
      ],
      [
        "ceği",
        -9.815827492355856
      ],
      [
        "Çil",
        -9.81621467775219
      ],
      [
        "getiren",
        -9.816470869293845
      ],
      [
        "niha",
        -9.816585630701157
      ],
      [
        "ucuz",
        -9.816831028971894
      ],
      [
        "seyirci",
        -9.816895922936023
      ],
      [
        "baktığı",
        -9.817019941261625
      ],
      [
        "hissediyor",
        -9.817577341997419
      ],
      [
        "düşen",
        -9.81800020013221
      ],
      [
        "benden",
        -9.818255947947694
      ],
      [
        "uyarı",
        -9.818362772794906
      ],
      [
        "şer",
        -9.819723416724347
      ],
      [
        "Vi",
        -9.819994641994464
      ],
      [
        "bölgede",
        -9.820292006315567
      ],
      [
        "ucunda",
        -9.82110465151898
      ],
      [
        "çekilme",
        -9.821528748559535
      ],
      [
        "olmazsa",
        -9.821706740708327
      ],
      [
        "yürüye",
        -9.8219776640095
      ],
      [
        "açısın",
        -9.822121366342152
      ],
      [
        "otu",
        -9.822345885951368
      ],
      [
        "Otel",
        -9.822537140097948
      ],
      [
        "bakış",
        -9.822630341983608
      ],
      [
        "karı",
        -9.823538080317663
      ],
      [
        "yarışma",
        -9.823617872805482
      ],
      [
        "âlem",
        -9.823818002720047
      ],
      [
        "karşısındaki",
        -9.823968323516263
      ],
      [
        "şehir",
        -9.824179686396775
      ],
      [
        "Takım",
        -9.824629226428227
      ],
      [
        "str",
        -9.825170993360652
      ],
      [
        "oto",
        -9.825345782147313
      ],
      [
        "Gür",
        -9.825435186572527
      ],
      [
        "başvur",
        -9.825577834075018
      ],
      [
        "türkü",
        -9.825665624213952
      ],
      [
        "dök",
        -9.826198233979623
      ],
      [
        "hareketi",
        -9.82624547504356
      ],
      [
        "vermişti",
        -9.826616223140626
      ],
      [
        "abilecek",
        -9.826963833853242
      ],
      [
        "45",
        -9.827230461265314
      ],
      [
        "kitaplar",
        -9.82830239752283
      ],
      [
        "değerli",
        -9.828401933656222
      ],
      [
        "geçi",
        -9.828403169887604
      ],
      [
        "işin",
        -9.828992761955073
      ],
      [
        "rar",
        -9.829070566861098
      ],
      [
        "söylemek",
        -9.829113386062616
      ],
      [
        "Du",
        -9.829384404313215
      ],
      [
        "bildiril",
        -9.830022510485566
      ],
      [
        "mali",
        -9.830196186613328
      ],
      [
        "ymiş",
        -9.830812310359233
      ],
      [
        "Vak",
        -9.831028182573863
      ],
      [
        "yarar",
        -9.831125194573094
      ],
      [
        "abi",
        -9.831395383816325
      ],
      [
        "hanım",
        -9.831756781283453
      ],
      [
        "Son",
        -9.832564298948833
      ],
      [
        "Sel",
        -9.833703740753817
      ],
      [
        "koş",
        -9.83526540198458
      ],
      [
        "imizde",
        -9.835654620859543
      ],
      [
        "evine",
        -9.835810276180327
      ],
      [
        "bakar",
        -9.836486978354507
      ],
      [
        "mesajı",
        -9.836585609816233
      ],
      [
        "Kat",
        -9.837326075043226
      ],
      [
        "dakikada",
        -9.838038005488281
      ],
      [
        "birinci",
        -9.838750525471951
      ],
      [
        "vu",
        -9.838795831499127
      ],
      [
        "kesil",
        -9.838812399736865
      ],
      [
        "kurallar",
        -9.838860110326285
      ],
      [
        "gözlerini",
        -9.839429525537513
      ],
      [
        "Çocuk",
        -9.839700820376162
      ],
      [
        "isteme",
        -9.840134227282418
      ],
      [
        "meyecek",
        -9.840222655740684
      ],
      [
        "akla",
        -9.840241145556764
      ],
      [
        "uzay",
        -9.84080752049104
      ],
      [
        "yaptır",
        -9.840988196189931
      ],
      [
        "cuma",
        -9.841010675040922
      ],
      [
        "Senin",
        -9.841129012160682
      ],
      [
        "ıs",
        -9.842944488242427
      ],
      [
        "yolunda",
        -9.843483060625335
      ],
      [
        "lendi",
        -9.843562490402773
      ],
      [
        "İs",
        -9.843736733185635
      ],
      [
        "bay",
        -9.845591967609463
      ],
      [
        "isli",
        -9.845671374591026
      ],
      [
        "olmasın",
        -9.845981242458938
      ],
      [
        "taşıya",
        -9.846166645047408
      ],
      [
        "anayasa",
        -9.847289987381036
      ],
      [
        "olayı",
        -9.847352448183512
      ],
      [
        "Kaza",
        -9.84736091023563
      ],
      [
        "çocukları",
        -9.847677241601264
      ],
      [
        "ğünü",
        -9.848979438124214
      ],
      [
        "utan",
        -9.8490992757951
      ],
      [
        "Ter",
        -9.849407999879894
      ],
      [
        "babasını",
        -9.849606914718663
      ],
      [
        "ilme",
        -9.851535245679791
      ],
      [
        "kuruluş",
        -9.852436406551098
      ],
      [
        "bitti",
        -9.852568424298465
      ],
      [
        "redd",
        -9.854217973978662
      ],
      [
        "efendi",
        -9.85503471302119
      ],
      [
        "ecekti",
        -9.85613987045539
      ],
      [
        "yazılar",
        -9.856160185087138
      ],
      [
        "çiçek",
        -9.858303826471452
      ],
      [
        "diyorlar",
        -9.860053251493358
      ],
      [
        "günün",
        -9.860342083964857
      ],
      [
        "kendim",
        -9.860768029852808
      ],
      [
        "hırsız",
        -9.86095341665313
      ],
      [
        "tirdiği",
        -9.861028202626208
      ],
      [
        "üyor",
        -9.86139256344763
      ],
      [
        "yüzünü",
        -9.861770335231656
      ],
      [
        "etkin",
        -9.861772083403931
      ],
      [
        "kesinlik",
        -9.862161703988175
      ],
      [
        "plak",
        -9.862239964932051
      ],
      [
        "başarılar",
        -9.862378569434757
      ],
      [
        "urgu",
        -9.862386036426038
      ],
      [
        "Far",
        -9.862662073999099
      ],
      [
        "Fa",
        -9.86446995469554
      ],
      [
        "yitir",
        -9.865252579631628
      ],
      [
        "Dur",
        -9.865337376054004
      ],
      [
        "çıkış",
        -9.866048400063416
      ],
      [
        "ayın",
        -9.86682312779321
      ],
      [
        "Adı",
        -9.8668759737693
      ],
      [
        "durumun",
        -9.867198237342087
      ],
      [
        "düzenlen",
        -9.868375080048828
      ],
      [
        "rah",
        -9.868475598592582
      ],
      [
        "olamaz",
        -9.868793745008114
      ],
      [
        "niye",
        -9.868800137894011
      ],
      [
        "kapısını",
        -9.868864953997935
      ],
      [
        "krem",
        -9.868990572326208
      ],
      [
        "Yaşa",
        -9.86944267206318
      ],
      [
        "karşılaş",
        -9.870781045178278
      ],
      [
        "uğ",
        -9.87181472805987
      ],
      [
        "mamıştı",
        -9.872683406166054
      ],
      [
        "ayıp",
        -9.87274860637625
      ],
      [
        "lah",
        -9.872760605160842
      ],
      [
        "lanıyor",
        -9.873204152739106
      ],
      [
        "tay",
        -9.873321407460894
      ],
      [
        "öğretmeni",
        -9.873695153562377
      ],
      [
        "Kim",
        -9.873712477496618
      ],
      [
        "isimler",
        -9.873830957331277
      ],
      [
        "evleri",
        -9.875905479297561
      ],
      [
        "terk",
        -9.87641330910414
      ],
      [
        "esas",
        -9.876521727416609
      ],
      [
        "unuz",
        -9.876998969737823
      ],
      [
        "çizgi",
        -9.87711883312157
      ],
      [
        "Erte",
        -9.878121520920821
      ],
      [
        "gidere",
        -9.878334256523564
      ],
      [
        "Erke",
        -9.878467141248056
      ],
      [
        "canlı",
        -9.878566160083938
      ],
      [
        "çekin",
        -9.878819471785366
      ],
      [
        "makla",
        -9.879874033483171
      ],
      [
        "geçir",
        -9.880205613692468
      ],
      [
        "mamış",
        -9.88071576956127
      ],
      [
        "hiş",
        -9.881152181130426
      ],
      [
        "alınma",
        -9.881299439704307
      ],
      [
        "İnsanları",
        -9.881851017968787
      ],
      [
        "ikisi",
        -9.882768350797269
      ],
      [
        "kaybı",
        -9.883008044158656
      ],
      [
        "sanatçılar",
        -9.88324034160687
      ],
      [
        "Yıl",
        -9.884015231703948
      ],
      [
        "düştü",
        -9.884719137498081
      ],
      [
        "ebileceğini",
        -9.885349166989329
      ],
      [
        "koşullar",
        -9.885448487988588
      ],
      [
        "sürecin",
        -9.886059201967374
      ],
      [
        "Sayı",
        -9.886308650259274
      ],
      [
        "türk",
        -9.886883182837325
      ],
      [
        "Kurt",
        -9.887352267980436
      ],
      [
        "gitmek",
        -9.887652754536912
      ],
      [
        "madığı",
        -9.887800172672717
      ],
      [
        "adamı",
        -9.888537423664435
      ],
      [
        "umut",
        -9.889950906695667
      ],
      [
        "Kon",
        -9.890295285864688
      ],
      [
        "kimlik",
        -9.8907016877481
      ],
      [
        "pırıl",
        -9.891256497021164
      ],
      [
        "suların",
        -9.891684302439415
      ],
      [
        "yıka",
        -9.892855113978062
      ],
      [
        "gu",
        -9.893609981074995
      ],
      [
        "işini",
        -9.893739351798372
      ],
      [
        "dağıl",
        -9.893895181667917
      ],
      [
        "cesaret",
        -9.894380571799063
      ],
      [
        "Gerçek",
        -9.89484857028644
      ],
      [
        "kuvvet",
        -9.89532926436523
      ],
      [
        "Gaz",
        -9.895464460215369
      ],
      [
        "alındı",
        -9.895519758240106
      ],
      [
        "aptan",
        -9.895778968640581
      ],
      [
        "toplu",
        -9.896851245371465
      ],
      [
        "sınırları",
        -9.898465045160386
      ],
      [
        "hisse",
        -9.900387057912617
      ],
      [
        "stan",
        -9.901105395507754
      ],
      [
        "kalmadı",
        -9.90166295764356
      ],
      [
        "gösteriyor",
        -9.902190467640219
      ],
      [
        "ayım",
        -9.902637173591616
      ],
      [
        "ekip",
        -9.903045245676411
      ],
      [
        "dönemler",
        -9.903205608365214
      ],
      [
        "rem",
        -9.903802055633786
      ],
      [
        "yapış",
        -9.904480562452466
      ],
      [
        "kadının",
        -9.90473787711434
      ],
      [
        "memleket",
        -9.905005729192812
      ],
      [
        "çekildi",
        -9.905323624388487
      ],
      [
        "Ab",
        -9.905350886298198
      ],
      [
        "Yasa",
        -9.905983724643315
      ],
      [
        "bazıları",
        -9.906328321228989
      ],
      [
        "ailesi",
        -9.907153003815978
      ],
      [
        "dalga",
        -9.907524197112066
      ],
      [
        "diş",
        -9.908557059543433
      ],
      [
        "tri",
        -9.91042937789368
      ],
      [
        "görür",
        -9.911068727952308
      ],
      [
        "duruyor",
        -9.911604698007594
      ],
      [
        "aldığını",
        -9.912449779425039
      ],
      [
        "düzelt",
        -9.913351200071203
      ],
      [
        "çal",
        -9.914008080596966
      ],
      [
        "gözü",
        -9.914080239996506
      ],
      [
        "çıkması",
        -9.914753141263008
      ],
      [
        "dıkları",
        -9.914874087370146
      ],
      [
        "öyküleri",
        -9.915570974905057
      ],
      [
        "cami",
        -9.915774205230047
      ],
      [
        "uyku",
        -9.915858279164985
      ],
      [
        "Yoks",
        -9.916434883444163
      ],
      [
        "yaşamı",
        -9.916942088455455
      ],
      [
        "geçiri",
        -9.917042555184647
      ],
      [
        "meden",
        -9.91768239433449
      ],
      [
        "eline",
        -9.918004167972176
      ],
      [
        "Sad",
        -9.918649401431422
      ],
      [
        "örgüt",
        -9.919050452514952
      ],
      [
        "dra",
        -9.919605084961617
      ],
      [
        "laik",
        -9.920292345823286
      ],
      [
        "Yok",
        -9.920947082256824
      ],
      [
        "olduğunuz",
        -9.921114632080295
      ],
      [
        "yaşamak",
        -9.921321273981512
      ],
      [
        "ladığı",
        -9.921472307400293
      ],
      [
        "aj",
        -9.922416207682808
      ],
      [
        "çalışmalarını",
        -9.922539758328133
      ],
      [
        "Kul",
        -9.922903289634217
      ],
      [
        "ahi",
        -9.923035607563518
      ],
      [
        "ızın",
        -9.924099525291266
      ],
      [
        "konser",
        -9.924957608526146
      ],
      [
        "emin",
        -9.925180529380572
      ],
      [
        "faiz",
        -9.925207669071684
      ],
      [
        "Bağ",
        -9.926612522659237
      ],
      [
        "işçi",
        -9.927364879972199
      ],
      [
        "inizde",
        -9.928962717611064
      ],
      [
        "Hazi",
        -9.928968780224107
      ],
      [
        "Şah",
        -9.929111438649604
      ],
      [
        "namaz",
        -9.929560808804148
      ],
      [
        "kitabın",
        -9.929935020252614
      ],
      [
        "anlamın",
        -9.929967332282061
      ],
      [
        "kurulu",
        -9.930179833129932
      ],
      [
        "arı",
        -9.930347237674502
      ],
      [
        "fayda",
        -9.930572237115728
      ],
      [
        "yaygın",
        -9.930668483783613
      ],
      [
        "burnu",
        -9.930780979806684
      ],
      [
        "Mısır",
        -9.930790573041616
      ],
      [
        "kendileri",
        -9.931250207762067
      ],
      [
        "edilebilir",
        -9.931432924078628
      ],
      [
        "söyler",
        -9.931482970853626
      ],
      [
        "ekleyi",
        -9.931540934446424
      ],
      [
        "çarpı",
        -9.932176171981084
      ],
      [
        "yavru",
        -9.932340214349267
      ],
      [
        "ömür",
        -9.932358486552545
      ],
      [
        "Gaziantep",
        -9.932601584933446
      ],
      [
        "Televizyon",
        -9.932601641922304
      ],
      [
        "Antalya",
        -9.932601647718286
      ],
      [
        "disiplin",
        -9.932601879682604
      ],
      [
        "Nevruz",
        -9.932601937023286
      ],
      [
        "patates",
        -9.932601983707663
      ],
      [
        "yuvarlak",
        -9.932602025057351
      ],
      [
        "trilyon",
        -9.932602072096671
      ],
      [
        "Grubu",
        -9.932602185806903
      ],
      [
        "üzüntü",
        -9.932602478750756
      ],
      [
        "doğdu",
        -9.93260294956502
      ],
      [
        "gurur",
        -9.932603508124249
      ],
      [
        "Komisyonu",
        -9.932604228613616
      ],
      [
        "Eğitim",
        -9.932605843135375
      ],
      [
        "cinayet",
        -9.932606812714264
      ],
      [
        "teknoloji",
        -9.932607787181638
      ],
      [
        "beğen",
        -9.932618832349906
      ],
      [
        "BİR",
        -9.932619516052297
      ],
      [
        "suçlu",
        -9.93262227293365
      ],
      [
        "buğday",
        -9.932626412914818
      ],
      [
        "normal",
        -9.932628325888215
      ],
      [
        "köpek",
        -9.932628845186905
      ],
      [
        "Belçika",
        -9.93263006426852
      ],
      [
        "mesafe",
        -9.93263328479697
      ],
      [
        "bebek",
        -9.932633643765104
      ],
      [
        "hayret",
        -9.932634451483338
      ],
      [
        "rekabet",
        -9.93265169233361
      ],
      [
        "Direktör",
        -9.932653029381491
      ],
      [
        "dokuz",
        -9.93266277904969
      ],
      [
        "bomba",
        -9.932669566081259
      ],
      [
        "parlak",
        -9.93268392753097
      ],
      [
        "bahsed",
        -9.932698625308
      ],
      [
        "Roma",
        -9.932699438437798
      ],
      [
        "heyeti",
        -9.932699757938341
      ],
      [
        "yetenekleri",
        -9.932715486083431
      ],
      [
        "unsur",
        -9.93275536988559
      ],
      [
        "müziği",
        -9.932799232698368
      ],
      [
        "çıplak",
        -9.932862102852443
      ],
      [
        "tahta",
        -9.932868074790036
      ],
      [
        "düzenleme",
        -9.932878171909797
      ],
      [
        "Dost",
        -9.93297697399986
      ],
      [
        "fizik",
        -9.932978872266954
      ],
      [
        "özür",
        -9.933009652249153
      ],
      [
        "Evren",
        -9.933017550925769
      ],
      [
        "oynuyor",
        -9.933080385194032
      ],
      [
        "çekici",
        -9.93316383243859
      ],
      [
        "kuşağı",
        -9.933203081240979
      ],
      [
        "duy",
        -9.933305987903273
      ],
      [
        "döv",
        -9.933639747242381
      ],
      [
        "toprağ",
        -9.933724418196014
      ],
      [
        "düzenledi",
        -9.933806914470729
      ],
      [
        "çağırdı",
        -9.933834676108157
      ],
      [
        "Mesel",
        -9.9340396464831
      ],
      [
        "sınıfı",
        -9.934041429883958
      ],
      [
        "subay",
        -9.934123184933647
      ],
      [
        "kurmuş",
        -9.934133848011726
      ],
      [
        "Şey",
        -9.934149619974873
      ],
      [
        "başkent",
        -9.934311873235607
      ],
      [
        "İslam",
        -9.934329135508467
      ],
      [
        "taraftar",
        -9.93437344408754
      ],
      [
        "bitir",
        -9.934411992967508
      ],
      [
        "Seze",
        -9.934468251752762
      ],
      [
        "arzu",
        -9.934800355510474
      ],
      [
        "cezası",
        -9.934807677017146
      ],
      [
        "edebiyat",
        -9.934852990678927
      ],
      [
        "kabın",
        -9.934992545474703
      ],
      [
        "yaparken",
        -9.935083280903875
      ],
      [
        "canım",
        -9.935112782372979
      ],
      [
        "Akre",
        -9.93515398792899
      ],
      [
        "kaleci",
        -9.935288695120747
      ],
      [
        "belirtildi",
        -9.935292368281043
      ],
      [
        "döndü",
        -9.935583022142234
      ],
      [
        "Bazı",
        -9.935634855753287
      ],
      [
        "Şii",
        -9.935814741434164
      ],
      [
        "devir",
        -9.935972096732627
      ],
      [
        "çalıştı",
        -9.936121244716077
      ],
      [
        "anlattığı",
        -9.93622838673904
      ],
      [
        "Sergi",
        -9.936481061881473
      ],
      [
        "İlha",
        -9.936565300720414
      ],
      [
        "anlatma",
        -9.936660767779898
      ],
      [
        "Tam",
        -9.936707683784306
      ],
      [
        "zararlı",
        -9.93677270715996
      ],
      [
        "Aslan",
        -9.936825713108489
      ],
      [
        "sınırlı",
        -9.93720170551123
      ],
      [
        "sarımsak",
        -9.937295162877762
      ],
      [
        "Mura",
        -9.937411640591034
      ],
      [
        "kazanmış",
        -9.937707790940184
      ],
      [
        "Beş",
        -9.937926111785046
      ],
      [
        "yasal",
        -9.938173533725198
      ],
      [
        "Sevgili",
        -9.938288064088669
      ],
      [
        "adres",
        -9.93829957631737
      ],
      [
        "Bilgi",
        -9.938612344643138
      ],
      [
        "yolda",
        -9.938705899172298
      ],
      [
        "bulunduğunu",
        -9.938825789391965
      ],
      [
        "mısır",
        -9.938931196569644
      ],
      [
        "aktarı",
        -9.93923361353768
      ],
      [
        "toplantısında",
        -9.939250865995513
      ],
      [
        "şirketin",
        -9.939593902968493
      ],
      [
        "hakem",
        -9.939760008053414
      ],
      [
        "Derne",
        -9.939808949593486
      ],
      [
        "kadınların",
        -9.939895021770196
      ],
      [
        "Ardı",
        -9.940015514831131
      ],
      [
        "korumak",
        -9.940072188445134
      ],
      [
        "gaye",
        -9.940544714873171
      ],
      [
        "cins",
        -9.940599613246611
      ],
      [
        "vah",
        -9.940699033577294
      ],
      [
        "Kadını",
        -9.940965819302626
      ],
      [
        "sunda",
        -9.941054652826242
      ],
      [
        "Okulu",
        -9.941943974247678
      ],
      [
        "Söyle",
        -9.94197059383397
      ],
      [
        "ydü",
        -9.942033077226387
      ],
      [
        "kaynatı",
        -9.942164768549716
      ],
      [
        "Mo",
        -9.942433968624567
      ],
      [
        "Kimse",
        -9.942590426877668
      ],
      [
        "pan",
        -9.942938225351309
      ],
      [
        "Yemek",
        -9.942943625104899
      ],
      [
        "Hani",
        -9.943413119914736
      ],
      [
        "Mali",
        -9.944136325289563
      ],
      [
        "hay",
        -9.944562242167045
      ],
      [
        "görevli",
        -9.945196514755526
      ],
      [
        "miydi",
        -9.945313764142753
      ],
      [
        "kaçın",
        -9.945455738244839
      ],
      [
        "mas",
        -9.94559244821613
      ],
      [
        "İnan",
        -9.94579770646567
      ],
      [
        "sistem",
        -9.945813537083811
      ],
      [
        "özen",
        -9.945912318106089
      ],
      [
        "sakin",
        -9.946334014279671
      ],
      [
        "duyarlı",
        -9.94655066300411
      ],
      [
        "layınca",
        -9.946958651584625
      ],
      [
        "durumunda",
        -9.947010033582867
      ],
      [
        "belirli",
        -9.947509953537152
      ],
      [
        "biliyorsun",
        -9.947583667431893
      ],
      [
        "başım",
        -9.94763054647262
      ],
      [
        "ayrılma",
        -9.947671321117069
      ],
      [
        "ESİ",
        -9.947676062374013
      ],
      [
        "bakın",
        -9.947780830480024
      ],
      [
        "Jü",
        -9.949005132053445
      ],
      [
        "leş",
        -9.949340165083811
      ],
      [
        "olanak",
        -9.950902857698953
      ],
      [
        "tartış",
        -9.9509261382765
      ],
      [
        "örgütü",
        -9.950974080034042
      ],
      [
        "hatırlat",
        -9.951449967983697
      ],
      [
        "tutmak",
        -9.95152582818899
      ],
      [
        "çalıştır",
        -9.95212391906419
      ],
      [
        "inanma",
        -9.952130882076935
      ],
      [
        "ger",
        -9.952254124249238
      ],
      [
        "önder",
        -9.952860602440161
      ],
      [
        "süzü",
        -9.953018599591683
      ],
      [
        "başlık",
        -9.95309061474147
      ],
      [
        "gibiydi",
        -9.95313209471134
      ],
      [
        "kilo",
        -9.953157220717141
      ],
      [
        "hard",
        -9.953370672076504
      ],
      [
        "fre",
        -9.95359389045774
      ],
      [
        "tiyatrosu",
        -9.954603746133557
      ],
      [
        "kendimi",
        -9.95461334408194
      ],
      [
        "yılların",
        -9.95521276405657
      ],
      [
        "fel",
        -9.95539663594913
      ],
      [
        "Ek",
        -9.955400447453208
      ],
      [
        "abilmesi",
        -9.955451018504974
      ],
      [
        "Kap",
        -9.95627888177921
      ],
      [
        "sün",
        -9.956712974941398
      ],
      [
        "edilme",
        -9.956719460782779
      ],
      [
        "sürdür",
        -9.957093126632628
      ],
      [
        "Başka",
        -9.957716235265172
      ],
      [
        "sır",
        -9.958084569022907
      ],
      [
        "isi",
        -9.959329701328931
      ],
      [
        "hepimiz",
        -9.959330641609576
      ],
      [
        "açtığı",
        -9.959755273891005
      ],
      [
        "niyet",
        -9.95978895903256
      ],
      [
        "bez",
        -9.96006063502476
      ],
      [
        "anti",
        -9.960316207584302
      ],
      [
        "bölgesin",
        -9.960784261619004
      ],
      [
        "LI",
        -9.961054536581667
      ],
      [
        "suyunu",
        -9.96130556594561
      ],
      [
        "kaza",
        -9.961649885096184
      ],
      [
        "kullandığı",
        -9.961791049491246
      ],
      [
        "yansı",
        -9.962742829938128
      ],
      [
        "çağrı",
        -9.96319854000153
      ],
      [
        "kendisin",
        -9.963492917761384
      ],
      [
        "Köy",
        -9.963877606009973
      ],
      [
        "başa",
        -9.964124771015527
      ],
      [
        "ağacı",
        -9.96482362885051
      ],
      [
        "kla",
        -9.965022139876638
      ],
      [
        "şma",
        -9.96588092131683
      ],
      [
        "anlatır",
        -9.9659106314286
      ],
      [
        "edilmişti",
        -9.966437632359366
      ],
      [
        "yönel",
        -9.966767650209306
      ],
      [
        "sezonu",
        -9.966944298072711
      ],
      [
        "kazana",
        -9.967015570661077
      ],
      [
        "Aşağıda",
        -9.967030816228345
      ],
      [
        "NAT",
        -9.967332185171761
      ],
      [
        "tanrı",
        -9.968731087681133
      ],
      [
        "verildi",
        -9.96909607330537
      ],
      [
        "gördüğüm",
        -9.969247957394932
      ],
      [
        "alınması",
        -9.969290656498899
      ],
      [
        "olacağını",
        -9.970061530592636
      ],
      [
        "sah",
        -9.970494151120747
      ],
      [
        "oluyordu",
        -9.97099150116964
      ],
      [
        "dalları",
        -9.971588661248184
      ],
      [
        "diz",
        -9.97161329200042
      ],
      [
        "uğraşı",
        -9.97228205407333
      ],
      [
        "müslümanlar",
        -9.973110792756792
      ],
      [
        "faka",
        -9.974468616216503
      ],
      [
        "yapıldı",
        -9.97509862538692
      ],
      [
        "geçmesi",
        -9.97536372558121
      ],
      [
        "uhaf",
        -9.975536391949806
      ],
      [
        "Van",
        -9.975748747499912
      ],
      [
        "çoktan",
        -9.978598973320054
      ],
      [
        "ilen",
        -9.979207600037638
      ],
      [
        "sanı",
        -9.979479146325223
      ],
      [
        "SK",
        -9.979596652436722
      ],
      [
        "yönde",
        -9.979929708664194
      ],
      [
        "etkili",
        -9.980364038355818
      ],
      [
        "iye",
        -9.980870102763848
      ],
      [
        "bulmuş",
        -9.980937819280264
      ],
      [
        "soyun",
        -9.981483336821727
      ],
      [
        "Tuz",
        -9.981855119750724
      ],
      [
        "eti",
        -9.982007403034084
      ],
      [
        "sağlaya",
        -9.982471272954193
      ],
      [
        "kazandı",
        -9.982937630334481
      ],
      [
        "Dü",
        -9.983257813171345
      ],
      [
        "istediğim",
        -9.984756877928508
      ],
      [
        "sürede",
        -9.985690744127684
      ],
      [
        "70",
        -9.98569292364468
      ],
      [
        "demokrasi",
        -9.985905852392994
      ],
      [
        "isyan",
        -9.986472191751652
      ],
      [
        "elma",
        -9.987933585039737
      ],
      [
        "suzluk",
        -9.988845319764447
      ],
      [
        "ilim",
        -9.989797976981437
      ],
      [
        "yaşıyor",
        -9.990187438141074
      ],
      [
        "alanın",
        -9.990704996583638
      ],
      [
        "değiştirme",
        -9.990826821808763
      ],
      [
        "koruya",
        -9.991125004493123
      ],
      [
        "uydu",
        -9.991483748091147
      ],
      [
        "Çan",
        -9.992309280865262
      ],
      [
        "dönme",
        -9.99302513547386
      ],
      [
        "gözük",
        -9.994202252239516
      ],
      [
        "işlem",
        -9.99490756239961
      ],
      [
        "Göz",
        -9.996007609034118
      ],
      [
        "işler",
        -9.996509496873596
      ],
      [
        "yaşamını",
        -9.997769606970532
      ],
      [
        "üstlen",
        -9.997782179750512
      ],
      [
        "şehirler",
        -9.998228749565884
      ],
      [
        "maddeleri",
        -9.998259983482312
      ],
      [
        "döner",
        -9.999054702241995
      ],
      [
        "hazırla",
        -10.001122806244624
      ],
      [
        "ederler",
        -10.001527415959792
      ],
      [
        "çalışmalar",
        -10.00219834551429
      ],
      [
        "alanında",
        -10.00263673933198
      ],
      [
        "ötesin",
        -10.002663688584436
      ],
      [
        "isimlerin",
        -10.003337561752344
      ],
      [
        "uş",
        -10.003369489930588
      ],
      [
        "sünü",
        -10.004428259062474
      ],
      [
        "mektup",
        -10.00463435908997
      ],
      [
        "gal",
        -10.005609141113837
      ],
      [
        "sayıda",
        -10.006608928576265
      ],
      [
        "bilme",
        -10.007463150128183
      ],
      [
        "kalmıştı",
        -10.00804901918293
      ],
      [
        "aşmış",
        -10.008155369842658
      ],
      [
        "zam",
        -10.008807552237958
      ],
      [
        "fotoğraflar",
        -10.00895389001278
      ],
      [
        "avr",
        -10.009520686100224
      ],
      [
        "Elma",
        -10.01003736414205
      ],
      [
        "başların",
        -10.010876250811862
      ],
      [
        "köprü",
        -10.011861903289102
      ],
      [
        "istemiyoru",
        -10.012311716382342
      ],
      [
        "birbirlerin",
        -10.014431534877488
      ],
      [
        "abileceğini",
        -10.015417867364455
      ],
      [
        "edilmiş",
        -10.01595528580855
      ],
      [
        "?..",
        -10.017184227214402
      ],
      [
        "başlı",
        -10.019324128265861
      ],
      [
        "indir",
        -10.02039882299631
      ],
      [
        "Sin",
        -10.020841184048994
      ],
      [
        "yolları",
        -10.02092975466961
      ],
      [
        "konuş",
        -10.021005988959109
      ],
      [
        "Kimi",
        -10.02109861708033
      ],
      [
        "parçaları",
        -10.021208578180726
      ],
      [
        "vücut",
        -10.0217108518714
      ],
      [
        "ihtiyacı",
        -10.023835463055248
      ],
      [
        "filmin",
        -10.024974005425536
      ],
      [
        "Yen",
        -10.02515280697185
      ],
      [
        "ekir",
        -10.02557253653848
      ],
      [
        "gök",
        -10.026438602199693
      ],
      [
        "yiye",
        -10.02654257997548
      ],
      [
        "sonucun",
        -10.026751526181991
      ],
      [
        "Birçok",
        -10.026842906622218
      ],
      [
        "araçları",
        -10.027987044095811
      ],
      [
        "aydınlı",
        -10.028416602360842
      ],
      [
        "uncu",
        -10.028820662270768
      ],
      [
        "ulaştı",
        -10.028863221886247
      ],
      [
        "eşit",
        -10.02907795431103
      ],
      [
        "çığlıklar",
        -10.031263684734585
      ],
      [
        "hazırlan",
        -10.031579492544529
      ],
      [
        "müdürü",
        -10.032588436072805
      ],
      [
        "kazı",
        -10.033242285634392
      ],
      [
        "savun",
        -10.03424869191146
      ],
      [
        "verilme",
        -10.03479207584029
      ],
      [
        "gördüğü",
        -10.03500564818707
      ],
      [
        "gereği",
        -10.03522912443415
      ],
      [
        "parmak",
        -10.036014372923557
      ],
      [
        "sağlığı",
        -10.036196855443464
      ],
      [
        "tarz",
        -10.036886348228224
      ],
      [
        "kira",
        -10.037290846635546
      ],
      [
        "ağa",
        -10.038303953739968
      ],
      [
        "İsa",
        -10.038518002834863
      ],
      [
        "örnekler",
        -10.038531655510226
      ],
      [
        "çu",
        -10.038717719094501
      ],
      [
        "Karşı",
        -10.041111975088253
      ],
      [
        "ağız",
        -10.041271285678576
      ],
      [
        "okulu",
        -10.041623031729328
      ],
      [
        "90",
        -10.042105298158884
      ],
      [
        "evin",
        -10.042717200130081
      ],
      [
        "seçimler",
        -10.043393288260399
      ],
      [
        "bakı",
        -10.043778244614696
      ],
      [
        "Babamı",
        -10.043859041654137
      ],
      [
        "satış",
        -10.044562024697669
      ],
      [
        "ümüz",
        -10.044872938418
      ],
      [
        "yayınlan",
        -10.045194715813507
      ],
      [
        "biçim",
        -10.045418452761519
      ],
      [
        "Met",
        -10.04568094386795
      ],
      [
        "kucak",
        -10.04665518283776
      ],
      [
        "alınır",
        -10.047053843144225
      ],
      [
        "80",
        -10.047138968451977
      ],
      [
        "jan",
        -10.047593411473477
      ],
      [
        "içindeki",
        -10.049332578273658
      ],
      [
        "AŞ",
        -10.049911728225723
      ],
      [
        "şans",
        -10.050366436579099
      ],
      [
        "Kuş",
        -10.050556805775724
      ],
      [
        "getirir",
        -10.05119532969877
      ],
      [
        "mesel",
        -10.052674126592265
      ],
      [
        "bulduğu",
        -10.052863482854722
      ],
      [
        "cilik",
        -10.053700448999814
      ],
      [
        "İçi",
        -10.0539438742316
      ],
      [
        "işliyor",
        -10.05394471231808
      ],
      [
        "yöntem",
        -10.054899917498572
      ],
      [
        "zamanlarda",
        -10.055004144668244
      ],
      [
        "biliyordu",
        -10.055200907464892
      ],
      [
        "kova",
        -10.057211911653008
      ],
      [
        "kafası",
        -10.057349776151968
      ],
      [
        "pal",
        -10.058245003665514
      ],
      [
        "yapabilir",
        -10.058501409602995
      ],
      [
        "başlamış",
        -10.05856379208834
      ],
      [
        "iman",
        -10.05888838879404
      ],
      [
        "öldür",
        -10.059488190114973
      ],
      [
        "ktaş",
        -10.059718607422816
      ],
      [
        "devri",
        -10.060956158733163
      ],
      [
        "noktasın",
        -10.06229508183598
      ],
      [
        "vade",
        -10.063003490341892
      ],
      [
        "heyecanla",
        -10.063072138325008
      ],
      [
        "dair",
        -10.064341131748712
      ],
      [
        "değerlendiril",
        -10.06480093440605
      ],
      [
        "üzeri",
        -10.064913382502322
      ],
      [
        "Hava",
        -10.064924769675912
      ],
      [
        "meliyi",
        -10.065044535158465
      ],
      [
        "duyguları",
        -10.066145543985149
      ],
      [
        "Ğ",
        -10.067306707654224
      ],
      [
        "düşer",
        -10.068126488890949
      ],
      [
        "Dev",
        -10.068405494974257
      ],
      [
        "alanlar",
        -10.06882370601074
      ],
      [
        "katılım",
        -10.069931405086876
      ],
      [
        "Söz",
        -10.071644429253084
      ],
      [
        "yıldız",
        -10.071675122238466
      ],
      [
        "IM",
        -10.071838681788195
      ],
      [
        "lerimi",
        -10.07186223062069
      ],
      [
        "tamamla",
        -10.07188965733306
      ],
      [
        "izleme",
        -10.07205798001242
      ],
      [
        "yanımda",
        -10.072164077479595
      ],
      [
        "yönetici",
        -10.072781721449358
      ],
      [
        "eğil",
        -10.07301485745589
      ],
      [
        "bilmiyor",
        -10.073109655721408
      ],
      [
        "siyon",
        -10.073467029519032
      ],
      [
        "haş",
        -10.07368664797784
      ],
      [
        "milliyetçi",
        -10.073806244871355
      ],
      [
        "çözüm",
        -10.074032081176378
      ],
      [
        "öğreti",
        -10.074044900575256
      ],
      [
        "û",
        -10.074491110191675
      ],
      [
        "sabır",
        -10.0749364260217
      ],
      [
        "hoca",
        -10.075032889373853
      ],
      [
        "alata",
        -10.075360370735533
      ],
      [
        "Güney",
        -10.075391980984563
      ],
      [
        "yunca",
        -10.07542745884393
      ],
      [
        "Şampiyon",
        -10.075458712039126
      ],
      [
        "Erzurum",
        -10.075458719305647
      ],
      [
        "Muhammed",
        -10.075458722559217
      ],
      [
        "elektrik",
        -10.075458739574772
      ],
      [
        "Yardımcı",
        -10.07545876311227
      ],
      [
        "komutanın",
        -10.07545879730402
      ],
      [
        "Hollanda",
        -10.075458811156079
      ],
      [
        "John",
        -10.075458830528463
      ],
      [
        "meşgul",
        -10.075458842914905
      ],
      [
        "çamaşır",
        -10.07545891865715
      ],
      [
        "peynir",
        -10.075458946816083
      ],
      [
        "Hazret",
        -10.075459238753735
      ],
      [
        "evrensel",
        -10.07545950434401
      ],
      [
        "Ekonomi",
        -10.075459853740206
      ],
      [
        "Afrika",
        -10.075460317643513
      ],
      [
        "öğle",
        -10.075460845512264
      ],
      [
        "Bahçe",
        -10.07546090495686
      ],
      [
        "sebebi",
        -10.075464718141447
      ],
      [
        "ürriyet",
        -10.075464756420216
      ],
      [
        "Üzeri",
        -10.075465622103929
      ],
      [
        "Yeşil",
        -10.075466261543848
      ],
      [
        "olağan",
        -10.075468328395838
      ],
      [
        "Cihan",
        -10.0754740479815
      ],
      [
        "işkence",
        -10.075478372925568
      ],
      [
        "Silah",
        -10.075481881789326
      ],
      [
        "Güvenli",
        -10.075483133977173
      ],
      [
        "lamazdı",
        -10.075483471411669
      ],
      [
        "doğma",
        -10.075497543700868
      ],
      [
        "Ayşe",
        -10.075499871422654
      ],
      [
        "suçlama",
        -10.075500324762018
      ],
      [
        "Hıristiyan",
        -10.075504936679412
      ],
      [
        "Sıcak",
        -10.075508174879653
      ],
      [
        "Belediye",
        -10.075524324535012
      ],
      [
        "çözme",
        -10.075529414749308
      ],
      [
        "Tatlı",
        -10.07553407568518
      ],
      [
        "paket",
        -10.075603561464632
      ],
      [
        "sürdürüyor",
        -10.075611675281442
      ],
      [
        "edildiğin",
        -10.075635704654855
      ],
      [
        "verimli",
        -10.075688749500058
      ],
      [
        "kulak",
        -10.075719857294239
      ],
      [
        "Hint",
        -10.075724536423108
      ],
      [
        "Koç",
        -10.075724647923895
      ],
      [
        "özgürlük",
        -10.075742444925043
      ],
      [
        "bayrak",
        -10.075817302588689
      ],
      [
        "belirleme",
        -10.075886433810831
      ],
      [
        "yolculuk",
        -10.075904294101022
      ],
      [
        "bekleyen",
        -10.0759452349588
      ],
      [
        "çarpıcı",
        -10.075972668597384
      ],
      [
        "görünüyor",
        -10.076070367769427
      ],
      [
        "yazılmış",
        -10.076071268190509
      ],
      [
        "hazine",
        -10.076216617645084
      ],
      [
        "Sağlık",
        -10.076283904804871
      ],
      [
        "yangın",
        -10.076286042586572
      ],
      [
        "başlattı",
        -10.076298929587464
      ],
      [
        "yürütme",
        -10.076332330939135
      ],
      [
        "şef",
        -10.07633626494183
      ],
      [
        "vazgeç",
        -10.076363015330516
      ],
      [
        "moral",
        -10.07637561775923
      ],
      [
        "fikri",
        -10.076414010182656
      ],
      [
        "ödeme",
        -10.07644510957162
      ],
      [
        "Kent",
        -10.076468374884513
      ],
      [
        "slan",
        -10.076549291954883
      ],
      [
        "Resim",
        -10.076610745776762
      ],
      [
[...]
