{
  "version": "1.0",
  "truncation": null,
  "padding": null,
  "added_tokens": [
    {
      "id": 0,
      "special": true,
      "content": "<UNK>",
      "single_word": false,
      "lstrip": false,
      "rstrip": false,
      "normalized": false
    },
    {
      "id": 1,
      "special": true,
      "content": "<SEP>",
      "single_word": false,
      "lstrip": false,
      "rstrip": false,
      "normalized": false
    },
    {
      "id": 2,
      "special": true,
      "content": "<MASK>",
      "single_word": false,
      "lstrip": false,
      "rstrip": false,
      "normalized": false
    },
    {
      "id": 3,
      "special": true,
      "content": "<CLS>",
      "single_word": false,
      "lstrip": false,
      "rstrip": false,
      "normalized": false
    }
  ],
  "normalizer": null,
  "pre_tokenizer": {
    "type": "Whitespace"
  },
  "post_processor": null,
  "decoder": null,
  "model": {
    "type": "WordPiece",
    "unk_token": "<UNK>",
    "continuing_subword_prefix": "##",
    "max_input_chars_per_word": 100,
    "vocab": {
      "<UNK>": 0,
      "<SEP>": 1,
      "<MASK>": 2,
      "<CLS>": 3,
      "!": 4,
      "\"": 5,
      "%": 6,
      "'": 7,
      "(": 8,
      ")": 9,
      "*": 10,
      "+": 11,
      ",": 12,
      "-": 13,
      ".": 14,
      "/": 15,
      "0": 16,
      "1": 17,
      "2": 18,
      "3": 19,
      "4": 20,
      "5": 21,
      "6": 22,
      "7": 23,
      "8": 24,
      "9": 25,
      ":": 26,
      ";": 27,
      "=": 28,
      "?": 29,
      "A": 30,
      "B": 31,
      "C": 32,
      "D": 33,
      "E": 34,
      "F": 35,
      "G": 36,
      "H": 37,
      "I": 38,
      "J": 39,
      "K": 40,
      "L": 41,
      "M": 42,
      "N": 43,
      "O": 44,
      "P": 45,
      "Q": 46,
      "R": 47,
      "S": 48,
      "T": 49,
      "U": 50,
      "V": 51,
      "W": 52,
      "X": 53,
      "Y": 54,
      "Z": 55,
      "a": 56,
      "b": 57,
      "c": 58,
      "d": 59,
      "e": 60,
      "f": 61,
      "g": 62,
      "h": 63,
      "i": 64,
      "j": 65,
      "k": 66,
      "l": 67,
      "m": 68,
      "n": 69,
      "o": 70,
      "p": 71,
      "q": 72,
      "r": 73,
      "s": 74,
      "t": 75,
      "u": 76,
      "v": 77,
      "w": 78,
      "x": 79,
      "y": 80,
      "z": 81,
      "|": 82,
      "Â": 83,
      "Ç": 84,
      "Î": 85,
      "Ö": 86,
      "Ü": 87,
      "â": 88,
      "ç": 89,
      "è": 90,
      "é": 91,
      "ö": 92,
      "û": 93,
      "ü": 94,
      "Ğ": 95,
      "ğ": 96,
      "İ": 97,
      "ı": 98,
      "Ş": 99,
      "ş": 100,
      "—": 101,
      "’": 102,
      "“": 103,
      "”": 104,
      "■": 105,
      "##e": 106,
      "##n": 107,
      "##i": 108,
      "##z": 109,
      "##7": 110,
      "##2": 111,
      "##a": 112,
      "##ş": 113,
      "##u": 114,
      "##r": 115,
      "##t": 116,
      "##ü": 117,
      "##b": 118,
      "##y": 119,
      "##k": 120,
      "##l": 121,
      "##d": 122,
      "##ı": 123,
      "##ğ": 124,
      "##o": 125,
      "##m": 126,
      "##h": 127,
      "##c": 128,
      "##s": 129,
      "##g": 130,
      "##v": 131,
      "##f": 132,
      "##ö": 133,
      "##ç": 134,
      "##:": 135,
      "##p": 136,
      "##O": 137,
      "##Ş": 138,
      "##â": 139,
      "##Ü": 140,
      "##T": 141,
      "##A": 142,
      "##H": 143,
      "##Y": 144,
      "##j": 145,
      "##İ": 146,
      "##L": 147,
      "##K": 148,
      "##R": 149,
      "##9": 150,
      "##S": 151,
      "##q": 152,
      "##E": 153,
      "##V": 154,
      "##1": 155,
      "##0": 156,
      "##U": 157,
      "##Ç": 158,
      "##C": 159,
      "##N": 160,
      "##Z": 161,
      "##D": 162,
      "##û": 163,
      "##3": 164,
      "##I": 165,
      "##P": 166,
      "##\"": 167,
      "##4": 168,
      "##6": 169,
      "##M": 170,
      "##5": 171,
      "##Ö": 172,
      "##G": 173,
      "##.": 174,
      "##W": 175,
      "##Ğ": 176,
      "##'": 177,
      "##B": 178,
      "##8": 179,
      "##F": 180,
      "##w": 181,
      "##Â": 182,
      "##è": 183,
      "##*": 184,
      "##)": 185,
      "##,": 186,
      "##x": 187,
      "##é": 188,
      "##!": 189,
      "##Q": 190,
      "##J": 191,
      "##-": 192,
      "##Î": 193,
      "##la": 194,
      "##er": 195,
      "##in": 196,
      "##an": 197,
      "##ın": 198,
      "##en": 199,
      "##ir": 200,
      "##ar": 201,
      "##lar": 202,
      "##ak": 203,
      "##il": 204,
      "##ma": 205,
      "##ek": 206,
      "##ler": 207,
      "##le": 208,
      "##un": 209,
      "##or": 210,
      "bir": 211,
      "##da": 212,
      "##de": 213,
      "##lı": 214,
      "##li": 215,
      "##di": 216,
      "##dı": 217,
      "de": 218,
      "##ün": 219,
      "ya": 220,
      "##me": 221,
      "##iy": 222,
      "##tı": 223,
      "##ur": 224,
      "ka": 225,
      "##im": 226,
      "ve": 227,
      "##on": 228,
      "##iz": 229,
      "##et": 230,
      "##ya": 231,
      "##ra": 232,
      "##el": 233,
      "da": 234,
      "##ür": 235,
      "##lan": 236,
      "ol": 237,
      "##st": 238,
      "##es": 239,
      "##du": 240,
      "##yor": 241,
      "##at": 242,
      "##mı": 243,
      "##aş": 244,
      "##ını": 245,
      "##sı": 246,
      "bu": 247,
      "##ğı": 248,
      "##iş": 249,
      "##den": 250,
      "##ik": 251,
      "##ey": 252,
      "##em": 253,
      "##dan": 254,
      "##ok": 255,
      "##um": 256,
      "##ta": 257,
      "gö": 258,
      "##ları": 259,
      "##ini": 260,
      "##al": 261,
      "##ların": 262,
      "##ine": 263,
      "##ce": 264,
      "##ul": 265,
      "iç": 266,
      "##ay": 267,
      "##am": 268,
      "##ık": 269,
      "##ır": 270,
      "##ıl": 271,
      "##ab": 272,
      "##it": 273,
      "##üz": 274,
      "##az": 275,
      "##is": 276,
      "yap": 277,
      "##uş": 278,
      "##ah": 279,
      "in": 280,
      "##inde": 281,
      "##ında": 282,
      "##ük": 283,
      "##ol": 284,
      "##ti": 285,
      "##leri": 286,
      "baş": 287,
      "##as": 288,
      "an": 289,
      "kar": 290,
      "##ev": 291,
      "##ca": 292,
      "##şı": 293,
      "ge": 294,
      "##cak": 295,
      "##mış": 296,
      "##oğ": 297,
      "##uz": 298,
      "##iyor": 299,
      "##anı": 300,
      "##üş": 301,
      "##te": 302,
      "##lik": 303,
      "##..": 304,
      "##üm": 305,
      "son": 306,
      "##ği": 307,
      "gör": 308,
      "için": 309,
      "##ut": 310,
      "##iler": 311,
      "##lık": 312,
      "##iye": 313,
      "##uk": 314,
      "##dır": 315,
      "##öy": 316,
      "##mak": 317,
      "...": 318,
      "##inin": 319,
      "gi": 320,
      "ha": 321,
      "##miş": 322,
      "##ına": 323,
      "et": 324,
      "##dir": 325,
      "bil": 326,
      "sa": 327,
      "##mek": 328,
      "oldu": 329,
      "##ara": 330,
      "##bi": 331,
      "##tır": 332,
      "ne": 333,
      "##unu": 334,
      "##ka": 335,
      "##ürk": 336,
      "##ön": 337,
      "değ": 338,
      "ön": 339,
      "##bil": 340,
      "##ül": 341,
      "al": 342,
      "##ki": 343,
      "##sa": 344,
      "Bu": 345,
      "ver": 346,
      "##se": 347,
      "##arı": 348,
      "##yı": 349,
      "ger": 350,
      "kon": 351,
      "##lu": 352,
      "##alı": 353,
      "##ha": 354,
      "çok": 355,
      "##len": 356,
      "kad": 357,
      "yer": 358,
      "var": 359,
      "on": 360,
      "ay": 361,
      "gel": 362,
      "##öyle": 363,
      "gün": 364,
      "##tir": 365,
      "ar": 366,
      "##san": 367,
      "##aki": 368,
      "##eş": 369,
      "en": 370,
      "##mes": 371,
      "ara": 372,
      "##uy": 373,
      "##op": 374,
      "##cı": 375,
      "##lerin": 376,
      "##üy": 377,
      "yaş": 378,
      "Türk": 379,
      "gibi": 380,
      "çık": 381,
      "##ken": 382,
      "##us": 383,
      "ken": 384,
      "##eki": 385,
      "##iç": 386,
      "##ec": 387,
      "ko": 388,
      "##lk": 389,
      "##eni": 390,
      "##man": 391,
      "olma": 392,
      "her": 393,
      "##dığı": 394,
      "##mız": 395,
      "yıl": 396,
      "olduğ": 397,
      "Bir": 398,
      "iş": 399,
      "ist": 400,
      "##mey": 401,
      "##tan": 402,
      "##ız": 403,
      "##larak": 404,
      "aç": 405,
      "sonra": 406,
      "##ının": 407,
      "geç": 408,
      "te": 409,
      "##ış": 410,
      "ile": 411,
      "##ağ": 412,
      "düş": 413,
      "##laş": 414,
      "##ez": 415,
      "daha": 416,
      "bul": 417,
      "##aman": 418,
      "##larını": 419,
      "##yan": 420,
      "##maya": 421,
      "kur": 422,
      "##ından": 423,
      "olarak": 424,
      "##der": 425,
      "ki": 426,
      "or": 427,
      "yan": 428,
      "##ğını": 429,
      "olan": 430,
      "##ci": 431,
      "##yordu": 432,
      "##üt": 433,
      "##ması": 434,
      "anla": 435,
      "##esi": 436,
      "sür": 437,
      "##ası": 438,
      "##ör": 439,
      "zaman": 440,
      "kadar": 441,
      "doğ": 442,
      "şey": 443,
      "An": 444,
      "çalı": 445,
      "##ım": 446,
      "##imiz": 447,
      "##yla": 448,
      "##daki": 449,
      "##ru": 450,
      "ola": 451,
      "##zer": 452,
      "##lara": 453,
      "ben": 454,
      "dur": 455,
      "##ip": 456,
      "insan": 457,
      "karşı": 458,
      "yaz": 459,
      "##diğ": 460,
      "##lerini": 461,
      "##diği": 462,
      "##muş": 463,
      "##öz": 464,
      "bel": 465,
      "el": 466,
      "büy": 467,
      "##tur": 468,
      "##lü": 469,
      "##dım": 470,
      "##lg": 471,
      "##dil": 472,
      "##unda": 473,
      "##ana": 474,
      "##sında": 475,
      "değil": 476,
      "top": 477,
      "##ap": 478,
      "dön": 479,
      "##tu": 480,
      "##yon": 481,
      "ev": 482,
      "bak": 483,
      "diye": 484,
      "kal": 485,
      "##iyle": 486,
      "##ili": 487,
      "yüz": 488,
      "##ğr": 489,
      "##unun": 490,
      "çalış": 491,
      "ak": 492,
      "##os": 493,
      "sor": 494,
      "##tık": 495,
      "bo": 496,
      "uy": 497,
      "##iniz": 498,
      "sev": 499,
      "##fa": 500,
      "##dim": 501,
      "der": 502,
      "nin": 503,
      "tek": 504,
      "##yi": 505,
      "ama": 506,
      "ta": 507,
      "yapı": 508,
      "yak": 509,
      "yok": 510,
      "##inden": 511,
      "başla": 512,
      "##ecek": 513,
      "##ep": 514,
      "##ede": 515,
      "##dık": 516,
      "gerek": 517,
      "##ten": 518,
      "Ben": 519,
      "üzer": 520,
      "##bilir": 521,
      "##dü": 522,
      "##oc": 523,
      "##leş": 524,
      "##una": 525,
      "##maz": 526,
      "biz": 527,
      "##dik": 528,
      "sı": 529,
      "##deki": 530,
      "##eri": 531,
      "##mesi": 532,
      "##uyor": 533,
      "hiç": 534,
      "##üç": 535,
      "##isi": 536,
      "büyük": 537,
      "ın": 538,
      "##eler": 539,
      "kap": 540,
      "##ad": 541,
      "söyle": 542,
      "##men": 543,
      "##sını": 544,
      "##let": 545,
      "Türkiye": 546,
      "öz": 547,
      "##ayı": 548,
      "yön": 549,
      "oy": 550,
      "##stan": 551,
      "##ece": 552,
      "##sız": 553,
      "##eç": 554,
      "##ro": 555,
      "do": 556,
      "gen": 557,
      "##ark": 558,
      "##larda": 559,
      "##liş": 560,
      "##met": 561,
      "den": 562,
      "yol": 563,
      "bulun": 564,
      "ok": 565,
      "##arak": 566,
      "##eme": 567,
      "hal": 568,
      "kiş": 569,
      "edil": 570,
      "##rı": 571,
      "##üs": 572,
      "gir": 573,
      "##ğini": 574,
      "dün": 575,
      "##sun": 576,
      "##lığı": 577,
      "dev": 578,
      "kendi": 579,
      "söz": 580,
      "uz": 581,
      "İn": 582,
      "konuş": 583,
      "duy": 584,
      "su": 585,
      "##bir": 586,
      "##ley": 587,
      "##larına": 588,
      "kı": 589,
      "par": 590,
      "##tik": 591,
      "kay": 592,
      "##bul": 593,
      ".\"": 594,
      "##eh": 595,
      "göz": 596,
      "kul": 597,
      "##eli": 598,
      "##kü": 599,
      "##ünü": 600,
      "##etir": 601,
      "##re": 602,
      "##si": 603,
      "##va": 604,
      "##imi": 605,
      "19": 606,
      "hak": 607,
      "##tü": 608,
      "getir": 609,
      "sah": 610,
      "##lama": 611,
      "##ütün": 612,
      "un": 613,
      "##ter": 614,
      "##larının": 615,
      "tar": 616,
      "##ğu": 617,
      "orta": 618,
      "iyi": 619,
      "öl": 620,
      "##ğa": 621,
      "##aya": 622,
      "nın": 623,
      "öğr": 624,
      "On": 625,
      "##om": 626,
      "##gi": 627,
      "##ster": 628,
      "##eye": 629,
      "ilk": 630,
      "mil": 631,
      "##ih": 632,
      "##ran": 633,
      "##meye": 634,
      "hem": 635,
      "yeni": 636,
      "##ba": 637,
      "##tığı": 638,
      "içinde": 639,
      "ek": 640,
      "##ilen": 641,
      "##iyet": 642,
      "çek": 643,
      "##cu": 644,
      "ise": 645,
      "ilg": 646,
      "san": 647,
      "##ağı": 648,
      "##sın": 649,
      "önce": 650,
      "kullan": 651,
      "git": 652,
      "##kin": 653,
      "haya": 654,
      "iki": 655,
      "##dür": 656,
      "##gu": 657,
      "##çek": 658,
      "sağ": 659,
      "##ocuk": 660,
      "Ama": 661,
      "##if": 662,
      "düşün": 663,
      "belir": 664,
      "yet": 665,
      "##sel": 666,
      "##cağı": 667,
      "kö": 668,
      "tara": 669,
      "##azır": 670,
      "ada": 671,
      "es": 672,
      "##erek": 673,
      "##daş": 674,
      "Al": 675,
      "düz": 676,
      "##00": 677,
      "##yorum": 678,
      "göster": 679,
      "tak": 680,
      "yar": 681,
      "##ret": 682,
      "olduğu": 683,
      "olduğunu": 684,
      "##dığını": 685,
      "ye": 686,
      "##ıp": 687,
      "##lere": 688,
      "##lır": 689,
      "dedi": 690,
      "##ça": 691,
      "##lerde": 692,
      "har": 693,
      "##siz": 694,
      "##enin": 695,
      "##tım": 696,
      "bile": 697,
      "Baş": 698,
      "aş": 699,
      "bek": 700,
      "kim": 701,
      "kes": 702,
      "##ne": 703,
      "##kan": 704,
      "##vaş": 705,
      "##abil": 706,
      "taraf": 707,
      "Er": 708,
      "##up": 709,
      "##gün": 710,
      "as": 711,
      "##lay": 712,
      "neden": 713,
      "er": 714,
      "##mi": 715,
      "olur": 716,
      "gerçek": 717,
      "az": 718,
      "ma": 719,
      "##dur": 720,
      "##lardan": 721,
      "göre": 722,
      "sıra": 723,
      "bö": 724,
      "ser": 725,
      "##ver": 726,
      "##larla": 727,
      "##lerine": 728,
      "##mez": 729,
      "iz": 730,
      "tut": 731,
      "##liy": 732,
      "açık": 733,
      "sık": 734,
      "zor": 735,
      "##nı": 736,
      "##sına": 737,
      "mu": 738,
      "##atı": 739,
      "Her": 740,
      "si": 741,
      "siz": 742,
      "##larında": 743,
      "etti": 744,
      "değiş": 745,
      "durum": 746,
      "##tür": 747,
      "##çe": 748,
      "kaz": 749,
      "kor": 750,
      "üst": 751,
      "##af": 752,
      "##acak": 753,
      "##rak": 754,
      "arka": 755,
      "bin": 756,
      "ülk": 757,
      "##iğ": 758,
      "##det": 759,
      "##liğ": 760,
      "##üzel": 761,
      "dünya": 762,
      "üç": 763,
      "şek": 764,
      "##lah": 765,
      "Ar": 766,
      "Ay": 767,
      "at": 768,
      "bur": 769,
      "dış": 770,
      "çocuk": 771,
      "##anın": 772,
      "##sta": 773,
      "##eyi": 774,
      "önem": 775,
      "##likte": 776,
      "mı": 777,
      "ter": 778,
      "yük": 779,
      "##bet": 780,
      "##ıyor": 781,
      "##ika": 782,
      "çıkar": 783,
      "bit": 784,
      "hep": 785,
      "mü": 786,
      "ses": 787,
      "##ama": 788,
      "##lıyor": 789,
      "##mişti": 790,
      "Ne": 791,
      "alan": 792,
      "böyle": 793,
      "bütün": 794,
      "hazır": 795,
      "mi": 796,
      "taş": 797,
      "oluş": 798,
      "iste": 799,
      "doğru": 800,
      "##be": 801,
      "##lerinin": 802,
      "say": 803,
      "seç": 804,
      "tanı": 805,
      "##üne": 806,
      "##mıştı": 807,
      "##iyordu": 808,
      "gelen": 809,
      "##mızı": 810,
      "ede": 811,
      "kız": 812,
      "##ic": 813,
      "##oy": 814,
      "##ile": 815,
      "##esinde": 816,
      "ad": 817,
      "bağ": 818,
      "edi": 819,
      "güzel": 820,
      "iliş": 821,
      "kır": 822,
      "##ele": 823,
      "##üc": 824,
      "##yın": 825,
      "##cek": 826,
      "##azı": 827,
      "kend": 828,
      "öğren": 829,
      "AB": 830,
      "tür": 831,
      "##gı": 832,
      "##larından": 833,
      "##ulu": 834,
      "başka": 835,
      "##düğ": 836,
      "##leştir": 837,
      "##çı": 838,
      "##ırak": 839,
      "eğ": 840,
      "ün": 841,
      "##kı": 842,
      "##olu": 843,
      "bun": 844,
      "tüm": 845,
      "İs": 846,
      "##lacak": 847,
      "##art": 848,
      "##lem": 849,
      "kadın": 850,
      "sal": 851,
      "##ünkü": 852,
      "benim": 853,
      "Sa": 854,
      "bana": 855,
      "##emek": 856,
      "koy": 857,
      "Ak": 858,
      "fark": 859,
      "pro": 860,
      "yür": 861,
      "##din": 862,
      "##oli": 863,
      "##ilik": 864,
      "özel": 865,
      "be": 866,
      "##sin": 867,
      "##aret": 868,
      "birlikte": 869,
      "##lim": 870,
      "##ileri": 871,
      "vardı": 872,
      "arasında": 873,
      "##usu": 874,
      "boy": 875,
      "sını": 876,
      "##nız": 877,
      "##oş": 878,
      "##ot": 879,
      "##lak": 880,
      "##ınız": 881,
      "##abi": 882,
      "##rup": 883,
      "##üçük": 884,
      "Ara": 885,
      "##malı": 886,
      "##eket": 887,
      "biri": 888,
      "##liği": 889,
      "##ünde": 890,
      "##aber": 891,
      "##iyorum": 892,
      "değer": 893,
      "##lendir": 894,
      "dönem": 895,
      "bırak": 896,
      "##ef": 897,
      "##luk": 898,
      "##mer": 899,
      "##han": 900,
      "##sal": 901,
      "##lerinde": 902,
      "olmuş": 903,
      "din": 904,
      "öy": 905,
      "##ri": 906,
      "##üp": 907,
      "##likle": 908,
      "onun": 909,
      "aynı": 910,
      "##asıl": 911,
      "adam": 912,
      "Bak": 913,
      "Biz": 914,
      "güç": 915,
      "##tar": 916,
      "##lerden": 917,
      "alt": 918,
      "##fade": 919,
      "üzerine": 920,
      "Av": 921,
      "Ha": 922,
      "dik": 923,
      "ör": 924,
      "##lerle": 925,
      "##aba": 926,
      "onu": 927,
      "tan": 928,
      "##lığ": 929,
      "##tıl": 930,
      "kaç": 931,
      "##makta": 932,
      "hayat": 933,
      "En": 934,
      "mer": 935,
      "İstan": 936,
      "##üyor": 937,
      "##ber": 938,
      "##gil": 939,
      "##lam": 940,
      "##emiz": 941,
      "İstanbul": 942,
      "Gün": 943,
      "mut": 944,
      "para": 945,
      "##kat": 946,
      "##lüm": 947,
      "##suz": 948,
      "##ve": 949,
      "##ladı": 950,
      "yal": 951,
      "haf": 952,
      "yönet": 953,
      "genç": 954,
      "tarih": 955,
      "Mu": 956,
      "ifade": 957,
      "sen": 958,
      "yanı": 959,
      "##ye": 960,
      "##ke": 961,
      "##gun": 962,
      "##mayı": 963,
      "##iyat": 964,
      "kita": 965,
      "oyun": 966,
      "im": 967,
      "ku": 968,
      "li": 969,
      "##tim": 970,
      "##var": 971,
      "##lardı": 972,
      "##mam": 973,
      "gön": 974,
      "##lerinden": 975,
      "##manın": 976,
      "dan": 977,
      "nun": 978,
      "##akat": 979,
      "##dece": 980,
      "kabul": 981,
      "sonu": 982,
      "artık": 983,
      "Dün": 984,
      "Gen": 985,
      "bas": 986,
      "kez": 987,
      "otur": 988,
      "##ada": 989,
      "##lum": 990,
      "##müş": 991,
      "##layı": 992,
      "##ildi": 993,
      "##ilerin": 994,
      "yaşa": 995,
      "yazı": 996,
      "önemli": 997,
      "Son": 998,
      "eş": 999,
      "eder": 1000,
      "ik": 1001,
      "is": 1002,
      "sab": 1003,
      "##ştır": 1004,
      "##ban": 1005,
      "##lük": 1006,
      "##siniz": 1007,
      "##ven": 1008,
      "##meli": 1009,
      "##raf": 1010,
      "##azla": 1011,
      "tele": 1012,
      "alı": 1013,
      "nasıl": 1014,
      "şu": 1015,
      "##nem": 1016,
      "##gan": 1017,
      "##por": 1018,
      "##liyor": 1019,
      "kat": 1020,
      "##ılmış": 1021,
      "hiçbir": 1022,
      "ilgili": 1023,
      "tarafından": 1024,
      "bazı": 1025,
      "dil": 1026,
      "gü": 1027,
      "res": 1028,
      "Öz": 1029,
      "İş": 1030,
      "##sek": 1031,
      "##laya": 1032,
      "##duğ": 1033,
      "##duğu": 1034,
      "bugün": 1035,
      "saat": 1036,
      "##kaç": 1037,
      "düzen": 1038,
      "arkadaş": 1039,
      "beni": 1040,
      "küçük": 1041,
      "ren": 1042,
      "söy": 1043,
      "##id": 1044,
      "##leme": 1045,
      "##unca": 1046,
      "##tış": 1047,
      "##oğu": 1048,
      "hareket": 1049,
      "eden": 1050,
      "fazla": 1051,
      "mes": 1052,
      "##kanı": 1053,
      "##mda": 1054,
      "##madan": 1055,
      "inan": 1056,
      "geliş": 1057,
      "görüş": 1058,
      "konu": 1059,
      "ayak": 1060,
      "##diğini": 1061,
      "başladı": 1062,
      "sahip": 1063,
      "hemen": 1064,
      "kazan": 1065,
      "bar": 1066,
      "ot": 1067,
      "pek": 1068,
      "yı": 1069,
      "Çünkü": 1070,
      "##tin": 1071,
      "##ışı": 1072,
      "##hur": 1073,
      "##imdi": 1074,
      "##ıldı": 1075,
      "karar": 1076,
      "##şığı": 1077,
      "yaşam": 1078,
      "kapı": 1079,
      "yalnız": 1080,
      "yarı": 1081,
      "koş": 1082,
      "uzun": 1083,
      "ilişk": 1084,
      "!\"": 1085,
      "?\"": 1086,
      "Kur": 1087,
      "gaz": 1088,
      "##elik": 1089,
      "##tak": 1090,
      "##dak": 1091,
      "##ındaki": 1092,
      "##eniz": 1093,
      "##ekt": 1094,
      "ince": 1095,
      "##mekte": 1096,
      "alın": 1097,
      "açı": 1098,
      "anlat": 1099,
      "eski": 1100,
      "Ev": 1101,
      "Ve": 1102,
      "##bol": 1103,
      "##ydı": 1104,
      "##ker": 1105,
      "##dar": 1106,
      "##oz": 1107,
      "##sının": 1108,
      "##undan": 1109,
      "biraz": 1110,
      "kav": 1111,
      "veya": 1112,
      "dav": 1113,
      "görev": 1114,
      "##diğim": 1115,
      "yüzde": 1116,
      "söyledi": 1117,
      "As": 1118,
      "sayı": 1119,
      "çev": 1120,
      "##şık": 1121,
      "##gin": 1122,
      "##ince": 1123,
      "##iyas": 1124,
      "##ram": 1125,
      "##mıyor": 1126,
      "##aha": 1127,
      "##asını": 1128,
      "görün": 1129,
      "etk": 1130,
      "##mesini": 1131,
      "ortaya": 1132,
      "dikkat": 1133,
      "At": 1134,
      "Or": 1135,
      "##eb": 1136,
      "##sak": 1137,
      "##van": 1138,
      "##lat": 1139,
      "##inç": 1140,
      "##madı": 1141,
      "yaptı": 1142,
      "gez": 1143,
      "##osya": 1144,
      "##iğer": 1145,
      "Kar": 1146,
      "Kon": 1147,
      "kan": 1148,
      "yine": 1149,
      "##na": 1150,
      "##ren": 1151,
      "##lantı": 1152,
      "ancak": 1153,
      "karış": 1154,
      "##uyu": 1155,
      "İngil": 1156,
      "Dünya": 1157,
      "Amer": 1158,
      "Bey": 1159,
      "San": 1160,
      "adı": 1161,
      "dok": 1162,
      "his": 1163,
      "kuş": 1164,
      "mas": 1165,
      "ora": 1166,
      "yemek": 1167,
      "##ita": 1168,
      "##ali": 1169,
      "##uma": 1170,
      "##mir": 1171,
      "##endi": 1172,
      "birkaç": 1173,
      "kaşığı": 1174,
      "olmak": 1175,
      "##umhur": 1176,
      "##larımız": 1177,
      "geçen": 1178,
      "çalışma": 1179,
      "##eceğ": 1180,
      "kişi": 1181,
      "Avrup": 1182,
      "ih": 1183,
      "çeş": 1184,
      "##kek": 1185,
      "##gis": 1186,
      "##ıntı": 1187,
      "##lım": 1188,
      "##asyon": 1189,
      "kom": 1190,
      "##meyi": 1191,
      "yakın": 1192,
      "##abilir": 1193,
      "bölg": 1194,
      "şekil": 1195,
      "Yıl": 1196,
      "bunu": 1197,
      "dak": 1198,
      "fil": 1199,
      "hey": 1200,
      "hay": 1201,
      "poli": 1202,
      "rah": 1203,
      "sol": 1204,
      "çar": 1205,
      "##ist": 1206,
      "##ğin": 1207,
      "##min": 1208,
      "##miyor": 1209,
      "##fon": 1210,
      "##ök": 1211,
      "##çi": 1212,
      "##mal": 1213,
      "##ğır": 1214,
      "sadece": 1215,
      "olacak": 1216,
      "gönder": 1217,
      "200": 1218,
      "Bil": 1219,
      "Ka": 1220,
      "Kı": 1221,
      "bah": 1222,
      "diğer": 1223,
      "gül": 1224,
      "oda": 1225,
      "ulaş": 1226,
      "yen": 1227,
      "##masını": 1228,
      "##deş": 1229,
      "##iydi": 1230,
      "##atan": 1231,
      "##tal": 1232,
      "##uluk": 1233,
      "içer": 1234,
      "##cağını": 1235,
      "gece": 1236,
      "##anız": 1237,
      "##teş": 1238,
      "geldi": 1239,
      "##uyla": 1240,
      "kurul": 1241,
      "süre": 1242,
      "Ancak": 1243,
      "uygu": 1244,
      "milyon": 1245,
      "sanat": 1246,
      "ABD": 1247,
      "farklı": 1248,
      "Böyle": 1249,
      "la": 1250,
      "man": 1251,
      "sok": 1252,
      "tab": 1253,
      "uğ": 1254,
      "##ebil": 1255,
      "##net": 1256,
      "##kes": 1257,
      "##kez": 1258,
      "##diler": 1259,
      "##sine": 1260,
      "##laşı": 1261,
      "##ira": 1262,
      "##iyon": 1263,
      "##yaz": 1264,
      "##esine": 1265,
      "##atürk": 1266,
      "##larıyla": 1267,
      "##tiğ": 1268,
      "##mıştır": 1269,
      "##ümüz": 1270,
      "##miştir": 1271,
      "vardır": 1272,
      "##yordum": 1273,
      "toplum": 1274,
      "boş": 1275,
      "##sunuz": 1276,
      "##ehir": 1277,
      "hafta": 1278,
      "Mer": 1279,
      "ağa": 1280,
      "biç": 1281,
      "hat": 1282,
      "müz": 1283,
      "mah": 1284,
      "uç": 1285,
      "vur": 1286,
      "yi": 1287,
      "##bar": 1288,
      "##oca": 1289,
      "##layan": 1290,
      "##ani": 1291,
      "##ünün": 1292,
      "##ünden": 1293,
      "##imin": 1294,
      "kolay": 1295,
      "##meyen": 1296,
      "unut": 1297,
      "##kinci": 1298,
      "kork": 1299,
      "dakika": 1300,
      "El": 1301,
      "bab": 1302,
      "sak": 1303,
      "yor": 1304,
      "Çok": 1305,
      "##sit": 1306,
      "##imde": 1307,
      "##lanan": 1308,
      "##aşa": 1309,
      "veril": 1310,
      "yerine": 1311,
      "ona": 1312,
      "ayr": 1313,
      "##sınız": 1314,
      "##maktadır": 1315,
      "Atatürk": 1316,
      "şekilde": 1317,
      "Bunun": 1318,
      "adet": 1319,
      "can": 1320,
      "diy": 1321,
      "iy": 1322,
      "##ebilir": 1323,
      "##iver": 1324,
      "##iyi": 1325,
      "##ize": 1326,
      "##landı": 1327,
      "olsun": 1328,
      "gider": 1329,
      "etme": 1330,
      "ayrı": 1331,
      "gelir": 1332,
      "yaşan": 1333,
      "geçir": 1334,
      "yapılan": 1335,
      "İnsan": 1336,
      "##leyen": 1337,
      "belirt": 1338,
      "Oy": 1339,
      "bağı": 1340,
      "ila": 1341,
      "kâ": 1342,
      "##rar": 1343,
      "##ğına": 1344,
      "##sından": 1345,
      "##vi": 1346,
      "##pr": 1347,
      "##unuz": 1348,
      "olsa": 1349,
      "##duk": 1350,
      "##okra": 1351,
      "##umuz": 1352,
      "başarı": 1353,
      "gele": 1354,
      "##oğan": 1355,
      "##anım": 1356,
      "savaş": 1357,
      "konus": 1358,
      "olması": 1359,
      "dönüş": 1360,
      "kayn": 1361,
      "erkek": 1362,
      "yüksek": 1363,
      "ediyor": 1364,
      "Bur": 1365,
      "Dem": 1366,
      "Mil": 1367,
      "ağır": 1368,
      "du": 1369,
      "hız": 1370,
      "kut": 1371,
      "tam": 1372,
      "tah": 1373,
      "##ed": 1374,
      "##ast": 1375,
      "##tor": 1376,
      "##baş": 1377,
      "##ser": 1378,
      "##sman": 1379,
      "##çok": 1380,
      "##AR": 1381,
      "dest": 1382,
      "demek": 1383,
      "yağ": 1384,
      "##dum": 1385,
      "##aten": 1386,
      "##okta": 1387,
      "##olo": 1388,
      "etmek": 1389,
      "olduk": 1390,
      "önc": 1391,
      "##yanın": 1392,
      "Benim": 1393,
      "üzere": 1394,
      "dost": 1395,
      "öğret": 1396,
      "Onun": 1397,
      "Genel": 1398,
      "güven": 1399,
      "gazet": 1400,
      "Avrupa": 1401,
      "çeşit": 1402,
      "##iversit": 1403,
      "ağ": 1404,
      "ber": 1405,
      "ban": 1406,
      "tat": 1407,
      "çağ": 1408,
      "##şam": 1409,
      "##AN": 1410,
      "birbir": 1411,
      "##asına": 1412,
      "kardeş": 1413,
      "...\"": 1414,
      "anlam": 1415,
      "olay": 1416,
      "yaka": 1417,
      "##edef": 1418,
      "genel": 1419,
      "bulunan": 1420,
      "devam": 1421,
      "devlet": 1422,
      "sınır": 1423,
      "kitap": 1424,
      "sonuç": 1425,
      "Tek": 1426,
      "beş": 1427,
      "cin": 1428,
      "diyor": 1429,
      "hük": 1430,
      "kr": 1431,
      "köy": 1432,
      "nda": 1433,
      "tes": 1434,
      "##ket": 1435,
      "##dın": 1436,
      "##ğe": 1437,
      "##labil": 1438,
      "yavaş": 1439,
      "##eyin": 1440,
      "yaptığı": 1441,
      "##lenen": 1442,
      "araştır": 1443,
      "##mayacak": 1444,
      "##ört": 1445,
      "belki": 1446,
      "tamam": 1447,
      "oyn": 1448,
      "##sındaki": 1449,
      "yardım": 1450,
      "##liyet": 1451,
      "eğit": 1452,
      "rahat": 1453,
      "Bun": 1454,
      "Bel": 1455,
      "Fakat": 1456,
      "Ke": 1457,
      "Sev": 1458,
      "fa": 1459,
      "giz": 1460,
      "nokta": 1461,
      "şöyle": 1462,
      "##eden": 1463,
      "##ici": 1464,
      "##za": 1465,
      "##kın": 1466,
      "##ğın": 1467,
      "##ğında": 1468,
      "##sik": 1469,
      "##masına": 1470,
      "##ekli": 1471,
      "##lerimiz": 1472,
      "##meden": 1473,
      "katı": 1474,
      "##tiği": 1475,
      "##utbol": 1476,
      "hasta": 1477,
      "yere": 1478,
      "tep": 1479,
      "##diğimiz": 1480,
      "bizim": 1481,
      "##adde": 1482,
      "##eceğini": 1483,
      "okul": 1484,
      "uzak": 1485,
      "maç": 1486,
      "oluştur": 1487,
      "Cumhur": 1488,
      "Der": 1489,
      "Dev": 1490,
      "Irak": 1491,
      "Ma": 1492,
      "giy": 1493,
      "han": 1494,
      "haber": 1495,
      "met": 1496,
      "ner": 1497,
      "pat": 1498,
      "##kün": 1499,
      "##ınca": 1500,
      "##lardır": 1501,
      "##ilmiş": 1502,
      "yayın": 1503,
      "##onom": 1504,
      "##izi": 1505,
      "dağı": 1506,
      "##esini": 1507,
      "##sıyla": 1508,
      "##umlu": 1509,
      "##dırı": 1510,
      "gidi": 1511,
      "hava": 1512,
      "sav": 1513,
      "kent": 1514,
      "sorun": 1515,
      "tekn": 1516,
      "duygu": 1517,
      "hakk": 1518,
      "##düğü": 1519,
      "değerlendir": 1520,
      "öyle": 1521,
      "Daha": 1522,
      "Fran": 1523,
      "ateş": 1524,
      "edin": 1525,
      "hedef": 1526,
      "le": 1527,
      "pay": 1528,
      "so": 1529,
      "sar": 1530,
      "soy": 1531,
      "tuz": 1532,
      "çöz": 1533,
      "##rol": 1534,
      "##bu": 1535,
      "##bah": 1536,
      "##kara": 1537,
      "##lâ": 1538,
      "##sam": 1539,
      "##ge": 1540,
      "##indeki": 1541,
      "##mayan": 1542,
      "##mel": 1543,
      "##medi": 1544,
      "##urt": 1545,
      "kalk": 1546,
      "##lanır": 1547,
      "##lıkla": 1548,
      "hatır": 1549,
      "##ültür": 1550,
      "##arım": 1551,
      "##yım": 1552,
      "##menin": 1553,
      "##eceği": 1554,
      "sabah": 1555,
      "uğra": 1556,
      "Büy": 1557,
      "Eğ": 1558,
      "Gaz": 1559,
      "Mar": 1560,
      "na": 1561,
      "nde": 1562,
      "sey": 1563,
      "tem": 1564,
      "um": 1565,
      "yara": 1566,
      "##dından": 1567,
      "##cü": 1568,
      "##pan": 1569,
      "##HP": 1570,
      "##ER": 1571,
      "##inc": 1572,
      "##lerim": 1573,
      "##lığını": 1574,
      "##mem": 1575,
      "kah": 1576,
      "##esinin": 1577,
      "##luğ": 1578,
      "##dığım": 1579,
      "Ankara": 1580,
      "##ocu": 1581,
      "##dikleri": 1582,
      "taşı": 1583,
      "Sonra": 1584,
      "telefon": 1585,
      "renk": 1586,
      "karıştır": 1587,
      "12": 1588,
      "10": 1589,
      "Mah": 1590,
      "fır": 1591,
      "mak": 1592,
      "mis": 1593,
      "plan": 1594,
      "sosya": 1595,
      "ten": 1596,
      "üz": 1597,
      "##tiler": 1598,
      "##lında": 1599,
      "##AT": 1600,
      "##eks": 1601,
      "kam": 1602,
      "##lanma": 1603,
      "##abı": 1604,
      "bildir": 1605,
      "verdiği": 1606,
      "##yız": 1607,
      "çıktı": 1608,
      "##laştır": 1609,
      "olabilir": 1610,
      "değildir": 1611,
      "toplantı": 1612,
      "yaklaş": 1613,
      "üzerinde": 1614,
      "Alman": 1615,
      "adlı": 1616,
      "bağlı": 1617,
      "##abii": 1618,
      "İşte": 1619,
      "Amerik": 1620,
      "film": 1621,
      "dol": 1622,
      "daki": 1623,
      "il": 1624,
      "kol": 1625,
      "ro": 1626,
      "rağ": 1627,
      "üret": 1628,
      "şaş": 1629,
      "şimdi": 1630,
      "##eğ": 1631,
      "##zeme": 1632,
      "##aj": 1633,
      "##uyordu": 1634,
      "##yo": 1635,
      "##hi": 1636,
      "##hat": 1637,
      "##viz": 1638,
      "##ji": 1639,
      "##ilir": 1640,
      "##malar": 1641,
      "##lerdi": 1642,
      "birçok": 1643,
      "##dem": 1644,
      "##liğini": 1645,
      "##elen": 1646,
      "##oğraf": 1647,
      "aldı": 1648,
      "çıkan": 1649,
      "yani": 1650,
      "deniz": 1651,
      "ölç": 1652,
      "kullanı": 1653,
      "takım": 1654,
      "kesin": 1655,
      "mutlu": 1656,
      "Ada": 1657,
      "Man": 1658,
      "Meh": 1659,
      "Su": 1660,
      "Yeni": 1661,
      "dir": 1662,
      "mey": 1663,
      "mem": 1664,
      "mev": 1665,
      "siyas": 1666,
      "tur": 1667,
      "yum": 1668,
      "öt": 1669,
      "ür": 1670,
      "##acağı": 1671,
      "##cık": 1672,
      "##lamak": 1673,
      "##ener": 1674,
      "##sır": 1675,
      "##tiğini": 1676,
      "geri": 1677,
      "yerde": 1678,
      "herkes": 1679,
      "Anad": 1680,
      "çalışı": 1681,
      "parça": 1682,
      "Başkanı": 1683,
      "asker": 1684,
      "size": 1685,
      "ülke": 1686,
      "beraber": 1687,
      "rağmen": 1688,
      ",\"": 1689,
      "Ali": 1690,
      "Bütün": 1691,
      "Do": 1692,
      "Har": 1693,
      "Hiç": 1694,
      "Ken": 1695,
      "Ser": 1696,
      "acı": 1697,
      "adım": 1698,
      "ikinci": 1699,
      "oğ": 1700,
      "sin": 1701,
      "yık": 1702,
      "İç": 1703,
      "İlk": 1704,
      "##lo": 1705,
      "##düm": 1706,
      "##dül": 1707,
      "##cer": 1708,
      "##gar": 1709,
      "##gel": 1710,
      "##fer": 1711,
      "##enler": 1712,
      "##lemek": 1713,
      "##lış": 1714,
      "yaban": 1715,
      "katıl": 1716,
      "##stem": 1717,
      "##işim": 1718,
      "##larım": 1719,
      "##azar": 1720,
      "##oğlu": 1721,
      "sonunda": 1722,
      "istey": 1723,
      "kurum": 1724,
      "şeyler": 1725,
      "oku": 1726,
      "türlü": 1727,
      "merkez": 1728,
      "##ektör": 1729,
      "##mektedir": 1730,
      "çevr": 1731,
      "İngiliz": 1732,
      "Büyük": 1733,
      "Mehmet": 1734,
      "Anadolu": 1735,
      "15": 1736,
      "Ab": 1737,
      "Bab": 1738,
      "Hal": 1739,
      "Kız": 1740,
      "Ok": 1741,
      "ah": 1742,
      "bunun": 1743,
      "dört": 1744,
      "hâ": 1745,
      "hes": 1746,
      "per": 1747,
      "zar": 1748,
      "##ibi": 1749,
      "##zı": 1750,
      "##av": 1751,
      "##ko": 1752,
      "##ddi": 1753,
      "##he": 1754,
      "##har": 1755,
      "##hal": 1756,
      "##set": 1757,
      "##sinin": 1758,
      "##per": 1759,
      "##EN": 1760,
      "##irin": 1761,
      "##alzeme": 1762,
      "##ılma": 1763,
      "##ılması": 1764,
      "başına": 1765,
      "##anış": 1766,
      "bilg": 1767,
      "saç": 1768,
      "karşısında": 1769,
      "tav": 1770,
      "bize": 1771,
      "##arkı": 1772,
      "##emez": 1773,
      "konuşma": 1774,
      "suç": 1775,
      "kıs": 1776,
      "ölüm": 1777,
      "yeter": 1778,
      "Allah": 1779,
      "bölüm": 1780,
      "sistem": 1781,
      "değişik": 1782,
      "dışında": 1783,
      "seçim": 1784,
      "kendini": 1785,
      "Bunu": 1786,
      "Ey": 1787,
      "Hay": 1788,
      "Kad": 1789,
      "Top": 1790,
      "buna": 1791,
      "dolu": 1792,
      "hoş": 1793,
      "iti": 1794,
      "madde": 1795,
      "piş": 1796,
      "tas": 1797,
      "yu": 1798,
      "##nek": 1799,
      "##tın": 1800,
      "##bak": 1801,
      "##ciler": 1802,
      "##sini": 1803,
      "##iya": 1804,
      "##ayan": 1805,
      "##isini": 1806,
      "##isinde": 1807,
      "##isinin": 1808,
      "ann": 1809,
      "geli": 1810,
      "görül": 1811,
      "##lıklar": 1812,
      "##arası": 1813,
      "##arış": 1814,
      "##lus": 1815,
      "##eşil": 1816,
      "##mesine": 1817,
      "##üyle": 1818,
      "olmaz": 1819,
      "geçmiş": 1820,
      "teh": 1821,
      "yandan": 1822,
      "sürdür": 1823,
      "insanlar": 1824,
      "insanların": 1825,
      "akşam": 1826,
      "öldür": 1827,
      "sınıf": 1828,
      "altında": 1829,
      "barda": 1830,
      "hakkında": 1831,
      "Ah": 1832,
      "Ger": 1833,
      "Hak": 1834,
      "Kap": 1835,
      "ala": 1836,
      "ata": 1837,
      "fot": 1838,
      "futbol": 1839,
      "mar": 1840,
      "müm": 1841,
      "tu": 1842,
      "temiz": 1843,
      "Çocuk": 1844,
      "Ön": 1845,
      "çor": 1846,
      "##est": 1847,
      "##ton": 1848,
      "##tra": 1849,
      "##üb": 1850,
      "##bı": 1851,
      "##yse": 1852,
      "##ğü": 1853,
      "##sil": 1854,
      "##anlık": 1855,
      "##arlar": 1856,
      "##daşı": 1857,
      "##esinden": 1858,
      "##umu": 1859,
      "götür": 1860,
      "##amp": 1861,
      "annem": 1862,
      "##iyoruz": 1863,
      "günü": 1864,
      "ark": 1865,
      "ardından": 1866,
      "temel": 1867,
      "yanında": 1868,
      "şeyi": 1869,
      "çalışan": 1870,
      "soru": 1871,
      "boz": 1872,
      "bizi": 1873,
      "sıcak": 1874,
      "edilen": 1875,
      "dünyanın": 1876,
      "konuştu": 1877,
      "tartış": 1878,
      "ekonom": 1879,
      "gerçekleştir": 1880,
      "silah": 1881,
      "kırmızı": 1882,
      "prog": 1883,
      "lider": 1884,
      "resim": 1885,
      "politik": 1886,
      "konusunda": 1887,
      "eğitim": 1888,
      "##vizyon": 1889,
      "yabancı": 1890,
      "Es": 1891,
      "Kır": 1892,
      "Mü": 1893,
      "Tan": 1894,
      "hiz": 1895,
      "vatan": 1896,
      "Ün": 1897,
      "##lül": 1898,
      "##luluk": 1899,
      "##muyor": 1900,
      "##can": 1901,
      "##AL": 1902,
      "##lamış": 1903,
      "##ene": 1904,
      "##arken": 1905,
      "##lidir": 1906,
      "##lanmış": 1907,
      "oluyor": 1908,
      "yapmak": 1909,
      "başkan": 1910,
      "bilin": 1911,
      "verdi": 1912,
      "##hale": 1913,
      "arada": 1914,
      "sürekli": 1915,
      "elde": 1916,
      "uygun": 1917,
      "dolayı": 1918,
      "##üsü": 1919,
      "196": 1920,
      "mily": 1921,
      "düşünce": 1922,
      "değiştir": 1923,
      "Ayrı": 1924,
      "beyaz": 1925,
      "boyunca": 1926,
      "bardağı": 1927,
      "fotoğraf": 1928,
      "mümkün": 1929,
      "20": 1930,
      "30": 1931,
      "CHP": 1932,
      "Hazır": 1933,
      "Par": 1934,
      "Peki": 1935,
      "atı": 1936,
      "ait": 1937,
      "aile": 1938,
      "ba": 1939,
      "cez": 1940,
      "deki": 1941,
      "eki": 1942,
      "taki": 1943,
      "uyan": 1944,
      "çoğ": 1945,
      "çocu": 1946,
      "##uh": 1947,
      "##rik": 1948,
      "##tesi": 1949,
      "##yle": 1950,
      "##kâ": 1951,
      "##dun": 1952,
      "##of": 1953,
      "##son": 1954,
      "##spor": 1955,
      "##gâ": 1956,
      "##gın": 1957,
      "##gen": 1958,
      "##vet": 1959,
      "##engin": 1960,
      "##irket": 1961,
      "##mamış": 1962,
      "##liz": 1963,
      "##rail": 1964,
      "içine": 1965,
      "##ırı": 1966,
      "yapan": 1967,
      "başında": 1968,
      "##asının": 1969,
      "anda": 1970,
      "bilim": 1971,
      "##alım": 1972,
      "onları": 1973,
      "kendim": 1974,
      "yılında": 1975,
      "ortak": 1976,
      "doğr": 1977,
      "söyley": 1978,
      "bulunduğu": 1979,
      "##üslüm": 1980,
      "part": 1981,
      "sağlık": 1982,
      "beklen": 1983,
      "kimse": 1984,
      "dışarı": 1985,
      "saygı": 1986,
      "edip": 1987,
      "İsrail": 1988,
      "salon": 1989,
      "Savaş": 1990,
      "öykü": 1991,
      "hisse": 1992,
      "orada": 1993,
      "çarp": 1994,
      "çeşitli": 1995,
      "itibar": 1996,
      "Batı": 1997,
      "Hoca": 1998,
      "Osman": 1999,
      "Sin": 2000,
      "Tak": 2001,
      "fik": 2002,
      "kil": 2003,
      "kok": 2004,
      "lira": 2005,
      "mo": 2006,
      "rast": 2007,
      "sana": 2008,
      "teş": 2009,
      "uc": 2010,
      "Üst": 2011,
      "İyi": 2012,
      "##ulan": 2013,
      "##taş": 2014,
      "##yüz": 2015,
      "##linde": 2016,
      "##ğun": 2017,
      "##ob": 2018,
      "##su": 2019,
      "##vis": 2020,
      "##fi": 2021,
      "##fet": 2022,
      "##ladığı": 2023,
      "##lerce": 2024,
      "##lığa": 2025,
      "yaşı": 2026,
      "##tığını": 2027,
      "##urlar": 2028,
      "##lanı": 2029,
      "##eyle": 2030,
      "anlaş": 2031,
      "##lıkları": 2032,
      "gide": 2033,
      "art": 2034,
      "arasındaki": 2035,
      "yaşında": 2036,
      "olmalı": 2037,
      "ister": 2038,
      "yazar": 2039,
      "##apor": 2040,
      "##osu": 2041,
      "ders": 2042,
      "tekrar": 2043,
      "yapıyor": 2044,
      "##dıktan": 2045,
      "gereken": 2046,
      "özg": 2047,
      "haline": 2048,
      "sahibi": 2049,
      "##ift": 2050,
      "takı": 2051,
      "sırada": 2052,
      "Artık": 2053,
      "##stafa": 2054,
      "iht": 2055,
      "heyec": 2056,
      "Demir": 2057,
      "destek": 2058,
      "hükü": 2059,
      "roman": 2060,
      "Ayrıca": 2061,
      "!..": 2062,
      "Bö": 2063,
      "Deniz": 2064,
      "Ek": 2065,
      "Geç": 2066,
      "Hat": 2067,
      "Ner": 2068,
      "Tur": 2069,
      "Yal": 2070,
      "Yani": 2071,
      "av": 2072,
      "ail": 2073,
      "bay": 2074,
      "dile": 2075,
      "ez": 2076,
      "iddi": 2077,
      "soğ": 2078,
      "zaten": 2079,
      "##ku": 2080,
      "##ov": 2081,
      "##ola": 2082,
      "##sanız": 2083,
      "##anlar": 2084,
      "##mat": 2085,
      "##leriyle": 2086,
      "dedim": 2087,
      "##tıra": 2088,
      "dal": 2089,
      "##lanışı": 2090,
      "##ayet": 2091,
      "başta": 2092,
      "kara": 2093,
      "##iyorlar": 2094,
      "##ümle": 2095,
      "bilir": 2096,
      "aldığı": 2097,
      "konusu": 2098,
      "##luğu": 2099,
      "onların": 2100,
      "işte": 2101,
      "istem": 2102,
      "yansı": 2103,
      "benzer": 2104,
      "karşılaş": 2105,
      "##muştu": 2106,
      "belli": 2107,
      "kaldır": 2108,
      "yoktu": 2109,
      "kısa": 2110,
      "199": 2111,
      "##tere": 2112,
      "##ternet": 2113,
      "Onlar": 2114,
      "millet": 2115,
      "yetk": 2116,
      "aşk": 2117,
      "nedeniyle": 2118,
      "açıklama": 2119,
      "muh": 2120,
      "sizin": 2121,
      "arkadaşı": 2122,
      "Mustafa": 2123,
      "doktor": 2124,
      "müzik": 2125,
      "kâğı": 2126,
      "Amerikan": 2127,
      "18": 2128,
      "Az": 2129,
      "Gü": 2130,
      "Kö": 2131,
      "Kom": 2132,
      "Paşa": 2133,
      "Sab": 2134,
      "Yaş": 2135,
      "Yüz": 2136,
      "ası": 2137,
      "alır": 2138,
      "dar": 2139,
      "güc": 2140,
      "mek": 2141,
      "nit": 2142,
      "sır": 2143,
      "suyu": 2144,
      "tel": 2145,
      "tük": 2146,
      "yoğ": 2147,
      "zengin": 2148,
      "çiz": 2149,
      "çünkü": 2150,
      "ıs": 2151,
      "şart": 2152,
      "şirket": 2153,
      "##edi": 2154,
      "##eği": 2155,
      "##iv": 2156,
      "##ide": 2157,
      "##şa": 2158,
      "##tarı": 2159,
      "##ch": 2160,
      "##ga": 2161,
      "##fes": 2162,
      "##AM": 2163,
      "##ans": 2164,
      "##irken": 2165,
      "##mayın": 2166,
      "##lerdir": 2167,
      "dem": 2168,
      "##imler": 2169,
      "olup": 2170,
      "##azen": 2171,
      "yapacak": 2172,
      "##uştur": 2173,
      "anı": 2174,
      "görme": 2175,
      "güneş": 2176,
      "olmadığı": 2177,
      "##mızda": 2178,
      "kural": 2179,
      "yana": 2180,
      "zamanlar": 2181,
      "zamanda": 2182,
      "Annem": 2183,
      "##dıkları": 2184,
      "halde": 2185,
      "halinde": 2186,
      "##elim": 2187,
      "izle": 2188,
      "zorunda": 2189,
      "##liğe": 2190,
      "burada": 2191,
      "örg": 2192,
      "alıp": 2193,
      "Oysa": 2194,
      "ilave": 2195,
      "Kemal": 2196,
      "Eğer": 2197,
      "temsil": 2198,
      "sosyal": 2199,
      "Hazırlanışı": 2200,
      "Bay": 2201,
      "Beş": 2202,
      "Bana": 2203,
      "Hep": 2204,
      "Ku": 2205,
      "Kay": 2206,
      "Mes": 2207,
      "Pro": 2208,
      "Sen": 2209,
      "Uz": 2210,
      "dö": 2211,
      "grup": 2212,
      "ip": 2213,
      "kimi": 2214,
      "kültür": 2215,
      "mez": 2216,
      "ruh": 2217,
      "se": 2218,
      "sine": 2219,
      "sez": 2220,
      "vak": 2221,
      "yit": 2222,
      "Ör": 2223,
      "çı": 2224,
      "##iir": 2225,
      "##iber": 2226,
      "##şın": 2227,
      "##yıl": 2228,
      "##kabı": 2229,
      "##hbet": 2230,
      "##sat": 2231,
      "##vvet": 2232,
      "##fak": 2233,
      "##jik": 2234,
      "##İN": 2235,
      "##lamaya": 2236,
      "##labilir": 2237,
      "##inci": 2238,
      "##orm": 2239,
      "demiş": 2240,
      "yay": 2241,
      "kab": 2242,
      "##onu": 2243,
      "##eti": 2244,
      "##yacak": 2245,
      "##alt": 2246,
      "##altı": 2247,
      "yaptık": 2248,
      "##asında": 2249,
      "geliyor": 2250,
      "##ilere": 2251,
      "hav": 2252,
      "önüne": 2253,
      "önünde": 2254,
      "onlar": 2255,
      "engel": 2256,
      "araç": 2257,
      "ordu": 2258,
      "##ören": 2259,
      "büyü": 2260,
      "kaldı": 2261,
      "yüzden": 2262,
      "tale": 2263,
      "yoktur": 2264,
      "##dıklarını": 2265,
      "kaybet": 2266,
      "yeniden": 2267,
      "köş": 2268,
      "bekle": 2269,
      "sayesinde": 2270,
      "kendiler": 2271,
      "üniversit": 2272,
      "özellikle": 2273,
      "Bizim": 2274,
      "güçlü": 2275,
      "örnek": 2276,
      "merak": 2277,
      "yönetim": 2278,
      "##müştü": 2279,
      "alış": 2280,
      "##duğunu": 2281,
      "söylü": 2282,
      "koşul": 2283,
      "Sanat": 2284,
      "kaynak": 2285,
      "Cumhuriyet": 2286,
      "hangi": 2287,
      "savun": 2288,
      "yaklaşık": 2289,
      "sinir": 2290,
      "milyar": 2291,
      "demokra": 2292,
      "Aş": 2293,
      "Ban": 2294,
      "Fener": 2295,
      "Hin": 2296,
      "Hem": 2297,
      "Haz": 2298,
      "Müz": 2299,
      "Malzeme": 2300,
      "Ol": 2301,
      "Ora": 2302,
      "Siz": 2303,
      "Ya": 2304,
      "bes": 2305,
      "cam": 2306,
      "cev": 2307,
      "cümle": 2308,
      "em": 2309,
      "ef": 2310,
      "eleştir": 2311,
      "kir": 2312,
      "kit": 2313,
      "keş": 2314,
      "mik": 2315,
      "num": 2316,
      "suy": 2317,
      "tiyat": 2318,
      "ziy": 2319,
      "Çin": 2320,
      "Üç": 2321,
      "Şu": 2322,
      "Şimdi": 2323,
      "şarkı": 2324,
      "##üf": 2325,
      "##bat": 2326,
      "##bay": 2327,
      "##lin": 2328,
      "##sen": 2329,
      "##seniz": 2330,
      "##gisi": 2331,
      "##TL": 2332,
      "##IN": 2333,
      "##lata": 2334,
      "##arlı": 2335,
      "##aray": 2336,
      "##lararası": 2337,
      "##ilmesi": 2338,
      "##maları": 2339,
      "##lif": 2340,
      "def": 2341,
      "dağ": 2342,
      "##yorlar": 2343,
      "##tay": 2344,
      "##larımızı": 2345,
      "##cade": 2346,
      "almak": 2347,
      "##yıp": 2348,
      "onlara": 2349,
      "günde": 2350,
      "koc": 2351,
      "yıldı": 2352,
      "benz": 2353,
      "insanın": 2354,
      "gerekir": 2355,
      "##sızlık": 2356,
      "okuy": 2357,
      "devr": 2358,
      "iyice": 2359,
      "eksik": 2360,
      "sıkıntı": 2361,
      "ettiğ": 2362,
      "şeklinde": 2363,
      "Arka": 2364,
      "##bette": 2365,
      "Bakan": 2366,
      "##lığın": 2367,
      "Muh": 2368,
      "imza": 2369,
      "Özel": 2370,
      "İngiltere": 2371,
      "##talya": 2372,
      "hatta": 2373,
      "diyerek": 2374,
      "hızla": 2375,
      "oldukça": 2376,
      "gizli": 2377,
      "Devlet": 2378,
      "sohbet": 2379,
      "Almanya": 2380,
      "ölçü": 2381,
      "meydan": 2382,
      "heyecan": 2383,
      "Malzemeler": 2384,
      "ziyaret": 2385,
      "Af": 2386,
      "Gör": 2387,
      "Ro": 2388,
      "Sı": 2389,
      "ağr": 2390,
      "beri": 2391,
      "haz": 2392,
      "lim": 2393,
      "ni": 2394,
      "sek": 2395,
      "sat": 2396,
      "sarı": 2397,
      "süt": 2398,
      "spor": 2399,
      "seb": 2400,
      "tır": 2401,
      "yeşil": 2402,
      "üy": 2403,
      "İki": 2404,
      "##eleri": 2405,
      "##ni": 2406,
      "##istan": 2407,
      "##amaz": 2408,
      "##taki": 2409,
      "##lulu": 2410,
      "##düz": 2411,
      "##dük": 2412,
      "##ğunu": 2413,
      "##muz": 2414,
      "##syon": 2415,
      "##par": 2416,
      "##erler": 2417,
      "##enüz": 2418,
      "##iri": 2419,
      "demir": 2420,
      "kaf": 2421,
      "##elt": 2422,
      "dayan": 2423,
      "##landır": 2424,
      "##lanması": 2425,
      "##işi": 2426,
      "##umsuz": 2427,
      "gök": 2428,
      "##ceğ": 2429,
      "##isyon": 2430,
      "##uzey": 2431,
      "hale": 2432,
      "etkin": 2433,
      "sap": 2434,
      "veren": 2435,
      "verilen": 2436,
      "##cılar": 2437,
      "olmadı": 2438,
      "olmayan": 2439,
      "olmadığını": 2440,
      "##mıza": 2441,
      "bulunu": 2442,
      "##cih": 2443,
      "doğal": 2444,
      "toprak": 2445,
      "yüzünden": 2446,
      "sordu": 2447,
      "sevin": 2448,
      "geniş": 2449,
      "girdi": 2450,
      "duyg": 2451,
      "yetiş": 2452,
      "##cağız": 2453,
      "kötü": 2454,
      "nedenle": 2455,
      "##liğin": 2456,
      "yüksel": 2457,
      "##iyordum": 2458,
      "olmuştu": 2459,
      "Bakanı": 2460,
      "##lığına": 2461,
      "Güneş": 2462,
      "basın": 2463,
      "yaşadığı": 2464,
      "televizyon": 2465,
      "söylen": 2466,
      "geliştir": 2467,
      "konuda": 2468,
      "Orta": 2469,
      "içerisinde": 2470,
      "sanatçı": 2471,
      "yorum": 2472,
      "banka": 2473,
      "tatlı": 2474,
      "cinsel": 2475,
      "hesap": 2476,
      "##luslararası": 2477,
      "çorba": 2478,
      "##ampiyon": 2479,
      "Üniversit": 2480,
      "##lizm": 2481,
      "hükümet": 2482,
      "soğuk": 2483,
      "11": 2484,
      "25": 2485,
      "Dur": 2486,
      "Dış": 2487,
      "Has": 2488,
      "Hanım": 2489,
      "Tar": 2490,
      "Tabii": 2491,
      "Yor": 2492,
      "Yine": 2493,
      "Yap": 2494,
      "ac": 2495,
      "bazen": 2496,
      "ces": 2497,
      "hik": 2498,
      "hır": 2499,
      "henüz": 2500,
      "keli": 2501,
      "sun": 2502,
      "çay": 2503,
      "çiç": 2504,
      "çağı": 2505,
      "ödül": 2506,
      "şid": 2507,
      "##elerin": 2508,
      "##nik": 2509,
      "##zu": 2510,
      "##tem": 2511,
      "##trol": 2512,
      "##üya": 2513,
      "##ücu": 2514,
      "##yim": 2515,
      "##mür": 2516,
      "##meni": 2517,
      "##go": 2518,
      "##AS": 2519,
      "##Lİ": 2520,
      "##RT": 2521,
      "##anlı": 2522,
      "##enk": 2523,
      "##enek": 2524,
      "##ekim": 2525,
      "##dal": 2526,
      "defa": 2527,
      "##üncü": 2528,
      "##meler": 2529,
      "kalan": 2530,
      "##ral": 2531,
      "##lanıyor": 2532,
      "##esiz": 2533,
      "##işleri": 2534,
      "##alle": 2535,
      "##larındaki": 2536,
      "##ayın": 2537,
      "internet": 2538,
      "ana": 2539,
      "##ümü": 2540,
      "giden": 2541,
      "hap": 2542,
      "biliyor": 2543,
      "neler": 2544,
      "verir": 2545,
      "arab": 2546,
      "yaşama": 2547,
      "yıllık": 2548,
      "işle": 2549,
      "yanlış": 2550,
      "##imizi": 2551,
      "olabil": 2552,
      "değildi": 2553,
      "akıl": 2554,
      "amaç": 2555,
      "gerektiğini": 2556,
      "##leşme": 2557,
      "##elere": 2558,
      "##adyo": 2559,
      "yönelik": 2560,
      "halk": 2561,
      "sanki": 2562,
      "yarat": 2563,
      "aslında": 2564,
      "gerçekten": 2565,
      "sırasında": 2566,
      "servis": 2567,
      "izin": 2568,
      "tercih": 2569,
      "##düğünü": 2570,
      "eğlen": 2571,
      "ünlü": 2572,
      "proj": 2573,
      "##hangi": 2574,
      "olmuştur": 2575,
      "ederek": 2576,
      "ilişkiler": 2577,
      "davr": 2578,
      "hisset": 2579,
      "##eceğim": 2580,
      "uygulama": 2581,
      "Böylece": 2582,
      "sokak": 2583,
      "ağaç": 2584,
      "biçim": 2585,
      "başarılı": 2586,
      "araştırma": 2587,
      "##panya": 2588,
      "ürün": 2589,
      "Babam": 2590,
      "Eylül": 2591,
      "##trate": 2592,
      "hizmet": 2593,
      "Osmanlı": 2594,
      "özgür": 2595,
      "yitir": 2596,
      "Fenerbah": 2597,
      "AK": 2598,
      "Ba": 2599,
      "Buna": 2600,
      "Düş": 2601,
      "Doğu": 2602,
      "Haya": 2603,
      "Kat": 2604,
      "Kendi": 2605,
      "Mir": 2606,
      "Yok": 2607,
      "fe": 2608,
      "gar": 2609,
      "gru": 2610,
      "ileri": 2611,
      "ker": 2612,
      "kem": 2613,
      "kop": 2614,
      "meş": 2615,
      "pu": 2616,
      "peş": 2617,
      "rek": 2618,
      "senin": 2619,
      "sef": 2620,
      "çift": 2621,
      "öde": 2622,
      "ışık": 2623,
      "şehir": 2624,
      "şiir": 2625,
      "##aa": 2626,
      "##adan": 2627,
      "##teki": 2628,
      "##üğ": 2629,
      "##üyordu": 2630,
      "##brı": 2631,
      "##kal": 2632,
      "##kus": 2633,
      "##lek": 2634,
      "##ıcı": 2635,
      "##ılır": 2636,
      "##sul": 2637,
      "##çuk": 2638,
      "##erken": 2639,
      "##larca": 2640,
      "##leti": 2641,
      "##diş": 2642,
      "##dılar": 2643,
      "depr": 2644,
      "yasa": 2645,
      "##meleri": 2646,
      "##tıyor": 2647,
      "kayı": 2648,
      "##izm": 2649,
      "##yat": 2650,
      "##esiyle": 2651,
      "içeri": 2652,
      "##ırım": 2653,
      "##ılmaz": 2654,
      "##üzgâ": 2655,
      "##azım": 2656,
      "yapma": 2657,
      "##asından": 2658,
      "##evi": 2659,
      "##uzur": 2660,
      "##anıyor": 2661,
      "##tep": 2662,
      "gören": 2663,
      "hastan": 2664,
      "##mekten": 2665,
      "##ülen": 2666,
      "varsa": 2667,
      "gelmiş": 2668,
      "herhangi": 2669,
      "işaret": 2670,
      "kurtar": 2671,
      "##imizin": 2672,
      "eve": 2673,
      "##inizi": 2674,
      "derece": 2675,
      "dolaş": 2676,
      "kişilik": 2677,
      "kendisine": 2678,
      "hakkı": 2679,
      "ilgilen": 2680,
      "kims": 2681,
      "##layarak": 2682,
      "##liye": 2683,
      "edecek": 2684,
      "adını": 2685,
      "kendine": 2686,
      "bunlar": 2687,
      "bunları": 2688,
      "boyut": 2689,
      "oyuncu": 2690,
      "##layıp": 2691,
      "ikti": 2692,
      "mesaj": 2693,
      "Evet": 2694,
      "Yılmaz": 2695,
      "Kıbrı": 2696,
      "bahç": 2697,
      "gülüm": 2698,
      "mahk": 2699,
      "gelecek": 2700,
      "Milli": 2701,
      "kriz": 2702,
      "Bunlar": 2703,
      "Belki": 2704,
      "Fransız": 2705,
      "şaşır": 2706,
      "Kadın": 2707,
      "gelip": 2708,
      "tuta": 2709,
      "program": 2710,
      "##üslüman": 2711,
      "itibaren": 2712,
      "ihtiya": 2713,
      "Yalnız": 2714,
      "iddia": 2715,
      "ağrı": 2716,
      "Kıbrıs": 2717,
      "Can": 2718,
      "Cem": 2719,
      "Doğ": 2720,
      "Kim": 2721,
      "Kür": 2722,
      "Kara": 2723,
      "Küçük": 2724,
      "Per": 2725,
      "Poli": 2726,
      "Sul": 2727,
      "Tah": 2728,
      "bor": 2729,
      "coş": 2730,
      "don": 2731,
      "diz": 2732,
      "dök": 2733,
      "ele": 2734,
      "elim": 2735,
      "hüc": 2736,
      "huzur": 2737,
      "idi": 2738,
      "ilan": 2739,
      "mal": 2740,
      "mağ": 2741,
      "pazar": 2742,
      "sektör": 2743,
      "yurt": 2744,
      "çal": 2745,
      "çoğu": 2746,
      "üye": 2747,
      "şiş": 2748,
      "##ela": 2749,
      "##ib": 2750,
      "##ig": 2751,
      "##uc": 2752,
      "##tel": 2753,
      "##tum": 2754,
      "##tul": 2755,
      "##bek": 2756,
      "##kel": 2757,
      "##doğan": 2758,
      "##say": 2759,
      "##geç": 2760,
      "##pek": 2761,
      "##OR": 2762,
      "##ÜR": 2763,
      "##ET": 2764,
      "##ina": 2765,
      "##irler": 2766,
      "##ildiği": 2767,
      "##lis": 2768,
      "##distan": 2769,
      "yatır": 2770,
      "##tıcı": 2771,
      "##urdu": 2772,
      "kas": 2773,
      "kala": 2774,
      "dair": 2775,
      "##langı": 2776,
      "##ınır": 2777,
      "##deniz": 2778,
      "##eyim": 2779,
      "##ayla": 2780,
      "##ırlar": 2781,
      "##ırıl": 2782,
      "##isel": 2783,
      "yapıl": 2784,
      "yaprak": 2785,
      "anne": 2786,
      "##mışlar": 2787,
      "##mıştım": 2788,
      "##ilerle": 2789,
      "##ukarı": 2790,
      "hast": 2791,
      "bilgi": 2792,
      "saf": 2793,
      "##lusal": 2794,
      "ener": 2795,
      "##mızın": 2796,
      "geçti": 2797,
      "düşünü": 2798,
      "##imize": 2799,
      "insanları": 2800,
      "kalp": 2801,
      "##inize": 2802,
      "sevg": 2803,
      "başlayan": 2804,
      "##uyorum": 2805,
      "yöntem": 2806,
      "kişinin": 2807,
      "giriş": 2808,
      "kıy": 2809,
      "198": 2810,
      "gittik": 2811,
      "yedi": 2812,
      "Başkan": 2813,
      "Başbak": 2814,
      "##neğin": 2815,
      "olursa": 2816,
      "sert": 2817,
      "üstüne": 2818,
      "üstünde": 2819,
      "mücade": 2820,
      "kadınlar": 2821,
      "saldır": 2822,
      "yürüt": 2823,
      "##melidir": 2824,
      "resmi": 2825,
      "Kurulu": 2826,
      "Amerika": 2827,
      "yorgun": 2828,
      "öğretmen": 2829,
      "güvenlik": 2830,
      "yardımcı": 2831,
      "hastalık": 2832,
      "paylaş": 2833,
      "Adam": 2834,
      "pişirin": 2835,
      "Önce": 2836,
      "politika": 2837,
      "vatandaş": 2838,
      "kâğıt": 2839,
      "asıl": 2840,
      "yoğun": 2841,
      "yıldız": 2842,
      "sebep": 2843,
      "Sultan": 2844,
      "16": 2845,
      "Baba": 2846,
      "Dok": 2847,
      "Göz": 2848,
      "Ham": 2849,
      "Hüs": 2850,
      "Ko": 2851,
      "Kan": 2852,
      "Köy": 2853,
      "Kita": 2854,
      "Mec": 2855,
      "Sarı": 2856,
      "Uy": 2857,
      "Vak": 2858,
      "Yah": 2859,
      "baba": 2860,
      "cid": 2861,
      "dek": 2862,
      "fak": 2863,
      "gem": 2864,
      "lik": 2865,
      "müş": 2866,
      "po": 2867,
      "pen": 2868,
      "piyas": 2869,
      "rol": 2870,
      "rüya": 2871,
      "sil": 2872,
      "sur": 2873,
      "tabii": 2874,
      "tören": 2875,
      "vaz": 2876,
      "vücu": 2877,
      "yeme": 2878,
      "zev": 2879,
      "İz": 2880,
      "İk": 2881,
      "##eder": 2882,
      "##ime": 2883,
      "##ilan": 2884,
      "##ze": 2885,
      "##ade": 2886,
      "##aliyet": 2887,
      "##udi": 2888,
      "##tör": 2889,
      "##üst": 2890,
      "##üyorum": 2891,
      "##bis": 2892,
      "##yet": 2893,
      "##liler": 2894,
      "##lili": 2895,
      "##ıs": 2896,
      "##cın": 2897,
      "##cik": 2898,
      "##sim": 2899,
      "##sem": 2900,
      "##siyon": 2901,
      "##İR": 2902,
      "##EK": 2903,
      "##laka": 2904,
      "##ladım": 2905,
      "##ane": 2906,
      "##ileş": 2907,
      "##ledi": 2908,
      "birik": 2909,
      "##list": 2910,
      "##uru": 2911,
      "##urta": 2912,
      "##urken": 2913,
      "kalı": 2914,
      "kalacak": 2915,
      "##etim": 2916,
      "##ramı": 2917,
      "##landığı": 2918,
      "##stin": 2919,
      "##stik": 2920,
      "##esel": 2921,
      "##dular": 2922,
      "##atif": 2923,
      "##ikat": 2924,
      "##umak": 2925,
      "##ayar": 2926,
      "##abet": 2927,
      "##aze": 2928,
      "##isine": 2929,
      "başlar": 2930,
      "karabi": 2931,
      "##evr": 2932,
      "ettik": 2933,
      "bilgis": 2934,
      "öne": 2935,
      "Bugün": 2936,
      "kontrol": 2937,
      "##mesinin": 2938,
      "##mesiyle": 2939,
      "yaşlı": 2940,
      "yıllarda": 2941,
      "##meyecek": 2942,
      "##ağa": 2943,
      "düşür": 2944,
      "düşman": 2945,
      "oran": 2946,
      "organ": 2947,
      "##yorduk": 2948,
      "sürec": 2949,
      "##diğine": 2950,
      "bakış": 2951,
      "çalıştığı": 2952,
      "sevgi": 2953,
      "##elerinin": 2954,
      "parti": 2955,
      "##redi": 2956,
      "##terek": 2957,
      "ortam": 2958,
      "##omo": 2959,
      "düşünür": 2960,
      "düzey": 2961,
      "aşağı": 2962,
      "asla": 2963,
      "böl": 2964,
      "durumu": 2965,
      "durumda": 2966,
      "Aynı": 2967,
      "çocuklar": 2968,
      "oluşan": 2969,
      "##eledi": 2970,
      "bundan": 2971,
      "yürüy": 2972,
      "Arap": 2973,
      "##malıdır": 2974,
      "hafif": 2975,
      "yanıt": 2976,
      "isim": 2977,
      "ayakkabı": 2978,
      "yalnızca": 2979,
      "Aslında": 2980,
      "kuruluş": 2981,
      "Merkez": 2982,
      "biçimde": 2983,
      "babam": 2984,
      "ilaç": 2985,
      "##başkanı": 2986,
      "önceki": 2987,
      "faaliyet": 2988,
      "nerede": 2989,
      "üzül": 2990,
      "doldur": 2991,
      "isteyen": 2992,
      "değişiklik": 2993,
      "Gerçek": 2994,
      "Tanrı": 2995,
      "ekip": 2996,
      "fikir": 2997,
      "Sabah": 2998,
      "sezon": 2999,
      "cevap": 3000,
      "kitle": 3001,
      "Arkadaş": 3002,
      "Hasan": 3003,
      "Fenerbahçe": 3004,
      "deprem": 3005,
      "##üzgâr": 3006,
      ".)": 3007,
      "14": 3008,
      "100": 3009,
      "Aç": 3010,
      "Be": 3011,
      "Cen": 3012,
      "Da": 3013,
      "Fili": 3014,
      "Res": 3015,
      "Ter": 3016,
      "TRT": 3017,
      "biber": 3018,
      "gol": 3019,
      "kanı": 3020,
      "lazım": 3021,
      "men": 3022,
      "mat": 3023,
      "oper": 3024,
      "pey": 3025,
      "sus": 3026,
      "seni": 3027,
      "süs": 3028,
      "soğan": 3029,
      "yiye": 3030,
      "yukarı": 3031,
      "zam": 3032,
      "Öyle": 3033,
      "çab": 3034,
      "çeki": 3035,
      "İkinci": 3036,
      "##iği": 3037,
      "##zi": 3038,
      "##şar": 3039,
      "##ron": 3040,
      "##kür": 3041,
      "##keri": 3042,
      "##cisi": 3043,
      "##sanı": 3044,
      "##gara": 3045,
      "##ço": 3046,
      "##lasman": 3047,
      "##ing": 3048,
      "##ansı": 3049,
      "##anta": 3050,
      "##mada": 3051,
      "##madığı": 3052,
      "##madım": 3053,
      "##masında": 3054,
      "yasak": 3055,
      "##iyah": 3056,
      "##urum": 3057,
      "kale": 3058,
      "kali": 3059,
      "##etic": 3060,
      "##rab": 3061,
      "dahi": 3062,
      "##lanarak": 3063,
      "olumsuz": 3064,
      "##eytin": 3065,
      "##ıldığı": 3066,
      "yapın": 3067,
      "yapış": 3068,
      "karma": 3069,
      "kararı": 3070,
      "karşın": 3071,
      "görür": 3072,
      "##ukuk": 3073,
      "altı": 3074,
      "vermiş": 3075,
      "##lenme": 3076,
      "varmış": 3077,
      "aydın": 3078,
      "##cıyla": 3079,
      "yılda": 3080,
      "isti": 3081,
      "istiyor": 3082,
      "sonrası": 3083,
      "düştü": 3084,
      "buluş": 3085,
      "anlaya": 3086,
      "olacağı": 3087,
      "duruş": 3088,
      "##diğiniz": 3089,
      "evde": 3090,
      "bakım": 3091,
      "çalıştır": 3092,
      "boya": 3093,
      "derin": 3094,
      "yapılır": 3095,
      "yapılacak": 3096,
      "başladım": 3097,
      "gerekç": 3098,
      "##diklerini": 3099,
      "##dikten": 3100,
      "##elerde": 3101,
      "##ayıs": 3102,
      "##ayıf": 3103,
      "dolar": 3104,
      "gene": 3105,
      "halka": 3106,
      "kısı": 3107,
      "195": 3108,
      "sahn": 3109,
      "hayal": 3110,
      "hayatı": 3111,
      "kök": 3112,
      "eser": 3113,
      "yarar": 3114,
      "azal": 3115,
      "açıkladı": 3116,
      "##atıl": 3117,
      "bitir": 3118,
      "tanım": 3119,
      "ilişkin": 3120,
      "döneminde": 3121,
      "tane": 3122,
      "tanık": 3123,
      "gençlik": 3124,
      "sene": 3125,
      "kitabı": 3126,
      "imkâ": 3127,
      "katkı": 3128,
      "##layacak": 3129,
      "##layabil": 3130,
      "etkil": 3131,
      "##asyonu": 3132,
      "bağır": 3133,
      "bağım": 3134,
      "Demokra": 3135,
      "##oloji": 3136,
      "teslim": 3137,
      "umut": 3138,
      "kamu": 3139,
      "##halde": 3140,
      "tehdi": 3141,
      "tehlik": 3142,
      "yetkil": 3143,
      "mektu": 3144,
      "talep": 3145,
      "duygus": 3146,
      "ciddi": 3147,
      "zevk": 3148,
      "Filistin": 3149,
      ").": 3150,
      "17": 3151,
      "13": 3152,
      "Ac": 3153,
      "Ale": 3154,
      "Bar": 3155,
      "Bazı": 3156,
      "De": 3157,
      "Ef": 3158,
      "Fer": 3159,
      "Gö": 3160,
      "Gök": 3161,
      "Jo": 3162,
      "Kal": 3163,
      "Kültür": 3164,
      "Mı": 3165,
      "Na": 3166,
      "Tüm": 3167,
      "Yer": 3168,
      "Yön": 3169,
      "YTL": 3170,
      "Zaten": 3171,
      "bey": 3172,
      "bal": 3173,
      "beyin": 3174,
      "cumhur": 3175,
      "diş": 3176,
      "dis": 3177,
      "eg": 3178,
      "emek": 3179,
      "fir": 3180,
      "fay": 3181,
      "fakat": 3182,
      "gr": 3183,
      "gay": 3184,
      "has": 3185,
      "ir": 3186,
      "kum": 3187,
      "kış": 3188,
      "küç": 3189,
      "lir": 3190,
      "mus": 3191,
      "rapor": 3192,
      "sos": 3193,
      "strate": 3194,
      "Öğr": 3195,
      "öğ": 3196,
      "İb": 3197,
      "İran": 3198,
      "Şah": 3199,
      "şof": 3200,
      "##nan": 3201,
      "##zon": 3202,
      "##acağını": 3203,
      "##uç": 3204,
      "##lilik": 3205,
      "##dınız": 3206,
      "##ğının": 3207,
      "##og": 3208,
      "##ova": 3209,
      "##manız": 3210,
      "##cut": 3211,
      "##sinde": 3212,
      "##vil": 3213,
      "##vek": 3214,
      "##pa": 3215,
      "##pit": 3216,
      "##İT": 3217,
      "##Sİ": 3218,
      "##lav": 3219,
      "##laması": 3220,
      "##arda": 3221,
      "##ardı": 3222,
      "##arlık": 3223,
      "##madığını": 3224,
      "dep": 3225,
      "##ünce": 3226,
      "##ünüz": 3227,
      "yav": 3228,
      "dam": 3229,
      "##iktaş": 3230,
      "##umda": 3231,
      "##taj": 3232,
      "##allı": 3233,
      "içi": 3234,
      "##ırken": 3235,
      "##isan": 3236,
      "yapar": 3237,
      "yapmaya": 3238,
      "indir": 3239,
      "başv": 3240,
      "karak": 3241,
      "görmek": 3242,
      "##utan": 3243,
      "halat": 3244,
      "##miştim": 3245,
      "etmiş": 3246,
      "ettir": 3247,
      "ettim": 3248,
      "bilme": 3249,
      "biliyorum": 3250,
      "oldum": 3251,
      "##üldü": 3252,
      "verecek": 3253,
      "gerçe": 3254,
      "##lenmiş": 3255,
      "yerinde": 3256,
      "yerleş": 3257,
      "yerleştir": 3258,
      "ayında": 3259,
      "##mesinde": 3260,
      "##cısı": 3261,
      "çıkarı": 3262,
      "yıldır": 3263,
      "işç": 3264,
      "ilet": 3265,
      "##larınız": 3266,
      "süren": 3267,
      "doğur": 3268,
      "doğra": 3269,
      "karşılık": 3270,
      "elekt": 3271,
      "evren": 3272,
      "bakı": 3273,
      "bakalım": 3274,
      "kalmış": 3275,
      "yüzyıl": 3276,
      "aklı": 3277,
      "aktar": 3278,
      "yoksa": 3279,
      "girişim": 3280,
      "kendisini": 3281,
      "##leyip": 3282,
      "194": 3283,
      "##ayasa": 3284,
      "##balık": 3285,
      "ekmek": 3286,
      "##iyeti": 3287,
      "ilgi": 3288,
      "gösteren": 3289,
      "##sizlik": 3290,
      "aşırı": 3291,
      "kesim": 3292,
      "Erdoğan": 3293,
      "##layın": 3294,
      "erken": 3295,
      "gerçekleş": 3296,
      "azından": 3297,
      "serbe": 3298,
      "##liydi": 3299,
      "sıkı": 3300,
      "zorun": 3301,
      "Herkes": 3302,
      "sizi": 3303,
      "##liğine": 3304,
      "buraya": 3305,
      "müdür": 3306,
      "tanış": 3307,
      "kızı": 3308,
      "##ücut": 3309,
      "##düğüm": 3310,
      "beden": 3311,
      "onunla": 3312,
      "tarihi": 3313,
      "görüşme": 3314,
      "ayakta": 3315,
      "yarış": 3316,
      "yarım": 3317,
      "davran": 3318,
      "dokun": 3319,
      "komş": 3320,
      "hayvan": 3321,
      "polis": 3322,
      "Kısa": 3323,
      "mantık": 3324,
      "##tiğimiz": 3325,
      "mahalle": 3326,
      "vurgu": 3327,
      "yaşanan": 3328,
      "duvar": 3329,
      "birbirine": 3330,
      "faiz": 3331,
      "Fransa": 3332,
      "Gazi": 3333,
      "renkli": 3334,
      "karıştırın": 3335,
      "kullanılan": 3336,
      "siyaset": 3337,
      "Halk": 3338,
      "Ahmet": 3339,
      "ekonomik": 3340,
      "Savaşı": 3341,
      "örgüt": 3342,
      "Beşiktaş": 3343,
      "Örneğin": 3344,
      "çığ": 3345,
      "Hindistan": 3346,
      "efsan": 3347,
      "kocaman": 3348,
      "limon": 3349,
      "Üniversitesi": 3350,
      "cesaret": 3351,
      "çiçek": 3352,
      "çağır": 3353,
      "şiddet": 3354,
      "sefer": 3355,
      "##kusuz": 3356,
      "kayıt": 3357,
      "##langıç": 3358,
      "Hüseyin": 3359,
      "##omobil": 3360,
      "şoför": 3361,
      "serbest": 3362,
      "),": 3363,
      "22": 3364,
      "Br": 3365,
      "Ber": 3366,
      "Bek": 3367,
      "Bul": 3368,
      "Bas": 3369,
      "Bundan": 3370,
      "Demek": 3371,
      "Gir": 3372,
      "Hol": 3373,
      "Ker": 3374,
      "Kor": 3375,
      "Kuş": 3376,
      "La": 3377,
      "Met": 3378,
      "Mey": 3379,
      "Mayıs": 3380,
      "Oğ": 3381,
      "Ocak": 3382,
      "Rus": 3383,
      "Sel": 3384,
      "Sam": 3385,
      "Tele": 3386,
      "Trab": 3387,
      "VE": 3388,
      "Yar": 3389,
      "Yas": 3390,
      "ab": 3391,
      "alıyor": 3392,
      "boğ": 3393,
      "cep": 3394,
      "chat": 3395,
      "diyorum": 3396,
      "dışı": 3397,
      "fer": 3398,
      "gür": 3399,
      "haş": 3400,
      "ide": 3401,
      "itir": 3402,
      "ler": 3403,
      "min": 3404,
      "mor": 3405,
      "may": 3406,
      "pet": 3407,
      "re": 3408,
      "st": 3409,
      "süz": 3410,
      "tor": 3411,
      "türk": 3412,
      "tip": 3413,
      "usul": 3414,
      "yola": 3415,
      "zayıf": 3416,
      "çö": 3417,
      "çer": 3418,
      "çap": 3419,
      "çaba": 3420,
      "ölü": 3421,
      "ül": 3422,
      "İtalya": 3423,
      "şunu": 3424,
      "şampiyon": 3425,
      "##nun": 3426,
      "##amı": 3427,
      "##ucu": 3428,
      "##ruk": 3429,
      "##ros": 3430,
      "##tuk": 3431,
      "##bür": 3432,
      "##dy": 3433,
      "##dek": 3434,
      "##diniz": 3435,
      "##mut": 3436,
      "##cret": 3437,
      "##siye": 3438,
      "##sfer": 3439,
      "##gü": 3440,
      "##viç": 3441,
      "##fı": 3442,
      "##çak": 3443,
      "##çev": 3444,
      "##OK": 3445,
      "##AK": 3446,
      "##LER": 3447,
      "##ladık": 3448,
      "##ladığını": 3449,
      "##ire": 3450,
      "##irmi": 3451,
      "##iller": 3452,
      "##ilme": 3453,
      "##lerimi": 3454,
      "##lediği": 3455,
      "##uncu": 3456,
      "birer": 3457,
      "birden": 3458,
      "birinde": 3459,
      "birlik": 3460,
      "##deta": 3461,
      "##ündeki": 3462,
      "yayım": 3463,
      "##tılar": 3464,
      "kalır": 3465,
      "##rah": 3466,
      "olmuyor": 3467,
      "##ates": 3468,
      "bulu": 3469,
      "##ulmaz": 3470,
      "##uluyor": 3471,
      "##amur": 3472,
      "##ırdı": 3473,
      "yaptır": 3474,
      "yapılmış": 3475,
      "##ükle": 3476,
      "başı": 3477,
      "##şım": 3478,
      "##makla": 3479,
      "ettiler": 3480,
      "satış": 3481,
      "öner": 3482,
      "algı": 3483,
      "##haf": 3484,
      "##lendi": 3485,
      "yeri": 3486,
      "geldiği": 3487,
      "gelmişti": 3488,
      "araya": 3489,
      "aracı": 3490,
      "##cılık": 3491,
      "##lerindeki": 3492,
      "çıkıp": 3493,
      "##kenin": 3494,
      "herhalde": 3495,
      "olduğuna": 3496,
      "işe": 3497,
      "işi": 3498,
      "işlem": 3499,
      "geçer": 3500,
      "teda": 3501,
      "anlatı": 3502,
      "##asım": 3503,
      "şeye": 3504,
      "şeyin": 3505,
      "insana": 3506,
      "##diğinde": 3507,
      "elini": 3508,
      "elinde": 3509,
      "elbette": 3510,
      "elbis": 3511,
      "toplu": 3512,
      "baktı": 3513,
      "sorum": 3514,
      "uyarı": 3515,
      "tama": 3516,
      "##ecektir": 3517,
      "gerekiyor": 3518,
      "##elerine": 3519,
      "kişiler": 3520,
      "kendisi": 3521,
      "sözc": 3522,
      "kaybol": 3523,
      "197": 3524,
      "Ona": 3525,
      "milli": 3526,
      "##ransfer": 3527,
      "ilginç": 3528,
      "gittim": 3529,
      "yargı": 3530,
      "aşama": 3531,
      "bekliyor": 3532,
      "serg": 3533,
      "zorlu": 3534,
      "ettiği": 3535,
      "##liğinde": 3536,
      "terör": 3537,
      "istediği": 3538,
      "edebil": 3539,
      "##ücük": 3540,
      "öğrenc": 3541,
      "öğrenciler": 3542,
      "Araştır": 3543,
      "dinle": 3544,
      "Güney": 3545,
      "##kelam": 3546,
      "oyuncak": 3547,
      "gönül": 3548,
      "##bank": 3549,
      "bugüne": 3550,
      "bugünkü": 3551,
      "bardak": 3552,
      "yılı": 3553,
      "anlattı": 3554,
      "ihti": 3555,
      "olacaktır": 3556,
      "##ebilecek": 3557,
      "Millet": 3558,
      "genellikle": 3559,
      "gidip": 3560,
      "gidiyor": 3561,
      "teknik": 3562,
      "seyir": 3563,
      "fırsat": 3564,
      "Manço": 3565,
      "yumuş": 3566,
      "yumurta": 3567,
      "Okul": 3568,
      "hâlâ": 3569,
      "zarar": 3570,
      "Hayır": 3571,
      "tasar": 3572,
      "lideri": 3573,
      "Kırmızı": 3574,
      "dolayısıyla": 3575,
      "ceza": 3576,
      "takip": 3577,
      "Üstelik": 3578,
      "takımı": 3579,
      "Hatta": 3580,
      "Orada": 3581,
      "numara": 3582,
      "Bakanlığı": 3583,
      "bulunuyor": 3584,
      "AKP": 3585,
      "Mirkelam": 3586,
      "iktidar": 3587,
      "yatırım": 3588,
      "mücadele": 3589,
      "karabiber": 3590,
      "Beyaz": 3591,
      "Mısır": 3592,
      "Trabzon": 3593,
      "\".": 3594,
      "\",": 3595,
      "Bin": 3596,
      "Bal": 3597,
      "Beni": 3598,
      "Barış": 3599,
      "Ch": 3600,
      "Cam": 3601,
      "Cev": 3602,
      "Dir": 3603,
      "Dik": 3604,
      "Eş": 3605,
      "Ga": 3606,
      "Gür": 3607,
      "Han": 3608,
      "KA": 3609,
      "Kaz": 3610,
      "Kaya": 3611,
      "Kuzey": 3612,
      "Kasım": 3613,
      "Nasıl": 3614,
      "Nisan": 3615,
      "Rum": 3616,
      "Sor": 3617,
      "Sah": 3618,
      "Sağ": 3619,
      "Sosya": 3620,
      "Size": 3621,
      "Ta": 3622,
      "Ver": 3623,
      "Yan": 3624,
      "Yen": 3625,
      "Yun": 3626,
      "Yaşa": 3627,
      "ayı": 3628,
      "alacak": 3629,
      "bol": 3630,
      "eli": 3631,
      "fen": 3632,
      "hukuk": 3633,
      "it": 3634,
      "iler": 3635,
      "iken": 3636,
      "key": 3637,
      "lis": 3638,
      "nı": 3639,
      "sö": 3640,
      "sakat": 3641,
      "sarım": 3642,
      "siyah": 3643,
      "tit": 3644,
      "ulusal": 3645,
      "vücut": 3646,
      "zan": 3647,
      "zih": 3648,
      "zehir": 3649,
      "zeytin": 3650,
      "Ülk": 3651,
      "öp": 3652,
      "ücret": 3653,
      "İm": 3654,
      "şun": 3655,
      "##ema": 3656,
      "##eor": 3657,
      "##ij": 3658,
      "##şe": 3659,
      "##şun": 3660,
      "##şıl": 3661,
      "##res": 3662,
      "##tlar": 3663,
      "##ğen": 3664,
      "##ğinde": 3665,
      "##ğından": 3666,
      "##omet": 3667,
      "##mur": 3668,
      "##sh": 3669,
      "##gaz": 3670,
      "##fat": 3671,
      "##çası": 3672,
      "##ON": 3673,
      "##SK": 3674,
      "##ant": 3675,
      "##iran": 3676,
      "##irdi": 3677,
      "##larken": 3678,
      "##may": 3679,
      "##ekâ": 3680,
      "##eker": 3681,
      "##ekkür": 3682,
      "##unum": 3683,
      "##day": 3684,
      "##dam": 3685,
      "yat": 3686,
      "yalan": 3687,
      "##med": 3688,
      "##memek": 3689,
      "##imli": 3690,
      "dalg": 3691,
      "##landa": 3692,
      "##landığını": 3693,
      "##landırı": 3694,
      "olumlu": 3695,
      "##mıyordu": 3696,
      "##embe": 3697,
      "##tacak": 3698,
      "##ulması": 3699,
      "##ulmuş": 3700,
      "yapması": 3701,
      "yapabilir": 3702,
      "yapacağı": 3703,
      "insanı": 3704,
      "anım": 3705,
      "kart": 3706,
      "karanlık": 3707,
      "##cağına": 3708,
      "sonuna": 3709,
      "gib": 3710,
      "etken": 3711,
      "etmeye": 3712,
      "bilinç": 3713,
      "nedir": 3714,
      "alb": 3715,
      "konser": 3716,
      "gündüz": 3717,
      "endiş": 3718,
      "##mesin": 3719,
      "yaşaya": 3720,
      "olmasına": 3721,
      "yılın": 3722,
      "olduğum": 3723,
      "isten": 3724,
      "##ıştır": 3725,
      "##laşma": 3726,
      "anlaşı": 3727,
      "doğum": 3728,
      "##imizde": 3729,
      "duran": 3730,
      "durdur": 3731,
      "##lüğü": 3732,
      "akl": 3733,
      "aktarı": 3734,
      "sorunun": 3735,
      "sorumlu": 3736,
      "uyar": 3737,
      "derg": 3738,
      "teklif": 3739,
      "yapıp": 3740,
      "başlamıştı": 3741,
      "##elerinde": 3742,
      "##ady": 3743,
      "özür": 3744,
      "yolc": 3745,
      "bulundu": 3746,
      "halkı": 3747,
      "edildi": 3748,
      "##lığıyla": 3749,
      "uzan": 3750,
      "İnan": 3751,
      "##leyin": 3752,
      "kayde": 3753,
      "gözleri": 3754,
      "gitti": 3755,
      "sağlam": 3756,
      "yetenek": 3757,
      "köpr": 3758,
      "kimlik": 3759,
      "taraftar": 3760,
      "askeri": 3761,
      "maçı": 3762,
      "##liyle": 3763,
      "durumunda": 3764,
      "dünyada": 3765,
      "dünyaya": 3766,
      "##ıyoruz": 3767,
      "sesleri": 3768,
      "New": 3769,
      "taşın": 3770,
      "ilişki": 3771,
      "öğrenci": 3772,
      "##artesi": 3773,
      "saldırı": 3774,
      "prob": 3775,
      "##otor": 3776,
      "hayatın": 3777,
      "##emizde": 3778,
      "##suzluk": 3779,
      "yönetic": 3780,
      "kitab": 3781,
      "kucak": 3782,
      "kuvvet": 3783,
      "dans": 3784,
      "Genç": 3785,
      "arkadaşlar": 3786,
      "otomobil": 3787,
      "yaşamak": 3788,
      "##takım": 3789,
      "açısından": 3790,
      "etkilen": 3791,
      "geze": 3792,
      "##larımızın": 3793,
      "##miyoruz": 3794,
      "içeren": 3795,
      "laik": 3796,
      "uçak": 3797,
      "ayrıl": 3798,
      "ayrıntı": 3799,
      "canlı": 3800,
      "iyileş": 3801,
      "dönüştür": 3802,
      "##başı": 3803,
      "demektir": 3804,
      "anlamına": 3805,
      "maçında": 3806,
      "Gazet": 3807,
      "Mahke": 3808,
      "memnun": 3809,
      "mevcut": 3810,
      "siyasi": 3811,
      "herkesin": 3812,
      "Hiçbir": 3813,
      "oğlu": 3814,
      "yuvar": 3815,
      "arkasından": 3816,
      "Müdür": 3817,
      "çocuğun": 3818,
      "Sinan": 3819,
      "teşekkür": 3820,
      "Aziz": 3821,
      "Özellikle": 3822,
      "meydana": 3823,
      "sekiz": 3824,
      "gökyüz": 3825,
      "davranış": 3826,
      "puan": 3827,
      "Polis": 3828,
      "Meclis": 3829,
      "İzmir": 3830,
      "bilgisayar": 3831,
      "fayda": 3832,
      "başvur": 3833,
      "petrol": 3834,
      "çerçev": 3835,
      "ülkenin": 3836,
      "''": 3837,
      "27": 3838,
      "Ağ": 3839,
      "Ail": 3840,
      "Bah": 3841,
      "Du": 3842,
      "Dede": 3843,
      "Et": 3844,
      "Fak": 3845,
      "Futbol": 3846,
      "Git": 3847,
      "Gece": 3848,
      "In": 3849,
      "Keş": 3850,
      "Lüb": 3851,
      "Mart": 3852,
      "Po": 3853,
      "Ra": 3854,
      "Si": 3855,
      "Sü": 3856,
      "Ses": 3857,
      "Seni": 3858,
      "Söz": 3859,
      "Tiyat": 3860,
      "Yak": 3861,
      "Yol": 3862,
      "ap": 3863,
      "alabil": 3864,
      "büt": 3865,
      "barış": 3866,
      "fel": 3867,
      "fiyat": 3868,
      "gali": 3869,
      "hab": 3870,
      "hoca": 3871,
      "ira": 3872,
      "idar": 3873,
      "kuy": 3874,
      "lar": 3875,
      "laf": 3876,
      "nak": 3877,
      "nün": 3878,
      "ob": 3879,
      "rö": 3880,
      "rak": 3881,
      "ref": 3882,
      "radyo": 3883,
      "sim": 3884,
      "sit": 3885,
      "traf": 3886,
      "taze": 3887,
      "utan": 3888,
      "uğr": 3889,
      "ufak": 3890,
      "uluslararası": 3891,
      "yur": 3892,
      "Çek": 3893,
      "çir": 3894,
      "ısı": 3895,
      "şüp": 3896,
      "##ice": 3897,
      "##ud": 3898,
      "##rek": 3899,
      "##to": 3900,
      "##üel": 3901,
      "##bin": 3902,
      "##leket": 3903,
      "##doğu": 3904,
      "##ısı": 3905,
      "##ğünü": 3906,
      "##olik": 3907,
      "##cat": 3908,
      "##cının": 3909,
      "##cilik": 3910,
      "##sey": 3911,
      "##sas": 3912,
      "##sev": 3913,
      "##saray": 3914,
      "##gör": 3915,
      "##vı": 3916,
      "##vel": 3917,
      "##ÜK": 3918,
      "##AY": 3919,
      "##AB": 3920,
      "##jisi": 3921,
      "##İK": 3922,
      "##UR": 3923,
      "##lal": 3924,
      "##ınar": 3925,
      "##armış": 3926,
      "##lardaki": 3927,
      "##iliyor": 3928,
      "##lerdeki": 3929,
      "##orman": 3930,
      "##ormal": 3931,
      "birinin": 3932,
      "birisi": 3933,
      "birtakım": 3934,
      "##dat": 3935,
      "dey": 3936,
      "delik": 3937,
      "##memiş": 3938,
      "##iyan": 3939,
      "kafa": 3940,
      "##imleri": 3941,
      "##yağı": 3942,
      "##rav": 3943,
      "##rağı": 3944,
      "day": 3945,
      "olun": 3946,
      "##ator": 3947,
      "##mıyorum": 3948,
      "##iki": 3949,
      "##emen": 3950,
      "göğ": 3951,
      "göç": 3952,
      "##larıma": 3953,
      "##larımı": 3954,
      "##cev": 3955,
      "##ceğini": 3956,
      "##ayım": 3957,
      "##abey": 3958,
      "yapım": 3959,
      "inşa": 3960,
      "başlıyor": 3961,
      "##ümün": 3962,
      "##ümüş": 3963,
      "##ilerek": 3964,
      "##ilerinin": 3965,
      "##maktan": 3966,
      "hali": 3967,
      "hadi": 3968,
      "##ürken": 3969,
      "##ülü": 3970,
      "##ülya": 3971,
      "alk": 3972,
      "verici": 3973,
      "geril": 3974,
      "konut": 3975,
      "kadro": 3976,
      "yeryüz": 3977,
      "günleri": 3978,
      "günlerde": 3979,
      "##mesinden": 3980,
      "araba": 3981,
      "yaşındaki": 3982,
      "çıkış": 3983,
      "çıkıyor": 3984,
      "##usunu": 3985,
      "##için": 3986,
      "koca": 3987,
      "olmaya": 3988,
      "olmasını": 3989,
      "##dığımız": 3990,
      "##dığımda": 3991,
      "yıllar": 3992,
      "olduğunuz": 3993,
      "Biri": 3994,
      "açar": 3995,
      "##ağın": 3996,
      "düşük": 3997,
      "##ezz": 3998,
      "##ezer": 3999,
      "kurulan": 4000,
      "olanlar": 4001,
      "olanak": 4002,
      "anlamı": 4003,
      "anlatır": 4004,
      "anlayı": 4005,
      "şeyleri": 4006,
      "Ann": 4007,
      "olası": 4008,
      "insanlara": 4009,
      "##diğimi": 4010,
      "##muştur": 4011,
      "belg": 4012,
      "dönüp": 4013,
      "sorunu": 4014,
      "bom": 4015,
      "sever": 4016,
      "sevinç": 4017,
      "sevgis": 4018,
      "tekne": 4019,
      "yaklaşı": 4020,
      "üzerinden": 4021,
      "##bilirim": 4022,
      "##uyorlar": 4023,
      "söyledim": 4024,
      "yolu": 4025,
      "okur": 4026,
      "halkın": 4027,
      "konuşan": 4028,
      "##leyman": 4029,
      "##leyerek": 4030,
      "kaydet": 4031,
      "##ehr": 4032,
      "193": 4033,
      "haklı": 4034,
      "getirdi": 4035,
      "sahne": 4036,
      "tarz": 4037,
      "milliyet": 4038,
      "##badet": 4039,
      "çeken": 4040,
      "sanay": 4041,
      "belirterek": 4042,
      "##cağım": 4043,
      "köle": 4044,
      "harca": 4045,
      "mavi": 4046,
      "sivil": 4047,
      "##afer": 4048,
      "ülkede": 4049,
      "üçüncü": 4050,
      "Ayak": 4051,
      "sessiz": 4052,
      "Neden": 4053,
      "alanda": 4054,
      "hazırlık": 4055,
      "gelenek": 4056,
      "adına": 4057,
      "eğer": 4058,
      "bunların": 4059,
      "İsviç": 4060,
      "Akşam": 4061,
      "özellik": 4062,
      "##limp": 4063,
      "##malıyız": 4064,
      "altına": 4065,
      "Hava": 4066,
      "kaçır": 4067,
      "Günümüz": 4068,
      "mutlaka": 4069,
      "tarihinde": 4070,
      "kula": 4071,
      "kulak": 4072,
      "basit": 4073,
      "eşya": 4074,
      "sabır": 4075,
      "düzenlen": 4076,
      "rende": 4077,
      "söyler": 4078,
      "otel": 4079,
      "##ıldığında": 4080,
      "kararlı": 4081,
      "kavuş": 4082,
      "davet": 4083,
      "sayısı": 4084,
      "çevir": 4085,
      "görünce": 4086,
      "yaptığını": 4087,
      "bölge": 4088,
      "heykel": 4089,
      "hayran": 4090,
      "yenil": 4091,
      "##tiğim": 4092,
      "ağacın": 4093,
      "korku": 4094,
      "babası": 4095,
      "diyen": 4096,
      "iyilik": 4097,
      "giderken": 4098,
      "ayrıca": 4099,
      "İnsanlar": 4100,
      "##dukları": 4101,
      "hızlı": 4102,
      "kutu": 4103,
      "tahmin": 4104,
      "gazetec": 4105,
      "çağdaş": 4106,
      "krizi": 4107,
      "##lerimizi": 4108,
      "katılan": 4109,
      "Cumhurbaşkanı": 4110,
      "hatırla": 4111,
      "##memiz": 4112,
      "kahve": 4113,
      "Mahmut": 4114,
      "misaf": 4115,
      "tencer": 4116,
      "diren": 4117,
      "memleket": 4118,
      "öteki": 4119,
      "çalışıyor": 4120,
      "öldürül": 4121,
      "marka": 4122,
      "Eski": 4123,
      "doğrusu": 4124,
      "yaşıyor": 4125,
      "gidecek": 4126,
      "Nerede": 4127,
      "##mates": 4128,
      "Kuvvet": 4129,
      "mezar": 4130,
      "sinema": 4131,
      "yaygın": 4132,
      "Aşağı": 4133,
      "Banka": 4134,
      "tiyatro": 4135,
      "devrim": 4136,
      "ölçüde": 4137,
      "##parator": 4138,
      "Dışişleri": 4139,
      "mahkeme": 4140,
      "Kürt": 4141,
      "##saydı": 4142,
      "hastalı": 4143,
      "enerji": 4144,
      "Doktor": 4145,
      "Kitap": 4146,
      "Merkezi": 4147,
      "neredeyse": 4148,
      "operasyon": 4149,
      "zamanı": 4150,
      "kalite": 4151,
      "karmaşık": 4152,
      "imkân": 4153,
      "doğrayın": 4154,
      "Trabzonspor": 4155,
      "Lübnan": 4156,
      "Süleyman": 4157,
      "kaydetti": 4158,
      "İsviçre": 4159,
      "40": 4160,
      "45": 4161,
      "500": 4162,
      "Ad": 4163,
      "Beh": 4164,
      "Car": 4165,
      "Din": 4166,
      "Em": 4167,
      "Fat": 4168,
      "Gel": 4169,
      "Gül": 4170,
      "Güzel": 4171,
      "Hır": 4172,
      "Hülya": 4173,
      "Ja": 4174,
      "Jap": 4175,
      "Kâ": 4176,
      "Kel": 4177,
      "Kah": 4178,
      "Mak": 4179,
      "Mark": 4180,
      "Müslüman": 4181,
      "Pat": 4182,
      "Re": 4183,
      "Ru": 4184,
      "Sür": 4185,
      "Sal": 4186,
      "Sine": 4187,
      "Senin": 4188,
      "TV": 4189,
      "Tem": 4190,
      "Tay": 4191,
      "Tıp": 4192,
      "The": 4193,
      "Un": 4194,
      "Uluslararası": 4195,
      "Zaman": 4196,
      "am": 4197,
      "atan": 4198,
      "alarak": 4199,
      "ameli": 4200,
      "bon": 4201,
      "batı": 4202,
      "dip": 4203,
      "düğ": 4204,
      "fiz": 4205,
      "fab": 4206,
      "filan": 4207,
      "hus": 4208,
      "kana": 4209,
      "lok": 4210,
      "med": 4211,
      "malzeme": 4212,
      "motor": 4213,
      "niyet": 4214,
      "omuz": 4215,
      "por": 4216,
      "paz": 4217,
      "reh": 4218,
      "rüzgâr": 4219,
      "sesi": 4220,
      "teki": 4221,
      "tanın": 4222,
      "tic": 4223,
      "transfer": 4224,
      "ulaşı": 4225,
      "yır": 4226,
      "yirmi": 4227,
      "zinc": 4228,
      "Çağ": 4229,
      "Üzer": 4230,
      "âşık": 4231,
      "çatı": 4232,
      "öf": 4233,
      "İl": 4234,
      "Şeker": 4235,
      "şer": 4236,
      "şah": 4237,
      "##nen": 4238,
      "##niyet": 4239,
      "##air": 4240,
      "##alar": 4241,
      "##şır": 4242,
      "##uta": 4243,
      "##ry": 4244,
      "##ril": 4245,
      "##rop": 4246,
      "##rika": 4247,
      "##rosu": 4248,
      "##tüm": 4249,
      "##üler": 4250,
      "##üle": 4251,
      "##biyat": 4252,
      "##kır": 4253,
      "##dra": 4254,
      "##ıf": 4255,
      "##ğan": 4256,
      "##ğine": 4257,
      "##mit": 4258,
      "##manı": 4259,
      "##miyordu": 4260,
      "##co": 4261,
      "##cunda": 4262,
      "##so": 4263,
      "##fe": 4264,
      "##AZ": 4265,
      "##İM": 4266,
      "##qu": 4267,
      "##EV": 4268,
      "##DA": 4269,
      "##DE": 4270,
      "##IK": 4271,
      "##inal": 4272,
      "##irv": 4273,
      "##aklar": 4274,
      "##ilya": 4275,
      "##mamak": 4276,
      "##masın": 4277,
      "##lel": 4278,
      "##lemi": 4279,
      "##undaki": 4280,
      "birini": 4281,
      "birine": 4282,
      "##dahale": 4283,
      "##lıyorum": 4284,
      "##diyor": 4285,
      "##dıra": 4286,
      "deli": 4287,
      "dediği": 4288,
      "demişti": 4289,
      "##mediği": 4290,
      "##meliy": 4291,
      "##iyim": 4292,
      "kabil": 4293,
      "kalem": 4294,
      "##etmen": 4295,
      "##rat": 4296,
      "##raba": 4297,
      "##elek": 4298,
      "dah": 4299,
      "olunca": 4300,
      "buy": 4301,
      "bulan": 4302,
      "##iştir": 4303,
      "##eysel": 4304,
      "##emin": 4305,
      "göm": 4306,
      "gölg": 4307,
      "##ult": 4308,
      "##uldu": 4309,
      "##ırp": 4310,
      "##ite": 4311,
      "yaparak": 4312,
      "yapabil": 4313,
      "##tif": 4314,
      "##evş": 4315,
      "##uzu": 4316,
      "##iyorsa": 4317,
      "##iyorsunuz": 4318,
      "##likten": 4319,
      "görüyor": 4320,
      "gördüm": 4321,
      "##ilerden": 4322,
      "##lıkta": 4323,
      "##ukları": 4324,
      "##mişler": 4325,
      "etmesi": 4326,
      "##mektir": 4327,
      "nefes": 4328,
      "almış": 4329,
      "##lendiği": 4330,
      "kadının": 4331,
      "yerli": 4332,
      "yerlerde": 4333,
      "gelince": 4334,
      "günlük": 4335,
      "enf": 4336,
      "##leriniz": 4337,
      "Türkler": 4338,
      "çıkmıştı": 4339,
      "##kent": 4340,
      "##usunun": 4341,
      "olmayı": 4342,
      "yılının": 4343,
      "yıllarında": 4344,
      "olduğundan": 4345,
      "Birliği": 4346,
      "işbir": 4347,
      "isteme": 4348,
      "istiyorum": 4349,
      "##meyin": 4350,
      "açtı": 4351,
      "açıl": 4352,
      "kurtul": 4353,
      "kurşun": 4354,
      "oranı": 4355,
      "orman": 4356,
      "yanına": 4357,
      "olanı": 4358,
      "anlamak": 4359,
      "olamaz": 4360,
      "benden": 4361,
      "yazdı": 4362,
      "yazdığı": 4363,
      "elinden": 4364,
      "evi": 4365,
      "evine": 4366,
      "evinde": 4367,
      "evlen": 4368,
      "bakan": 4369,
      "kalın": 4370,
      "##iliği": 4371,
      "yüzüne": 4372,
      "akraba": 4373,
      "##tıktan": 4374,
      "##inizde": 4375,
      "teker": 4376,
      "amacıyla": 4377,
      "başlat": 4378,
      "başladık": 4379,
      "##dıköy": 4380,
      "gerekli": 4381,
      "gerektir": 4382,
      "Bence": 4383,
      "##biliriz": 4384,
      "##unacak": 4385,
      "##uyoruz": 4386,
      "kapat": 4387,
      "söylemek": 4388,
      "oyna": 4389,
      "kişisel": 4390,
      "ediliyor": 4391,
      "##üsünü": 4392,
      "girer": 4393,
      "giren": 4394,
      "devir": 4395,
      "sözü": 4396,
      "kıyı": 4397,
      "##tern": 4398,
      "Onu": 4399,
      "##ihan": 4400,
      "##tığım": 4401,
      "çekti": 4402,
      "sanırım": 4403,
      "belirten": 4404,
      "aday": 4405,
      "düzelt": 4406,
      "gösterir": 4407,
      "Ertesi": 4408,
      "olurdu": 4409,
      "##veriş": 4410,
      "##mezler": 4411,
      "sigara": 4412,
      "binlerce": 4413,
      "şeker": 4414,
      "ters": 4415,
      "müsa": 4416,
      "müdahale": 4417,
      "hazırlanan": 4418,
      "istedi": 4419,
      "##oyu": 4420,
      "İspanya": 4421,
      "Saat": 4422,
      "Sadece": 4423,
      "farkında": 4424,
      "yürü": 4425,
      "##laket": 4426,
      "##ınızda": 4427,
      "Aralık": 4428,
      "dönemde": 4429,
      "##lukla": 4430,
      "Avşar": 4431,
      "Hastan": 4432,
      "tanrı": 4433,
      "##lığında": 4434,
      "##lığının": 4435,
      "hayatını": 4436,
      "sonucu": 4437,
      "baskı": 4438,
      "Sonunda": 4439,
      "##ganda": 4440,
      "dilim": 4441,
      "##duğumuz": 4442,
      "rengi": 4443,
      "başladılar": 4444,
      "kanun": 4445,
      "##eceğiz": 4446,
      "Kadıköy": 4447,
      "toplumsal": 4448,
      "sakin": 4449,
      "sakın": 4450,
      "giderek": 4451,
      "##duktan": 4452,
      "dudak": 4453,
      "##olojik": 4454,
      "Teknik": 4455,
      "hüküm": 4456,
      "tespit": 4457,
      "Bunların": 4458,
      "Kema": 4459,
      "dağıt": 4460,
      "çözül": 4461,
      "##bahar": 4462,
      "seyret": 4463,
      "makin": 4464,
      "üzün": 4465,
      "##eksiyon": 4466,
      "bildirdi": 4467,
      "Amerikalı": 4468,
      "şaşkın": 4469,
      "kesinlikle": 4470,
      "Kend": 4471,
      "İngilizce": 4472,
      "hâl": 4473,
      "person": 4474,
      "kısmı": 4475,
      "yeterli": 4476,
      "sistemi": 4477,
      "Kapı": 4478,
      "futbolcu": 4479,
      "programı": 4480,
      "bilinen": 4481,
      "##halefet": 4482,
      "1960": 4483,
      "balık": 4484,
      "çoğun": 4485,
      "ucuz": 4486,
      "Bölg": 4487,
      "Geçen": 4488,
      "arkadaşım": 4489,
      "Yaşam": 4490,
      "Uzun": 4491,
      "kendilerini": 4492,
      "miktar": 4493,
      "Şubat": 4494,
      "gündeme": 4495,
      "Muham": 4496,
      "##luluğunu": 4497,
      "##isyonu": 4498,
      "Tarih": 4499,
      "York": 4500,
      "hikâ": 4501,
      "##ASI": 4502,
      "Balık": 4503,
      "ihtiyaç": 4504,
      "mağaz": 4505,
      "##ÜRK": 4506,
      "Başbakan": 4507,
      "pencer": 4508,
      "vazgeç": 4509,
      "##üstü": 4510,
      "##elediye": 4511,
      "gerekçesiyle": 4512,
      "tehdit": 4513,
      "mektup": 4514,
      "deplasman": 4515,
      "zorunlu": 4516,
      "##ükleer": 4517,
      "tamamen": 4518,
      "sözcük": 4519,
      "Fakül": 4520,
      "haberi": 4521,
      "çirkin": 4522,
      "##limpiyat": 4523,
      "Japon": 4524,
      "50": 4525,
      "60": 4526,
      "68": 4527,
      "?..": 4528,
      "AT": 4529,
      "Adı": 4530,
      "Aman": 4531,
      "Ağa": 4532,
      "Bo": 4533,
      "Bağ": 4534,
      "Bırak": 4535,
      "BİR": 4536,
      "Dön": 4537,
      "Doğan": 4538,
      "Fu": 4539,
      "Feder": 4540,
      "Gru": 4541,
      "Gele": 4542,
      "Kiş": 4543,
      "Kas": 4544,
      "Kup": 4545,
      "Mİ": 4546,
      "Mur": 4547,
      "Nevr": 4548,
      "PK": 4549,
      "Part": 4550,
      "Radyo": 4551,
      "Se": 4552,
      "Sh": 4553,
      "Sok": 4554,
      "Sta": 4555,
      "Sık": 4556,
      "Soğ": 4557,
      "Söyle": 4558,
      "Sch": 4559,
      "Saray": 4560,
      "Tat": 4561,
      "Tam": 4562,
      "Tuz": 4563,
      "Uğ": 4564,
      "Yet": 4565,
      "Yemek": 4566,
      "bat": 4567,
      "bec": 4568,
      "bez": 4569,
      "cen": 4570,
      "dini": 4571,
      "ey": 4572,
      "fıs": 4573,
      "gur": 4574,
      "hekim": 4575,
      "ilim": 4576,
      "ihale": 4577,
      "ibadet": 4578,
      "kür": 4579,
      "kör": 4580,
      "kuzey": 4581,
      "mini": 4582,
      "mark": 4583,
      "müslüman": 4584,
      "nes": 4585,
      "ndan": 4586,
      "not": 4587,
      "nüf": 4588,
      "nane": 4589,
      "niçin": 4590,
      "nükleer": 4591,
      "oyla": 4592,
      "pla": 4593,
      "pak": 4594,
      "pop": 4595,
      "park": 4596,
      "poz": 4597,
      "pırıl": 4598,
      "sem": 4599,
      "sunu": 4600,
      "sız": 4601,
      "seks": 4602,
      "tabi": 4603,
      "tril": 4604,
      "vah": 4605,
      "vade": 4606,
      "yla": 4607,
      "Çiller": 4608,
      "çat": 4609,
      "öv": 4610,
      "İh": 4611,
      "İst": 4612,
      "ır": 4613,
      "ışı": 4614,
      "ışıl": 4615,
      "Şey": 4616,
      "##eğini": 4617,
      "##idi": 4618,
      "##zat": 4619,
      "##zım": 4620,
      "##udu": 4621,
      "##rim": 4622,
      "##rum": 4623,
      "##raki": 4624,
      "##rep": 4625,
      "##teri": 4626,
      "##bun": 4627,
      "##bur": 4628,
      "##buk": 4629,
      "##ydi": 4630,
      "##yum": 4631,
      "##yol": 4632,
      "##kun": 4633,
      "##kur": 4634,
      "##kon": 4635,
      "##dün": 4636,
      "##dına": 4637,
      "##ıyorum": 4638,
      "##oma": 4639,
      "##ham": 4640,
      "##his": 4641,
      "##cin": 4642,
      "##cil": 4643,
      "##cel": 4644,
      "##cını": 4645,
      "##sk": 4646,
      "##sur": 4647,
      "##ses": 4648,
      "##süz": 4649,
      "##siyle": 4650,
      "##sinden": 4651,
      "##seri": 4652,
      "##gul": 4653,
      "##gam": 4654,
      "##OL": 4655,
      "##YOR": 4656,
      "##jan": 4657,
      "##İZ": 4658,
      "##EY": 4659,
      "##lamaz": 4660,
      "##eral": 4661,
      "##anet": 4662,
      "##antep": 4663,
      "##endim": 4664,
      "##irinç": 4665,
      "##aka": 4666,
      "##ilecek": 4667,
      "##masının": 4668,
      "##lesi": 4669,
      "##oru": 4670,
      "birinc": 4671,
      "birinci": 4672,
      "##demir": 4673,
      "##lımı": 4674,
      "##dığına": 4675,
      "##iyar": 4676,
      "kaba": 4677,
      "##imser": 4678,
      "##etin": 4679,
      "##yabil": 4680,
      "##lanacak": 4681,
      "##lanmıştı": 4682,
      "olmanın": 4683,
      "##ati": 4684,
      "buğ": 4685,
      "bulama": 4686,
      "buçuk": 4687,
      "##ğız": 4688,
      "##işik": 4689,
      "##işini": 4690,
      "##eydi": 4691,
      "##eyse": 4692,
      "##emli": 4693,
      "##dana": 4694,
      "##okul": 4695,
      "göl": 4696,
      "##ulur": 4697,
      "##itim": 4698,
      "##isik": 4699,
      "yapmış": 4700,
      "yaparken": 4701,
      "##uşu": 4702,
      "##ükü": 4703,
      "##tip": 4704,
      "başkanı": 4705,
      "gec": 4706,
      "sona": 4707,
      "##lıklı": 4708,
      "etmişti": 4709,
      "satır": 4710,
      "neş": 4711,
      "alına": 4712,
      "aldım": 4713,
      "Bush": 4714,
      "verme": 4715,
      "##arız": 4716,
      "çoktan": 4717,
      "yerden": 4718,
      "yerini": 4719,
      "ondan": 4720,
      "onay": 4721,
      "gelin": 4722,
      "geldik": 4723,
      "artış": 4724,
      "arzu": 4725,
      "aralarında": 4726,
      "##üydü": 4727,
      "Türkçe": 4728,
      "Birçok": 4729,
      "##tand": 4730,
      "##ıza": 4731,
      "açan": 4732,
      "geçiyor": 4733,
      "##ağına": 4734,
      "düşen": 4735,
      "bulur": 4736,
      "yanından": 4737,
      "##masıyla": 4738,
      "anlamda": 4739,
      "sürede": 4740,
      "Antalya": 4741,
      "bence": 4742,
      "duruyordu": 4743,
      "belge": 4744,
      "elden": 4745,
      "büyüy": 4746,
      "değilim": 4747,
      "##apur": 4748,
      "##tuğu": 4749,
      "kaldığı": 4750,
      "kalmadı": 4751,
      "çalışmaya": 4752,
      "sevgil": 4753,
      "derler": 4754,
      "derken": 4755,
      "##yici": 4756,
      "yapısı": 4757,
      "başlayacak": 4758,
      "##dıkça": 4759,
      "bizler": 4760,
      "bizde": 4761,
      "söyleş": 4762,
      "özet": 4763,
      "##ayıp": 4764,
      "yolunda": 4765,
      "okuma": 4766,
      "kişilerin": 4767,
      "kişiyi": 4768,
      "edilir": 4769,
      "edilebilir": 4770,
      "sözlerini": 4771,
      "uzman": 4772,
      "suya": 4773,
      "parmak": 4774,
      "parlak": 4775,
      "##tikçe": 4776,
      "gözük": 4777,
      "##red": 4778,
      "getiren": 4779,
      "getirmiş": 4780,
      "Ondan": 4781,
      "çekin": 4782,
      "hayata": 4783,
      "sağlar": 4784,
      "köpek": 4785,
      "esas": 4786,
      "Altın": 4787,
      "##ıplak": 4788,
      "harita": 4789,
      "aşkın": 4790,
      "Ermeni": 4791,
      "tutmak": 4792,
      "koru": 4793,
      "korumak": 4794,
      "üste": 4795,
      "ülkeye": 4796,
      "ülkeyi": 4797,
      "dünyası": 4798,
      "burn": 4799,
      "dışına": 4800,
      "terk": 4801,
      "hepsi": 4802,
      "müh": 4803,
      "seslen": 4804,
      "böylece": 4805,
      "istedim": 4806,
      "doğrudan": 4807,
      "sayfa": 4808,
      "kırık": 4809,
      "##ücel": 4810,
      "eğil": 4811,
      "benimle": 4812,
      "koyu": 4813,
      "koyun": 4814,
      "özelliği": 4815,
      "bebek": 4816,
      "beğen": 4817,
      "##ınızı": 4818,
      "değerli": 4819,
      "dönemi": 4820,
      "##hane": 4821,
      "öyk": 4822,
      "altın": 4823,
      "hayatta": 4824,
      "yönetmen": 4825,
      "oturup": 4826,
      "yaşamı": 4827,
      "eşi": 4828,
      "ederken": 4829,
      "isyan": 4830,
      "##duğum": 4831,
      "mesaf": 4832,
      "mesele": 4833,
      "otob": 4834,
      "açıdan": 4835,
      "Evren": 4836,
      "görevi": 4837,
      "##diğimde": 4838,
      "çevre": 4839,
      "görüntü": 4840,
      "Karşı": 4841,
      "adıyla": 4842,
      "dokuz": 4843,
      "masal": 4844,
      "##aliz": 4845,
      "##larımıza": 4846,
      "çalışmaları": 4847,
      "hayret": 4848,
      "solunum": 4849,
      "bahse": 4850,
      "##ebilmek": 4851,
      "biçimi": 4852,
      "hata": 4853,
      "dakikada": 4854,
      "Elbette": 4855,
      "verilir": 4856,
      "İnsanların": 4857,
      "belirtti": 4858,
      "##dumuz": 4859,
      "öncesi": 4860,
      "tatil": 4861,
      "çağrı": 4862,
      "devletin": 4863,
      "sınırlı": 4864,
      "cinayet": 4865,
      "Belç": 4866,
      "Sevg": 4867,
      "tepk": 4868,
      "tepki": 4869,
      "hangisi": 4870,
      "nereye": 4871,
      "patates": 4872,
      "değerlendiril": 4873,
      "çözüm": 4874,
      "uğraş": 4875,
      "Eğitim": 4876,
      "##luğunu": 4877,
      "kampanya": 4878,
      "meyve": 4879,
      "Dost": 4880,
      "okumaya": 4881,
      "zararlı": 4882,
      "##avallı": 4883,
      "pişir": 4884,
      "annesi": 4885,
      "Çocuklar": 4886,
      "arkasına": 4887,
      "ekibi": 4888,
      "kendimi": 4889,
      "##tığınız": 4890,
      "##lanıyordu": 4891,
      "!..\"": 4892,
      "bayram": 4893,
      "Güven": 4894,
      "gücü": 4895,
      "Baykal": 4896,
      "selam": 4897,
      "yönetiminin": 4898,
      "alışkan": 4899,
      "Haziran": 4900,
      "suyun": 4901,
      "defter": 4902,
      "etkinlik": 4903,
      "hikay": 4904,
      "hırsız": 4905,
      "kelime": 4906,
      "hapis": 4907,
      "işlev": 4908,
      "Yoksa": 4909,
      "grubu": 4910,
      "kere": 4911,
      "kemik": 4912,
      "kimsenin": 4913,
      "hücre": 4914,
      "Vakfı": 4915,
      "Yahudi": 4916,
      "faktör": 4917,
      "yiyecek": 4918,
      "istifa": 4919,
      "duygusal": 4920,
      "Efendi": 4921,
      "disip": 4922,
      "egemen": 4923,
      "liraya": 4924,
      "Öğretmen": 4925,
      "yavr": 4926,
      "karakter": 4927,
      "iletişim": 4928,
      "Gaziantep": 4929,
      "çığlık": 4930,
      "Televizyon": 4931,
      "Araştırma": 4932,
      "Direktör": 4933,
      "Dikkat": 4934,
      "sarımsak": 4935,
      "şunları": 4936,
      "Mahkemesi": 4937,
      "yuvarlak": 4938,
      "irade": 4939,
      "şüph": 4940,
      "delikanlı": 4941,
      "misafir": 4942,
      "ameliyat": 4943,
      "husus": 4944,
      "zincir": 4945,
      "personel": 4946,
      "Kupası": 4947,
      "Nevruz": 4948,
      "PKK": 4949,
      "becer": 4950,
      "gurur": 4951,
      "24": 4952,
      "35": 4953,
      "Am": 4954,
      "AN": 4955,
      "BM": 4956,
      "Bor": 4957,
      "Chat": 4958,
      "Cihan": 4959,
      "Di": 4960,
      "Dr": 4961,
      "Dan": 4962,
      "Dil": 4963,
      "Düz": 4964,
      "For": 4965,
      "Fik": 4966,
      "Gelen": 4967,
      "Geor": 4968,
      "Haf": 4969,
      "Hani": 4970,
      "Kul": 4971,
      "Kam": 4972,
      "Kol": 4973,
      "Kör": 4974,
      "Kral": 4975,
      "Lon": 4976,
      "Mek": 4977,
      "MHP": 4978,
      "Nec": 4979,
      "NAT": 4980,
      "Pa": 4981,
      "Pet": 4982,
      "Rapor": 4983,
      "Say": 4984,
      "Sad": 4985,
      "Seç": 4986,
      "Soy": 4987,
      "Sezer": 4988,
      "Tim": 4989,
      "Tabi": 4990,
      "Um": 4991,
      "Van": 4992,
      "Vek": 4993,
      "Vatan": 4994,
      "Yu": 4995,
      "Yaz": 4996,
      "Yeşil": 4997,
      "af": 4998,
      "ast": 4999,
      "ailen": 5000,
      "atıl": 5001,
      "bün": 5002,
      "bür": 5003,
      "bük": 5004,
      "bede": 5005,
      "bacak": 5006,
      "ci": 5007,
      "cir": 5008,
      "canım": 5009,
      "hüz": 5010,
      "hedi": 5011,
      "iman": 5012,
      "ilerle": 5013,
      "kl": 5014,
      "kıl": 5015,
      "kus": 5016,
      "lı": 5017,
      "lo": 5018,
      "lezz": 5019,
      "mür": 5020,
      "miydi": 5021,
      "nü": 5022,
      "net": 5023,
      "niş": 5024,
      "nden": 5025,
      "niye": 5026,
      "normal": 5027,
      "pan": 5028,
      "psik": 5029,
      "raf": 5030,
      "red": 5031,
      "sp": 5032,
      "sanı": 5033,
      "sına": 5034,
      "sop": 5035,
      "som": 5036,
      "süp": 5037,
      "soğu": 5038,
      "slo": 5039,
      "stand": 5040,
      "tıp": 5041,
      "tren": 5042,
      "usta": 5043,
      "vb": 5044,
      "yü": 5045,
      "zafer": 5046,
      "zirv": 5047,
      "Çalı": 5048,
      "Öy": 5049,
      "Öte": 5050,
      "çama": 5051,
      "çök": 5052,
      "çırp": 5053,
      "çıplak": 5054,
      "öden": 5055,
      "öte": 5056,
      "öbür": 5057,
      "İsa": 5058,
      "Şi": 5059,
      "Şiş": 5060,
      "Şarkı": 5061,
      "Şampiyon": 5062,
      "şan": 5063,
      "şok": 5064,
      "şef": 5065,
      "##emey": 5066,
      "##nin": 5067,
      "##ula": 5068,
      "##rü": 5069,
      "##rem": 5070,
      "##riyet": 5071,
      "##tında": 5072,
      "##tük": 5073,
      "##türk": 5074,
      "##üme": 5075,
      "##bo": 5076,
      "##balı": 5077,
      "##yer": 5078,
      "##yen": 5079,
      "##ymış": 5080,
      "##kar": 5081,
      "##kim": 5082,
      "##kırı": 5083,
      "##llah": 5084,
      "##do": 5085,
      "##dunuz": 5086,
      "##ıt": 5087,
      "##ılı": 5088,
      "##ıyordu": 5089,
      "##oda": 5090,
      "##hn": 5091,
      "##car": 5092,
      "##cinin": 5093,
      "##sü": 5094,
      "##sün": 5095,
      "##sür": 5096,
      "##sör": 5097,
      "##gr": 5098,
      "##gal": 5099,
      "##gele": 5100,
      "##vik": 5101,
      "##val": 5102,
      "##fil": 5103,
      "##forman": 5104,
      "##çu": 5105,
      "##çeli": 5106,
      "##çesinde": 5107,
      "##AD": 5108,
      "##LAR": 5109,
      "##ESİ": 5110,
      "##IR": 5111,
      "##las": 5112,
      "##lamen": 5113,
      "##lasyon": 5114,
      "##ino": 5115,
      "##ang": 5116,
      "##anda": 5117,
      "##ent": 5118,
      "##mamız": 5119,
      "##ekleri": 5120,
      "##unç": 5121,
      "birleş": 5122,
      "##lıca": 5123,
      "##liyordu": 5124,
      "##dış": 5125,
      "##dığında": 5126,
      "dedik": 5127,
      "deyim": 5128,
      "yah": 5129,
      "yatak": 5130,
      "##meti": 5131,
      "##mete": 5132,
      "##tımı": 5133,
      "##ursuz": 5134,
      "##onun": 5135,
      "##izma": 5136,
      "##izde": 5137,
      "##izasyon": 5138,
      "##eten": 5139,
      "##etik": 5140,
      "##raman": 5141,
      "daya": 5142,
      "##ürriyet": 5143,
      "##lanıp": 5144,
      "olgun": 5145,
      "oluyordu": 5146,
      "##sti": 5147,
      "##stos": 5148,
      "##steri": 5149,
      "##esin": 5150,
      "##esindeki": 5151,
      "##yorsun": 5152,
      "##atın": 5153,
      "##atör": 5154,
      "##mışım": 5155,
      "bulaş": 5156,
      "bulacak": 5157,
      "##ikâ": 5158,
      "##eyen": 5159,
      "##emi": 5160,
      "##tası": 5161,
      "##ceği": 5162,
      "##ultu": 5163,
      "içki": 5164,
      "##amak": 5165,
      "##ıklı": 5166,
      "##ıldığını": 5167,
      "##iter": 5168,
      "##isli": 5169,
      "inc": 5170,
      "##tihar": 5171,
      "başk": 5172,
      "başar": 5173,
      "kariy": 5174,
      "##oğlan": 5175,
      "##oğuş": 5176,
      "##üştü": 5177,
      "sonsuz": 5178,
      "sonraki": 5179,
      "gördü": 5180,
      "görünü": 5181,
      "gördüğüm": 5182,
      "içindeki": 5183,
      "##ilerde": 5184,
      "##ilerini": 5185,
      "##lıktan": 5186,
      "##dıran": 5187,
      "##dırım": 5188,
      "gidil": 5189,
      "hala": 5190,
      "##tırdı": 5191,
      "##kale": 5192,
      "##kaya": 5193,
      "önder": 5194,
      "##bilecek": 5195,
      "##bileceğini": 5196,
      "alınır": 5197,
      "veriyor": 5198,
      "geriye": 5199,
      "##lenmesi": 5200,
      "ayır": 5201,
      "##cım": 5202,
      "##üye": 5203,
      "yaşar": 5204,
      "yaşayan": 5205,
      "çıkacak": 5206,
      "##kence": 5207,
      "olmadan": 5208,
      "##mızdan": 5209,
      "yılların": 5210,
      "yıllardır": 5211,
      "Birkaç": 5212,
      "Birinci": 5213,
      "işin": 5214,
      "istek": 5215,
      "istemez": 5216,
      "istiyoruz": 5217,
      "##tanın": 5218,
      "açıp": 5219,
      "##ağının": 5220,
      "düşer": 5221,
      "düşmüş": 5222,
      "düşkün": 5223,
      "##eza": 5224,
      "bulut": 5225,
      "buldum": 5226,
      "anlata": 5227,
      "anlatan": 5228,
      "zamanlarda": 5229,
      "Ana": 5230,
      "Anayasa": 5231,
      "##ımın": 5232,
      "olayı": 5233,
      "olacağını": 5234,
      "olağan": 5235,
      "duruma": 5236,
      "yazınız": 5237,
      "yazılmış": 5238,
      "##muşlar": 5239,
      "elbet": 5240,
      "ellerinde": 5241,
      "##lüğ": 5242,
      "##anacak": 5243,
      "toplam": 5244,
      "bakın": 5245,
      "bakarak": 5246,
      "baktığı": 5247,
      "kalb": 5248,
      "kalma": 5249,
      "çalışmak": 5250,
      "uyku": 5251,
      "deri": 5252,
      "derec": 5253,
      "tava": 5254,
      "yapıt": 5255,
      "başladığı": 5256,
      "bizden": 5257,
      "sıvı": 5258,
      "##elerden": 5259,
      "kapsam": 5260,
      "söyleye": 5261,
      "##lettir": 5262,
      "özen": 5263,
      "yönlendir": 5264,
      "oyuna": 5265,
      "doy": 5266,
      "dolay": 5267,
      "dolaşı": 5268,
      "##lişk": 5269,
      "yolda": 5270,
      "yoluyla": 5271,
      "bulunduğunu": 5272,
      "edilmiş": 5273,
      "edilmesi": 5274,
      "sözler": 5275,
      "sözleri": 5276,
      "sözcü": 5277,
      "uzay": 5278,
      "subay": 5279,
      "kıp": 5280,
      "gözya": 5281,
      "gözlem": 5282,
      "##eliği": 5283,
      "hakları": 5284,
      "getiril": 5285,
      "getirildi": 5286,
      "unsur": 5287,
      "tarla": 5288,
      "öldü": 5289,
      "Onların": 5290,
      "çekil": 5291,
      "çekiyor": 5292,
      "önceden": 5293,
      "kullandığı": 5294,
      "gitmiş": 5295,
      "gitmek": 5296,
      "gittiğ": 5297,
      "hayatım": 5298,
      "sağlamak": 5299,
      "düşünc": 5300,
      "belirli": 5301,
      "yeten": 5302,
      "kömür": 5303,
      "adayı": 5304,
      "gösteriyor": 5305,
      "göstererek": 5306,
      "Başka": 5307,
      "bekleyen": 5308,
      "##neği": 5309,
      "taraftan": 5310,
      "Erz": 5311,
      "nedeni": 5312,
      "erke": 5313,
      "ertesi": 5314,
      "azar": 5315,
      "serin": 5316,
      "##veren": 5317,
      "tutar": 5318,
      "tutun": 5319,
      "ettiğini": 5320,
      "durumlarda": 5321,
      "kaza": 5322,
      "ülkemizde": 5323,
      "##iğe": 5324,
      "Ardından": 5325,
      "Ayşe": 5326,
      "yüklü": 5327,
      "çıkarken": 5328,
      "bitk": 5329,
      "hepsinin": 5330,
      "böylesine": 5331,
      "hazırlanır": 5332,
      "oluşuyor": 5333,
      "isteği": 5334,
      "istediğim": 5335,
      "tanıt": 5336,
      "edebiyat": 5337,
      "kızdır": 5338,
      "güzellik": 5339,
      "kırk": 5340,
      "##ücü": 5341,
      "Akdeniz": 5342,
      "yürür": 5343,
      "yüreğ": 5344,
      "boyu": 5345,
      "boyun": 5346,
      "Hali": 5347,
      "ört": 5348,
      "mutluluk": 5349,
      "yanımda": 5350,
      "oyunc": 5351,
      "lig": 5352,
      "list": 5353,
      "sonucunda": 5354,
      "eşit": 5355,
      "ederler": 5356,
      "ikiye": 5357,
      "ikisi": 5358,
      "düzenle": 5359,
      "inanç": 5360,
      "yaşamını": 5361,
      "ilişkileri": 5362,
      "Kurtul": 5363,
      "alınan": 5364,
      "kavg": 5365,
      "kavram": 5366,
      "Aslan": 5367,
      "Asker": 5368,
      "sayıda": 5369,
      "etkili": 5370,
      "Konya": 5371,
      "Sanki": 5372,
      "kuşkusuz": 5373,
      "oradan": 5374,
      "##eceğine": 5375,
      "bölgede": 5376,
      "Yıllardır": 5377,
      "Yıldırım": 5378,
      "hayır": 5379,
      "çaresiz": 5380,
      "manz": 5381,
      "tabak": 5382,
      "tabur": 5383,
      "Meral": 5384,
      "iyimser": 5385,
      "belirtildi": 5386,
      "Oyun": 5387,
      "##pres": 5388,
      "##dukça": 5389,
      "Burada": 5390,
      "yağmur": 5391,
      "##olog": 5392,
      "olduklarını": 5393,
      "Genelkur": 5394,
      "kitaplar": 5395,
      "diyorlar": 5396,
      "##labilecek": 5397,
      "oynaya": 5398,
      "rahatsız": 5399,
      "katılım": 5400,
      "dağıl": 5401,
      "hedefleri": 5402,
      "paylaşı": 5403,
      "kahk": 5404,
      "kahv": 5405,
      "taşıyan": 5406,
      "##eksüel": 5407,
      "üretim": 5408,
      "##elendir": 5409,
      "siyasal": 5410,
      "ötesinde": 5411,
      "##acağım": 5412,
      "çalışıyordu": 5413,
      "oğlum": 5414,
      "katıldı": 5415,
      "kurumun": 5416,
      "merkezi": 5417,
      "Abdu": 5418,
      "Kızıl": 5419,
      "performan": 5420,
      "kısm": 5421,
      "bölümü": 5422,
      "geliyordu": 5423,
      "olmazsa": 5424,
      "sınıfı": 5425,
      "Paris": 5426,
      "Parti": 5427,
      "cezası": 5428,
      "uyandır": 5429,
      "çocuğu": 5430,
      "sağlıklı": 5431,
      "beklent": 5432,
      "hisseder": 5433,
      "çarpıcı": 5434,
      "Taksim": 5435,
      "liralık": 5436,
      "mode": 5437,
      "olmalıdır": 5438,
      "Ekonom": 5439,
      "milletvek": 5440,
      "açıklamada": 5441,
      "Komisyonu": 5442,
      "Yüzyıl": 5443,
      "darbe": 5444,
      "kuralları": 5445,
      "döv": 5446,
      "sebe": 5447,
      "kendilerine": 5448,
      "savunma": 5449,
      "Hint": 5450,
      "Hemen": 5451,
      "Hazret": 5452,
      "suyunu": 5453,
      "##latasaray": 5454,
      "heyecanla": 5455,
      "Roma": 5456,
      "Sıcak": 5457,
      "yetiştir": 5458,
      "yükselt": 5459,
      "arabayı": 5460,
      "eğlence": 5461,
      "özgürlük": 5462,
      "meşgul": 5463,
      "rekabet": 5464,
      "borç": 5465,
      "hücr": 5466,
      "kalabalık": 5467,
      "suret": 5468,
      "bölün": 5469,
      "Açık": 5470,
      "peyn": 5471,
      "kaleci": 5472,
      "dolarlık": 5473,
      "bağımsız": 5474,
      "Demokrat": 5475,
      "Acaba": 5476,
      "John": 5477,
      "cumhuriyet": 5478,
      "firma": 5479,
      "gayret": 5480,
      "hassas": 5481,
      "öğle": 5482,
      "İbn": 5483,
      "elektrik": 5484,
      "evrensel": 5485,
      "Hollanda": 5486,
      "Rusya": 5487,
      "Selçuk": 5488,
      "Yardım": 5489,
      "moral": 5490,
      "yumuşak": 5491,
      "Galatasaray": 5492,
      "Sağlık": 5493,
      "Sosyal": 5494,
      "Yunan": 5495,
      "İmparator": 5496,
      "gibiydi": 5497,
      "albüm": 5498,
      "yolculuk": 5499,
      "kaydedil": 5500,
      "gezegen": 5501,
      "Silah": 5502,
      "Tiyatro": 5503,
      "felse": 5504,
      "Hırist": 5505,
      "fabrik": 5506,
      "Tatlı": 5507,
      "trilyon": 5508,
      "NATO": 5509,
      "ailenin": 5510,
      "büny": 5511,
      "Çalış": 5512,
      "Genelkurmay": 5513,
      ".'": 5514,
      "00": 5515,
      "29": 5516,
      "28": 5517,
      "31": 5518,
      "42": 5519,
      "62": 5520,
      "Alan": 5521,
      "Aka": 5522,
      "Adana": 5523,
      "Bos": 5524,
      "Boy": 5525,
      "Bayan": 5526,
      "Belediye": 5527,
      "Cey": 5528,
      "DA": 5529,
      "DE": 5530,
      "Dar": 5531,
      "Dis": 5532,
      "Duy": 5533,
      "Def": 5534,
      "Denk": 5535,
      "Ecev": 5536,
      "Fe": 5537,
      "Far": 5538,
      "Fest": 5539,
      "GE": 5540,
      "Gali": 5541,
      "Hu": 5542,
      "Hâ": 5543,
      "Hor": 5544,
      "Hele": 5545,
      "Hoş": 5546,
      "Jüp": 5547,
      "Kil": 5548,
      "Kum": 5549,
      "Kab": 5550,
      "Koca": 5551,
      "Li": 5552,
      "Lis": 5553,
      "Mev": 5554,
      "Mut": 5555,
      "Mez": 5556,
      "Mos": 5557,
      "Mic": 5558,
      "Nâ": 5559,
      "Nor": 5560,
      "Nur": 5561,
      "Nas": 5562,
      "Os": 5563,
      "Olimpiyat": 5564,
      "Por": 5565,
      "Rı": 5566,
      "Ref": 5567,
      "Rüzgâr": 5568,
      "Sek": 5569,
      "Sus": 5570,
      "Sana": 5571,
      "Spor": 5572,
      "SAL": 5573,
      "Sayın": 5574,
      "Tu": 5575,
      "To": 5576,
      "Taş": 5577,
      "Tok": 5578,
      "Tut": 5579,
      "Tara": 5580,
      "Yük": 5581,
      "Yücel": 5582,
      "Zor": 5583,
      "aşı": 5584,
      "alet": 5585,
      "alay": 5586,
      "atış": 5587,
      "adeta": 5588,
      "bı": 5589,
      "bisik": 5590,
      "cm": 5591,
      "cil": 5592,
      "ceb": 5593,
      "cadde": 5594,
      "dür": 5595,
      "dum": 5596,
      "düm": 5597,
      "diyordu": 5598,
      "dizi": 5599,
      "emir": 5600,
      "fon": 5601,
      "gı": 5602,
      "gevş": 5603,
      "ham": 5604,
      "hele": 5605,
      "hita": 5606,
      "hanım": 5607,
      "horm": 5608,
      "iri": 5609,
      "kül": 5610,
      "kest": 5611,
      "kredi": 5612,
      "lay": 5613,
      "lit": 5614,
      "lük": 5615,
      "mül": 5616,
      "müt": 5617,
      "meden": 5618,
      "neyi": 5619,
      "pirinç": 5620,
      "raki": 5621,
      "rest": 5622,
      "sir": 5623,
      "stü": 5624,
      "tok": 5625,
      "tap": 5626,
      "vita": 5627,
      "yiy": 5628,
      "yel": 5629,
      "yör": 5630,
      "Çan": 5631,
      "Çocu": 5632,
      "Çift": 5633,
      "Çevr": 5634,
      "Önem": 5635,
      "âlem": 5636,
      "ça": 5637,
      "çür": 5638,
      "çanta": 5639,
      "çamur": 5640,
      "İstik": 5641,
      "Şük": 5642,
      "Şeri": 5643,
      "Şehir": 5644,
      "şans": 5645,
      "şansı": 5646,
      "##nak": 5647,
      "##nesi": 5648,
      "##ia": 5649,
      "##zam": 5650,
      "##ala": 5651,
      "##ale": 5652,
      "##şama": 5653,
      "##riz": 5654,
      "##til": 5655,
      "##tok": 5656,
      "##tına": 5657,
      "##tara": 5658,
      "##top": 5659,
      "##biye": 5660,
      "##beri": 5661,
      "##yken": 5662,
      "##ydım": 5663,
      "##yarak": 5664,
      "##kil": 5665,
      "##köy": 5666,
      "##kesi": 5667,
      "##keli": 5668,
      "##lda": 5669,
      "##lının": 5670,
      "##don": 5671,
      "##dbir": 5672,
      "##ılan": 5673,
      "##ımı": 5674,
      "##ğiyle": 5675,
      "##ğuna": 5676,
      "##otu": 5677,
      "##mar": 5678,
      "##mdaki": 5679,
      "##miyorum": 5680,
      "##müyor": 5681,
      "##her": 5682,
      "##hiş": 5683,
      "##ck": 5684,
      "##cileri": 5685,
      "##sor": 5686,
      "##siy": 5687,
      "##slan": 5688,
      "##sis": 5689,
      "##sayı": 5690,
      "##gül": 5691,
      "##geler": 5692,
      "##vu": 5693,
      "##vde": 5694,
      "##fen": 5695,
      "##öl": 5696,
      "##çlı": 5697,
      "##çet": 5698,
      "##çiler": 5699,
      "##çağ": 5700,
      "##paşa": 5701,
      "##OĞ": 5702,
      "##AP": 5703,
      "##KT": 5704,
      "##UN": 5705,
      "##MA": 5706,
      "##50": 5707,
      "##laç": 5708,
      "##lasik": 5709,
      "##anma": 5710,
      "##ancı": 5711,
      "##anfil": 5712,
      "##ilmesini": 5713,
      "##maması": 5714,
      "##ekler": 5715,
      "##lerken": 5716,
      "##leği": 5717,
      "##leyici": 5718,
      "##unma": 5719,
      "##deti": 5720,
      "##lıp": 5721,
      "##lılar": 5722,
      "##liyorum": 5723,
      "##dımı": 5724,
      "del": 5725,
      "dede": 5726,
      "demet": 5727,
      "detay": 5728,
      "##ünist": 5729,
      "yağı": 5730,
      "##medik": 5731,
      "##mediğini": 5732,
      "##iyiz": 5733,
      "##tıp": 5734,
      "kası": 5735,
      "##imar": 5736,
      "##imlerin": 5737,
      "##ona": 5738,
      "##ete": 5739,
      "##raç": 5740,
      "##rası": 5741,
      "##ell": 5742,
      "dava": 5743,
      "##lanmaya": 5744,
      "##lanmasını": 5745,
      "##atur": 5746,
      "##mıyordum": 5747,
      "##sıdır": 5748,
      "buz": 5749,
      "bulabilir": 5750,
      "##ğım": 5751,
      "##eyt": 5752,
      "##emiş": 5753,
      "##danoz": 5754,
      "##taç": 5755,
      "gösteri": 5756,
      "##allah": 5757,
      "##cele": 5758,
      "##amda": 5759,
      "##amuk": 5760,
      "##azi": 5761,
      "##isiz": 5762,
      "yapacağını": 5763,
      "inanı": 5764,
      "##lerime": 5765,
      "başından": 5766,
      "ant": 5767,
      "anlar": 5768,
      "anah": 5769,
      "anayasa": 5770,
      "karn": 5771,
      "karı": 5772,
      "karışı": 5773,
      "sonbahar": 5774,
      "görecek": 5775,
      "görmez": 5776,
      "içinden": 5777,
      "##dırlar": 5778,
      "gidece": 5779,
      "hatıra": 5780,
      "bilen": 5781,
      "bilinc": 5782,
      "##mekle": 5783,
      "##unus": 5784,
      "değeri": 5785,
      "önde": 5786,
      "önlem": 5787,
      "önümüz": 5788,
      "aldığını": 5789,
      "almadan": 5790,
      "verip": 5791,
      "verildi": 5792,
      "vermeden": 5793,
      "verimli": 5794,
      "gereği": 5795,
      "##luğa": 5796,
      "##alır": 5797,
      "yerler": 5798,
      "yerinden": 5799,
      "varlık": 5800,
      "onur": 5801,
      "onca": 5802,
      "güne": 5803,
      "günler": 5804,
      "günden": 5805,
      "gündem": 5806,
      "arz": 5807,
      "ardı": 5808,
      "##sansör": 5809,
      "arasına": 5810,
      "##uyan": 5811,
      "##uydu": 5812,
      "çıkma": 5813,
      "çıkmış": 5814,
      "çıkarak": 5815,
      "##eci": 5816,
      "kova": 5817,
      "olmaması": 5818,
      "olmayacak": 5819,
      "Birden": 5820,
      "işler": 5821,
      "işleri": 5822,
      "işlerini": 5823,
      "işlerine": 5824,
      "işliyor": 5825,
      "işkence": 5826,
      "istik": 5827,
      "##meyeceği": 5828,
      "sonrasında": 5829,
      "geçmek": 5830,
      "geçmesi": 5831,
      "tedbir": 5832,
      "##ezilya": 5833,
      "bulmak": 5834,
      "##mayacağı": 5835,
      "kuru": 5836,
      "kurdu": 5837,
      "kurmuş": 5838,
      "##dern": 5839,
      "##ciğ": 5840,
      "##civer": 5841,
      "sürül": 5842,
      "sürdü": 5843,
      "Anne": 5844,
      "Anlat": 5845,
      "insanlarla": 5846,
      "karşıya": 5847,
      "karşısındaki": 5848,
      "yazık": 5849,
      "##diğinden": 5850,
      "eline": 5851,
      "elindeki": 5852,
      "##dilik": 5853,
      "topla": 5854,
      "topar": 5855,
      "topra": 5856,
      "evin": 5857,
      "bakıyor": 5858,
      "##ğrul": 5859,
      "akla": 5860,
      "sorgu": 5861,
      "soruştur": 5862,
      "uyum": 5863,
      "uyumlu": 5864,
      "uygar": 5865,
      "sevk": 5866,
      "##facık": 5867,
      "derdi": 5868,
      "dersiniz": 5869,
      "başlamış": 5870,
      "gereksin": 5871,
      "gerektiği": 5872,
      "üzerindeki": 5873,
      "##ock": 5874,
      "##mazlar": 5875,
      "##dikal": 5876,
      "##uyorsunuz": 5877,
      "##eleriyle": 5878,
      "kapas": 5879,
      "kapatıl": 5880,
      "özgün": 5881,
      "yönel": 5882,
      "domates": 5883,
      "##metli": 5884,
      "yollar": 5885,
      "yolunu": 5886,
      "yollarını": 5887,
      "yolcu": 5888,
      "bulunmayan": 5889,
      "kişili": 5890,
      "edilmişti": 5891,
      "girdim": 5892,
      "kendisinin": 5893,
      "konuşur": 5894,
      "konuşmak": 5895,
      "duyarlı": 5896,
      "parma": 5897,
      "parçası": 5898,
      "kaygı": 5899,
      "kaybı": 5900,
      "gözden": 5901,
      "hakem": 5902,
      "haksız": 5903,
      "unuta": 5904,
      "##ğustos": 5905,
      "ortamda": 5906,
      "##ihayet": 5907,
      "hemş": 5908,
      "##iyetini": 5909,
      "çekildi": 5910,
      "sandık": 5911,
      "belirgin": 5912,
      "adamı": 5913,
      "adalet": 5914,
      "düzel": 5915,
      "yardımı": 5916,
      "##reteri": 5917,
      "##lırken": 5918,
      "bekley": 5919,
      "bekleme": 5920,
      "##abilecek": 5921,
      "tarafı": 5922,
      "Erbil": 5923,
      "olurlar": 5924,
      "sergi": 5925,
      "izlen": 5926,
      "izleyen": 5927,
      "tutul": 5928,
      "tutuk": 5929,
      "muha": 5930,
      "muhaf": 5931,
      "muhalefet": 5932,
      "değişim": 5933,
      "korsan": 5934,
      "üstün": 5935,
      "##liğinin": 5936,
      "dünyadaki": 5937,
      "atmak": 5938,
      "buradan": 5939,
      "çocukları": 5940,
      "çocukların": 5941,
      "çocukluğ": 5942,
      "önemi": 5943,
      "mıydı": 5944,
      "mısınız": 5945,
      "mısır": 5946,
      "çıkart": 5947,
      "çıkarmaya": 5948,
      "bitmiş": 5949,
      "bitişik": 5950,
      "hepimiz": 5951,
      "hepimizin": 5952,
      "##amam": 5953,
      "taşır": 5954,
      "istediğini": 5955,
      "tanımak": 5956,
      "edeceğ": 5957,
      "bağlan": 5958,
      "##yınca": 5959,
      "kadınların": 5960,
      "Sait": 5961,
      "koydu": 5962,
      "Akrep": 5963,
      "profes": 5964,
      "yürek": 5965,
      "biridir": 5966,
      "dönemin": 5967,
      "bıraktı": 5968,
      "olmuştum": 5969,
      "##rist": 5970,
      "adamları": 5971,
      "Bize": 5972,
      "güçlerini": 5973,
      "Hacı": 5974,
      "##lığından": 5975,
      "##tılmış": 5976,
      "##tılması": 5977,
      "Günlük": 5978,
      "paralel": 5979,
      "##ladılar": 5980,
      "tarihli": 5981,
      "##kest": 5982,
      "imkan": 5983,
      "kuma": 5984,
      "Dünyanın": 5985,
      "##layıcı": 5986,
      "önemlidir": 5987,
      "önemlisi": 5988,
      "isk": 5989,
      "alım": 5990,
      "##portaj": 5991,
      "katlı": 5992,
      "bazıları": 5993,
      "dilek": 5994,
      "güle": 5995,
      "ressam": 5996,
      "##duğunuz": 5997,
      "düzenlenen": 5998,
      "kazandı": 5999,
      "barın": 6000,
      "otuz": 6001,
      "yaşamın": 6002,
      "kapıyı": 6003,
      "kapısını": 6004,
      "Kurul": 6005,
      "açılan": 6006,
      "anlatmak": 6007,
      "anlattığı": 6008,
      "görevli": 6009,
      "Asya": 6010,
      "dikkate": 6011,
      "yaptılar": 6012,
      "Dünyada": 6013,
      "Sanal": 6014,
      "masa": 6015,
      "masanın": 6016,
      "çalışmalarını": 6017,
      "##eceğimiz": 6018,
      "Avrupalı": 6019,
      "komp": 6020,
      "komutan": 6021,
      "bölgenin": 6022,
      "heyeti": 6023,
      "2005": 6024,
      "Kıraç": 6025,
      "bahset": 6026,
      "odasında": 6027,
      "##talyan": 6028,
      "taban": 6029,
      "##ümüzü": 6030,
      "toplumun": 6031,
      "ağacı": 6032,
      "unuttur": 6033,
      "geleceğini": 6034,
      "kaynatın": 6035,
      "Bursa": 6036,
      "kutlama": 6037,
      "dostluk": 6038,
      "öğretmeni": 6039,
      "çağr": 6040,
      "olaylara": 6041,
      "sınırları": 6042,
      "Tekn": 6043,
      "Derneği": 6044,
      "Maliye": 6045,
      "patlama": 6046,
      "ateşten": 6047,
      "çözümü": 6048,
      "Gazze": 6049,
      "Mars": 6050,
      "yaratıcı": 6051,
      "##panyol": 6052,
      "##lerimdeki": 6053,
      "telefonu": 6054,
      "karıştırarak": 6055,
      "fırın": 6056,
      "misyon": 6057,
      "misiniz": 6058,
      "sosyalist": 6059,
      "bildirildi": 6060,
      "toplantısında": 6061,
      "ötek": 6062,
      "herkese": 6063,
      "parçaları": 6064,
      "askerlik": 6065,
      "Kent": 6066,
      "##gari": 6067,
      "##larımın": 6068,
      "isteyenler": 6069,
      "Abdül": 6070,
      "Kızı": 6071,
      "##kov": 6072,
      "##END": 6073,
      "saçma": 6074,
      "saçları": 6075,
      "tavır": 6076,
      "Haydar": 6077,
      "Kadını": 6078,
      "Toplantı": 6079,
      "Hakan": 6080,
      "annemin": 6081,
      "bozul": 6082,
      "bozuk": 6083,
      "silahlı": 6084,
      "düşüncelerini": 6085,
      "badem": 6086,
      "kendimiz": 6087,
      "söyleyen": 6088,
      "##üslümanlar": 6089,
      "partilerin": 6090,
      "bekleniyor": 6091,
      "dışarıya": 6092,
      "kilomet": 6093,
      "liradan": 6094,
      "özgü": 6095,
      "Demirel": 6096,
      "Bölüm": 6097,
      "Geçmiş": 6098,
      "Turizm": 6099,
      "avuk": 6100,
      "ailesi": 6101,
      "bayrak": 6102,
      "istemiş": 6103,
      "Köş": 6104,
      "Kötü": 6105,
      "darb": 6106,
      "gücüyle": 6107,
      "##ival": 6108,
      "Kayseri": 6109,
      "Mesela": 6110,
      "Prof": 6111,
      "iptal": 6112,
      "kültürel": 6113,
      "sinemaya": 6114,
      "ordus": 6115,
      "alışveriş": 6116,
      "Cumhuriyeti": 6117,
      "sinirli": 6118,
      "demokratik": 6119,
      "cami": 6120,
      "kirli": 6121,
      "keşfet": 6122,
      "benzet": 6123,
      "Afrika": 6124,
      "Sıra": 6125,
      "hazin": 6126,
      "satın": 6127,
      "tırman": 6128,
      "üyesi": 6129,
      "üyeli": 6130,
      "sapta": 6131,
      "sanatçılar": 6132,
      "##LİK": 6133,
      "Babamın": 6134,
      "Katolik": 6135,
      "fedak": 6136,
      "garip": 6137,
      "peşinde": 6138,
      "mesajı": 6139,
      "tutam": 6140,
      "Kims": 6141,
      "coşk": 6142,
      "yurtdış": 6143,
      "kasaba": 6144,
      "düşünüyorum": 6145,
      "gittikçe": 6146,
      "Koç": 6147,
      "müşter": 6148,
      "rolü": 6149,
      "vücud": 6150,
      "##liliği": 6151,
      "oranında": 6152,
      "yürüyüş": 6153,
      "değişiklikler": 6154,
      "Gerçekten": 6155,
      "Cennet": 6156,
      "Resim": 6157,
      "kanıt": 6158,
      "peygam": 6159,
      "çabuk": 6160,
      "sahneye": 6161,
      "Alev": 6162,
      "gerçeği": 6163,
      "yüzyılın": 6164,
      "müdürü": 6165,
      "şiddetli": 6166,
      "Brezilya": 6167,
      "Bulgar": 6168,
      "itiraf": 6169,
      "maydanoz": 6170,
      "stat": 6171,
      "##roseksüel": 6172,
      "tedav": 6173,
      "tedavi": 6174,
      "ihtimal": 6175,
      "tasarru": 6176,
      "sömür": 6177,
      "zehirli": 6178,
      "dalga": 6179,
      "sorununun": 6180,
      "problem": 6181,
      "çerçevesinde": 6182,
      "obj": 6183,
      "röportaj": 6184,
      "rakam": 6185,
      "trafik": 6186,
      "##sever": 6187,
      "göğüs": 6188,
      "alkış": 6189,
      "anlayış": 6190,
      "milliyetçi": 6191,
      "Ayakkabı": 6192,
      "sessizce": 6193,
      "geleneksel": 6194,
      "tencerede": 6195,
      "Aşağıdaki": 6196,
      "Bankası": 6197,
      "Behçet": 6198,
      "Fatih": 6199,
      "Rumeli": 6200,
      "Temmuz": 6201,
      "diplo": 6202,
      "fizik": 6203,
      "pazarı": 6204,
      "ticaret": 6205,
      "çatış": 6206,
      "İlhan": 6207,
      "enflasyon": 6208,
      "##ternatif": 6209,
      "Hastanesi": 6210,
      "çoğunlukla": 6211,
      "Muhammed": 6212,
      "Fakültesi": 6213,
      "Bağdat": 6214,
      "Murat": 6215,
      "Uğur": 6216,
      "eylem": 6217,
      "nüfus": 6218,
      "paket": 6219,
      "##buki": 6220,
      "Güvenlik": 6221,
      "disiplin": 6222,
      "civar": 6223,
      "somut": 6224,
      "Şampiyonası": 6225,
      "Erzurum": 6226,
      "Kurtuluş": 6227,
      "kahkaha": 6228,
      "Abdullah": 6229,
      "Yardımcısı": 6230,
      "Denktaş": 6231,
      "Ecevit": 6232,
      "Jüpiter": 6233,
      "layık": 6234,
      "litre": 6235,
      "##civert": 6236,
      "34": 6237,
      "300": 6238,
      "51": 6239,
      "70": 6240,
      "700": 6241,
      "80": 6242,
      "Ap": 6243,
      "Acı": 6244,
      "Ayla": 6245,
      "Azer": 6246,
      "Aile": 6247,
      "Aaa": 6248,
      "Ca": 6249,
      "Cor": 6250,
      "Coş": 6251,
      "Ceza": 6252,
      "DY": 6253,
      "Den": 6254,
      "Ee": 6255,
      "Ede": 6256,
      "Edi": 6257,
      "Emin": 6258,
      "Fil": 6259,
      "Fas": 6260,
      "Gez": 6261,
      "Gerek": 6262,
      "Ho": 6263,
      "Hil": 6264,
      "Hik": 6265,
      "Hit": 6266,
      "Hürriyet": 6267,
      "Ir": 6268,
      "IM": 6269,
      "Ju": 6270,
      "Kana": 6271,
      "KKT": 6272,
      "Lo": 6273,
      "Lim": 6274,
      "Ley": 6275,
      "List": 6276,
      "Lady": 6277,
      "Min": 6278,
      "Men": 6279,
      "Mün": 6280,
      "Mini": 6281,
      "Mas": 6282,
      "Meş": 6283,
      "Mide": 6284,
      "Ot": 6285,
      "Ote": 6286,
      "Otur": 6287,
      "Pir": 6288,
      "Pop": 6289,
      "Pap": 6290,
      "Pren": 6291,
      "Rab": 6292,
      "Rıza": 6293,
      "Sar": 6294,
      "Sey": 6295,
      "Suy": 6296,
      "Sizi": 6297,
      "Sov": 6298,
      "Selim": 6299,
      "Strate": 6300,
      "Sig": 6301,
      "SON": 6302,
      "SEV": 6303,
      "Ti": 6304,
      "TB": 6305,
      "Temiz": 6306,
      "Telek": 6307,
      "Ulusal": 6308,
      "Uganda": 6309,
      "Yat": 6310,
      "Yusu": 6311,
      "Yurt": 6312,
      "Yazar": 6313,
      "Yav": 6314,
      "Yunus": 6315,
      "Zira": 6316,
      "aya": 6317,
      "ajan": 6318,
      "ağız": 6319,
      "bık": 6320,
      "bası": 6321,
      "cuma": 6322,
      "dili": 6323,
      "dib": 6324,
      "ec": 6325,
      "emin": 6326,
      "eyle": 6327,
      "eliyle": 6328,
      "fış": 6329,
      "final": 6330,
      "fatur": 6331,
      "ga": 6332,
      "güz": 6333,
      "gayet": 6334,
      "hor": 6335,
      "hamur": 6336,
      "ihan": 6337,
      "icat": 6338,
      "kra": 6339,
      "kuz": 6340,
      "kup": 6341,
      "kef": 6342,
      "kira": 6343,
      "küf": 6344,
      "kral": 6345,
      "klasik": 6346,
      "lanet": 6347,
      "mün": 6348,
      "mon": 6349,
      "miz": 6350,
      "mit": 6351,
      "mük": 6352,
      "mec": 6353,
      "müslümanlar": 6354,
      "ndaki": 6355,
      "ndeki": 6356,
      "netic": 6357,
      "of": 6358,
      "oca": 6359,
      "ocak": 6360,
      "pa": 6361,
      "pul": 6362,
      "pas": 6363,
      "payı": 6364,
      "ris": 6365,
      "sel": 6366,
      "sök": 6367,
      "suyla": 6368,
      "ton": 6369,
      "tet": 6370,
      "tey": 6371,
      "tul": 6372,
      "tay": 6373,
      "tec": 6374,
      "tör": 6375,
      "toz": 6376,
      "ulus": 6377,
      "val": 6378,
      "vide": 6379,
      "vapur": 6380,
      "yle": 6381,
      "ydi": 6382,
      "zek": 6383,
      "Çor": 6384,
      "Çay": 6385,
      "Çab": 6386,
      "Çev": 6387,
      "Öl": 6388,
      "Öğ": 6389,
      "Ömer": 6390,
      "Ümit": 6391,
      "çak": 6392,
      "çey": 6393,
      "çiğ": 6394,
      "ök": 6395,
      "üm": 6396,
      "üs": 6397,
      "İr": 6398,
      "İÇ": 6399,
      "İdar": 6400,
      "İtalyan": 6401,
      "ız": 6402,
      "ısın": 6403,
      "Şen": 6404,
      "Şev": 6405,
      "şö": 6406,
      "şirin": 6407,
      "şikâ": 6408,
      "##elerini": 6409,
      "##elerinden": 6410,
      "##eğin": 6411,
      "##ney": 6412,
      "##nini": 6413,
      "##alan": 6414,
      "##amıyor": 6415,
      "##şey": 6416,
      "##şap": 6417,
      "##şallah": 6418,
      "##uda": 6419,
      "##tt": 6420,
      "##tun": 6421,
      "##tti": 6422,
      "##tleri": 6423,
      "##tiniz": 6424,
      "##üyordum": 6425,
      "##baz": 6426,
      "##büs": 6427,
      "##ysa": 6428,
      "##lini": 6429,
      "##dor": 6430,
      "##dını": 6431,
      "##dre": 6432,
      "##dret": 6433,
      "##oo": 6434,
      "##ow": 6435,
      "##ole": 6436,
      "##mo": 6437,
      "##mın": 6438,
      "##mini": 6439,
      "##müyorum": 6440,
      "##has": 6441,
      "##cüm": 6442,
      "##cuk": 6443,
      "##cili": 6444,
      "##ceyi": 6445,
      "##sah": 6446,
      "##ski": 6447,
      "##ger": 6448,
      "##gah": 6449,
      "##gos": 6450,
      "##gesel": 6451,
      "##vut": 6452,
      "##fez": 6453,
      "##öğr": 6454,
      "##çü": 6455,
      "##çesi": 6456,
      "##çilik": 6457,
      "##pat": 6458,
      "##ân": 6459,
      "##âr": 6460,
      "##AŞ": 6461,
      "##İD": 6462,
      "##LU": 6463,
      "##LD": 6464,
      "##LI": 6465,
      "##SM": 6466,
      "##ES": 6467,
      "##ED": 6468,
      "##EM": 6469,
      "##IM": 6470,
      "##MM": 6471,
      "##lamıştı": 6472,
      "##lacağını": 6473,
      "##iner": 6474,
      "##inat": 6475,
      "##anan": 6476,
      "##ande": 6477,
      "##ena": 6478,
      "##ari": 6479,
      "##arlığı": 6480,
      "##larmış": 6481,
      "##iliyordu": 6482,
      "##ilmesine": 6483,
      "##mali": 6484,
      "##maların": 6485,
      "##madığım": 6486,
      "##ektif": 6487,
      "##lep": 6488,
      "##lete": 6489,
      "##lemiş": 6490,
      "##und": 6491,
      "##ord": 6492,
      "##orta": 6493,
      "bire": 6494,
      "biris": 6495,
      "birinden": 6496,
      "birliği": 6497,
      "##dağ": 6498,
      "##lıyordu": 6499,
      "##lit": 6500,
      "##diven": 6501,
      "dediğimiz": 6502,
      "yayı": 6503,
      "##mede": 6504,
      "##meme": 6505,
      "##medim": 6506,
      "##memesi": 6507,
      "##iyatı": 6508,
      "kaş": 6509,
      "kade": 6510,
      "kaya": 6511,
      "kalıyor": 6512,
      "kabu": 6513,
      "##imden": 6514,
      "##izler": 6515,
      "##eth": 6516,
      "##rama": 6517,
      "dalı": 6518,
      "##lana": 6519,
      "##lanınca": 6520,
      "olmanız": 6521,
      "olsaydı": 6522,
      "##stur": 6523,
      "##stral": 6524,
      "##duy": 6525,
      "##yoruz": 6526,
      "bulabil": 6527,
      "buhar": 6528,
      "##emmel": 6529,
      "##umartesi": 6530,
      "##tadır": 6531,
      "##tasyon": 6532,
      "gövde": 6533,
      "##ulları": 6534,
      "içten": 6535,
      "##aydın": 6536,
      "##ayınca": 6537,
      "##amlı": 6538,
      "##itlik": 6539,
      "##aza": 6540,
      "##isinden": 6541,
      "yapıldı": 6542,
      "yaparım": 6543,
      "yapılması": 6544,
      "yapamaz": 6545,
      "##ahan": 6546,
      "##ahat": 6547,
      "inana": 6548,
      "intihar": 6549,
      "##oluk": 6550,
      "başa": 6551,
      "başını": 6552,
      "başlarına": 6553,
      "başbak": 6554,
      "andır": 6555,
      "##test": 6556,
      "görmeye": 6557,
      "görmüş": 6558,
      "gördük": 6559,
      "##lıklarını": 6560,
      "##dırdı": 6561,
      "etmez": 6562,
      "etmiştir": 6563,
      "etmeyen": 6564,
      "bilet": 6565,
      "biliyordu": 6566,
      "bilmem": 6567,
      "satı": 6568,
      "##arap": 6569,
      "nef": 6570,
      "##kalı": 6571,
      "öngör": 6572,
      "##ülük": 6573,
      "alma": 6574,
      "alternatif": 6575,
      "##sağı": 6576,
      "vermek": 6577,
      "verdik": 6578,
      "vererek": 6579,
      "vermez": 6580,
      "vermiştir": 6581,
      "vermedi": 6582,
      "konum": 6583,
      "konul": 6584,
      "konuk": 6585,
      "konuyla": 6586,
      "##lenin": 6587,
      "kadını": 6588,
      "kaderi": 6589,
      "yerlere": 6590,
      "varlığı": 6591,
      "onlardan": 6592,
      "ayda": 6593,
      "aynen": 6594,
      "aykırı": 6595,
      "gelmek": 6596,
      "geldim": 6597,
      "geldiğini": 6598,
      "günün": 6599,
      "güney": 6600,
      "artır": 6601,
      "ardına": 6602,
      "arama": 6603,
      "##üyü": 6604,
      "yaşat": 6605,
      "Türkmen": 6606,
      "çıkması": 6607,
      "##kenti": 6608,
      "##usunda": 6609,
      "olmam": 6610,
      "olmasa": 6611,
      "olmamakla": 6612,
      "yılları": 6613,
      "olduğunda": 6614,
      "olduğumuz": 6615,
      "olduğumu": 6616,
      "Biraz": 6617,
      "Birlikte": 6618,
      "işten": 6619,
      "##meyeceğini": 6620,
      "açtığı": 6621,
      "açıldı": 6622,
      "geçiş": 6623,
      "tez": 6624,
      "teb": 6625,
      "düşmüştü": 6626,
      "##larınızı": 6627,
      "kurulu": 6628,
      "kurduğu": 6629,
      "yanık": 6630,
      "yankı": 6631,
      "yanındaki": 6632,
      "anladım": 6633,
      "anlatıyor": 6634,
      "sürü": 6635,
      "sürük": 6636,
      "süreç": 6637,
      "süreli": 6638,
      "sürüyor": 6639,
      "sürüldü": 6640,
      "##asıyla": 6641,
      "zamana": 6642,
      "zamanında": 6643,
      "doğa": 6644,
      "doğan": 6645,
      "doğran": 6646,
      "##imizden": 6647,
      "olaya": 6648,
      "bende": 6649,
      "duruyor": 6650,
      "karşısına": 6651,
      "yazarı": 6652,
      "##diğin": 6653,
      "büyüt": 6654,
      "##lüğe": 6655,
      "değilsiniz": 6656,
      "topu": 6657,
      "döner": 6658,
      "döneme": 6659,
      "##tuğ": 6660,
      "##tuğrul": 6661,
      "evden": 6662,
      "evlilik": 6663,
      "evvel": 6664,
      "bakmış": 6665,
      "bakkal": 6666,
      "diyecek": 6667,
      "kalmıştı": 6668,
      "yüzü": 6669,
      "yüzünü": 6670,
      "çalışır": 6671,
      "çalıştım": 6672,
      "aktara": 6673,
      "sorar": 6674,
      "##tıkça": 6675,
      "uydu": 6676,
      "uydur": 6677,
      "uyuştur": 6678,
      "seviye": 6679,
      "sevdiği": 6680,
      "sevdiğim": 6681,
      "dert": 6682,
      "tali": 6683,
      "yapıyorum": 6684,
      "yakından": 6685,
      "yoksun": 6686,
      "##ecekleri": 6687,
      "gereksiz": 6688,
      "gerekiyordu": 6689,
      "gereklidir": 6690,
      "##bilirler": 6691,
      "##bilirsiniz": 6692,
      "##ocam": 6693,
      "bizleri": 6694,
      "bizdeki": 6695,
      "bizzat": 6696,
      "##elerle": 6697,
      "kapatı": 6698,
      "##addi": 6699,
      "##meniz": 6700,
      "özlem": 6701,
      "yönde": 6702,
      "yönelt": 6703,
      "doya": 6704,
      "general": 6705,
      "denir": 6706,
      "denli": 6707,
      "denilen": 6708,
      "denize": 6709,
      "bulunmak": 6710,
      "hallet": 6711,
      "edildiğini": 6712,
      "edilmesini": 6713,
      "edilmelidir": 6714,
      "##üsüne": 6715,
      "##üsünün": 6716,
      "giriyor": 6717,
      "devre": 6718,
      "kendime": 6719,
      "sözleş": 6720,
      "sözünü": 6721,
      "İnşa": 6722,
      "duyur": 6723,
      "duyul": 6724,
      "duyunca": 6725,
      "duydum": 6726,
      "##leye": 6727,
      "##leyiniz": 6728,
      "##tikleri": 6729,
      "kayık": 6730,
      "##ehri": 6731,
      "gözlerini": 6732,
      "gözlük": 6733,
      "gözalt": 6734,
      "kulüp": 6735,
      "kulüb": 6736,
      "getirin": 6737,
      "sahte": 6738,
      "##terem": 6739,
      "tarif": 6740,
      "ortada": 6741,
      "ortasında": 6742,
      "eks": 6743,
      "ekol": 6744,
      "##ilendir": 6745,
      "çekiş": 6746,
      "çekilmiş": 6747,
      "çekilmesi": 6748,
      "kullandı": 6749,
      "kullanım": 6750,
      "gitmişti": 6751,
      "sağlığı": 6752,
      "sağlayacak": 6753,
      "##ifte": 6754,
      "düşünerek": 6755,
      "düşünürken": 6756,
      "yetin": 6757,
      "yetmez": 6758,
      "yetene": 6759,
      "köt": 6760,
      "köp": 6761,
      "esk": 6762,
      "düzgün": 6763,
      "takdir": 6764,
      "yarın": 6765,
      "##dığınız": 6766,
      "beklenen": 6767,
      "keskin": 6768,
      "##kanın": 6769,
      "##abilme": 6770,
      "Erkan": 6771,
      "Erke": 6772,
      "Erkek": 6773,
      "Ertuğrul": 6774,
      "azı": 6775,
      "mali": 6776,
      "maliyet": 6777,
      "serp": 6778,
      "##vercin": 6779,
      "izley": 6780,
      "tutum": 6781,
      "zordur": 6782,
      "zorluk": 6783,
      "sizden": 6784,
      "durumun": 6785,
      "koruyan": 6786,
      "##acaktı": 6787,
      "ülkesinde": 6788,
      "ülkeden": 6789,
      "##iğin": 6790,
      "##iğine": 6791,
      "##liğinden": 6792,
      "dünyayı": 6793,
      "Aydın": 6794,
      "atma": 6795,
      "attı": 6796,
      "attığı": 6797,
      "burç": 6798,
      "burun": 6799,
      "burcu": 6800,
      "yükse": 6801,
      "##ıyorlar": 6802,
      "biter": 6803,
      "bitti": 6804,
      "bitiyor": 6805,
      "sesin": 6806,
      "sesle": 6807,
      "seslendir": 6808,
      "mide": 6809,
      "##beği": 6810,
      "##ick": 6811,
      "##iciler": 6812,
      "ediyordum": 6813,
      "kırılma": 6814,
      "kendileri": 6815,
      "öğrendik": 6816,
      "öğrenildi": 6817,
      "başkalarına": 6818,
      "##düğünde": 6819,
      "bunlardan": 6820,
      "tümüyle": 6821,
      "İslam": 6822,
      "İslâ": 6823,
      "İspanyol": 6824,
      "Sav": 6825,
      "Salata": 6826,
      "koymuş": 6827,
      "##sinler": 6828,
      "##ınızın": 6829,
      "Araba": 6830,
      "dönemlerde": 6831,
      "bırakın": 6832,
      "bırakmış": 6833,
      "bıraktığı": 6834,
      "##mert": 6835,
      "Bizi": 6836,
      "Hav": 6837,
      "Hadi": 6838,
      "Hast": 6839,
      "Hasta": 6840,
      "Engin": 6841,
      "##emizdeki": 6842,
      "mutlulu": 6843,
      "yöneten": 6844,
      "yanıtı": 6845,
      "oturdu": 6846,
      "##layısıyla": 6847,
      "yaşamış": 6848,
      "yazılan": 6849,
      "eşliğinde": 6850,
      "ikram": 6851,
      "ikisinin": 6852,
      "ismi": 6853,
      "isimler": 6854,
      "sabaha": 6855,
      "şudur": 6856,
      "Özal": 6857,
      "Özdemir": 6858,
      "##layabilir": 6859,
      "saati": 6860,
      "saatte": 6861,
      "düzenli": 6862,
      "düzenlediği": 6863,
      "söylenen": 6864,
      "harekete": 6865,
      "hareketi": 6866,
      "edenler": 6867,
      "meslek": 6868,
      "konuları": 6869,
      "otor": 6870,
      "yaşamına": 6871,
      "ilişkisi": 6872,
      "##takal": 6873,
      "alınması": 6874,
      "anlattım": 6875,
      "kavga": 6876,
      "görevine": 6877,
      "sayısını": 6878,
      "sayılır": 6879,
      "##mıyorlar": 6880,
      "görünt": 6881,
      "görünen": 6882,
      "etkisi": 6883,
      "dikkatli": 6884,
      "Ordu": 6885,
      "Orman": 6886,
      "##lattı": 6887,
      "gezin": 6888,
      "Kardeş": 6889,
      "##uyucu": 6890,
      "Beyoğlu": 6891,
      "kuşku": 6892,
      "masraf": 6893,
      "olmaktan": 6894,
      "çalışmalar": 6895,
      "##gisini": 6896,
      "komut": 6897,
      "Yıllar": 6898,
      "filmin": 6899,
      "çarşı": 6900,
      "2007": 6901,
      "2002": 6902,
      "2001": 6903,
      "2000": 6904,
      "2008": 6905,
      "Kaç": 6906,
      "Kala": 6907,
      "bahçe": 6908,
      "ulaşmak": 6909,
      "yenildi": 6910,
      "geceler": 6911,
      "##teşem": 6912,
      "tabağına": 6913,
      "##tiğine": 6914,
      "boşluk": 6915,
      "kolayca": 6916,
      "kolaylıkla": 6917,
      "korkunç": 6918,
      "Elma": 6919,
      "babasını": 6920,
      "babasının": 6921,
      "sakallı": 6922,
      "ayrılmış": 6923,
      "##maktadırlar": 6924,
      "etmedi": 6925,
      "Oyuncu": 6926,
      "bağırı": 6927,
      "geleceğ": 6928,
      "ediyoruz": 6929,
      "Buradan": 6930,
      "kutsal": 6931,
      "tahta": 6932,
      "tahsis": 6933,
      "desteğ": 6934,
      "desteği": 6935,
      "##olojisi": 6936,
      "oldukları": 6937,
      "Onunla": 6938,
      "gazetesi": 6939,
      "ağz": 6940,
      "ağzı": 6941,
      "##ANI": 6942,
      "anlamlı": 6943,
      "anlamsız": 6944,
      "olaylar": 6945,
      "genelde": 6946,
      "cins": 6947,
      "köylü": 6948,
      "yaptığım": 6949,
      "Bunları": 6950,
      "##lerimizin": 6951,
      "maçın": 6952,
      "maçta": 6953,
      "oluşturduğu": 6954,
      "giys": 6955,
      "haberleri": 6956,
      "metr": 6957,
      "metin": 6958,
      "metre": 6959,
      "metroseksüel": 6960,
      "savur": 6961,
      "duygularını": 6962,
      "hakkını": 6963,
      "değerlendirme": 6964,
      "kalkıp": 6965,
      "kahraman": 6966,
      "##luğun": 6967,
      "makine": 6968,
      "##ATÜRK": 6969,
      "koltuk": 6970,
      "##ajina": 6971,
      "kullanımı": 6972,
      "mevzu": 6973,
      "mevsim": 6974,
      "ürünü": 6975,
      "##acağımız": 6976,
      "Dolayısıyla": 6977,
      "Harry": 6978,
      "oğl": 6979,
      "okula": 6980,
      "Babası": 6981,
      "Halil": 6982,
      "ahlâ": 6983,
      "ahşap": 6984,
      "##kova": 6985,
      "##hard": 6986,
      "bilgileri": 6987,
      "saçlı": 6988,
      "suçlu": 6989,
      "Toplum": 6990,
      "maddeleri": 6991,
      "geçmişte": 6992,
      "sürdürüyor": 6993,
      "Geriye": 6994,
      "Gerçi": 6995,
      "Kaptan": 6996,
      "alalım": 6997,
      "futbolc": 6998,
      "margar": 6999,
      "temizlik": 7000,
      "götürüyor": 7001,
      "çalışanları": 7002,
      "sıcaklığı": 7003,
      "Kırk": 7004,
      "1961": 7005,
      "düşünceler": 7006,
      "değiştirmek": 7007,
      "uyandığımda": 7008,
      "##gâh": 7009,
      "bilimsel": 7010,
      "doğrult": 7011,
      "beklentiler": 7012,
      "dışarıda": 7013,
      "saygılı": 7014,
      "hissedi": 7015,
      "Takım": 7016,
      "kilo": 7017,
      "kilis": 7018,
      "kokusu": 7019,
      "modern": 7020,
      "anlaşma": 7021,
      "gidelim": 7022,
      "arttır": 7023,
      "Denizli": 7024,
      "Ekim": 7025,
      "##ovo": 7026,
      "aldığımız": 7027,
      "istemiyorum": 7028,
      "1998": 7029,
      "nite": 7030,
      "tüket": 7031,
      "tükür": 7032,
      "tüketic": 7033,
      "ısrar": 7034,
      "örgü": 7035,
      "temsilcisi": 7036,
      "temsilcileri": 7037,
      "Uzman": 7038,
      "sezonu": 7039,
      "vakit": 7040,
      "kabın": 7041,
      "yaptıkları": 7042,
      "kendilerinin": 7043,
      "üniversite": 7044,
      "söylüyor": 7045,
      "söylüyorum": 7046,
      "Sanatçı": 7047,
      "Aşk": 7048,
      "Müzik": 7049,
      "emniyet": 7050,
      "efendim": 7051,
      "keşif": 7052,
      "tiyatrosu": 7053,
      "okuyan": 7054,
      "okuyup": 7055,
      "eksiklik": 7056,
      "ettiğim": 7057,
      "ettiğimiz": 7058,
      "Afgan": 7059,
      "Görev": 7060,
      "niha": 7061,
      "tırnak": 7062,
      "hükümetin": 7063,
      "Yorgun": 7064,
      "acaba": 7065,
      "akıllı": 7066,
      "sokakta": 7067,
      "Düşün": 7068,
      "Düşünce": 7069,
      "##leksi": 7070,
      "hastane": 7071,
      "iktid": 7072,
      "Canan": 7073,
      "Karadeniz": 7074,
      "elimizde": 7075,
      "##elal": 7076,
      "kasab": 7077,
      "yapıldığını": 7078,
      "sevgili": 7079,
      "kıyılmış": 7080,
      "Babacan": 7081,
      "fakir": 7082,
      "müşteri": 7083,
      "posta": 7084,
      "piyasaya": 7085,
      "biriktir": 7086,
      "kalıyordu": 7087,
      "ettikten": 7088,
      "organizasyon": 7089,
      "süreci": 7090,
      "ayakkabıları": 7091,
      "isteyenlerin": 7092,
      "Dava": 7093,
      "süslü": 7094,
      "çekici": 7095,
      "##ronik": 7096,
      "aydınlık": 7097,
      "bakımdan": 7098,
      "kısıt": 7099,
      "bağımlı": 7100,
      "kamuoy": 7101,
      "Dedim": 7102,
      "Kalk": 7103,
      "Yönetim": 7104,
      "irti": 7105,
      "küçücük": 7106,
      "musunuz": 7107,
      "stratej": 7108,
      "stratejik": 7109,
      "yavru": 7110,
      "elektronik": 7111,
      "erkenden": 7112,
      "polisler": 7113,
      "mantıklı": 7114,
      "Halkla": 7115,
      "örgütü": 7116,
      "Bekir": 7117,
      "Samsun": 7118,
      "gürül": 7119,
      "minik": 7120,
      "rej": 7121,
      "çöp": 7122,
      "##LERİ": 7123,
      "##ladığınız": 7124,
      "yayımlanan": 7125,
      "##rahim": 7126,
      "bulup": 7127,
      "topluma": 7128,
      "sorumluluk": 7129,
      "sorumluluğunu": 7130,
      "Güneydoğu": 7131,
      "seyirci": 7132,
      "Cevdet": 7133,
      "Hangi": 7134,
      "Yengeç": 7135,
      "keyf": 7136,
      "zanne": 7137,
      "zeytinya": 7138,
      "##rese": 7139,
      "dergileri": 7140,
      "yetenekleri": 7141,
      "gökyüzünü": 7142,
      "Etkin": 7143,
      "aptal": 7144,
      "utanç": 7145,
      "dayanış": 7146,
      "olduğunuzu": 7147,
      "Günümüzde": 7148,
      "yenilg": 7149,
      "Kuvvetleri": 7150,
      "devrimci": 7151,
      "Unut": 7152,
      "lokanta": 7153,
      "medya": 7154,
      "tanınmış": 7155,
      "Üzerine": 7156,
      "##meliyim": 7157,
      "müsaade": 7158,
      "Kemalizm": 7159,
      "üzüntü": 7160,
      "Amerikalıların": 7161,
      "hâline": 7162,
      "hikâye": 7163,
      "deplasmanda": 7164,
      "ATATÜRK": 7165,
      "Grubu": 7166,
      "MİL": 7167,
      "Partisi": 7168,
      "Stadı": 7169,
      "buğday": 7170,
      "alınacak": 7171,
      "otobüs": 7172,
      "Belçika": 7173,
      "Direktörü": 7174,
      "Düzen": 7175,
      "Gelenek": 7176,
      "Kamu": 7177,
      "Londra": 7178,
      "Mektu": 7179,
      "Raporu": 7180,
      "Saddam": 7181,
      "Yugos": 7182,
      "bedeli": 7183,
      "cirit": 7184,
      "klor": 7185,
      "lezzet": 7186,
      "süper": 7187,
      "slogan": 7188,
      "standart": 7189,
      "yüce": 7190,
      "çamaşır": 7191,
      "kariyer": 7192,
      "isteklerini": 7193,
      "kıpır": 7194,
      "yeteneğ": 7195,
      "Silahlı": 7196,
      "Moskova": 7197,
      "Oscar": 7198,
      "Sekreteri": 7199,
      "SALAT": 7200,
      "Taraf": 7201,
      "Yüksek": 7202,
      "mülk": 7203,
      "müthiş": 7204,
      "restor": 7205,
      "Önemli": 7206,
      "İstiklal": 7207,
      "##tokol": 7208,
      "gideceğ": 7209,
      "kapasit": 7210,
      "muhalif": 7211,
      "Bölümü": 7212,
      "peygamber": 7213,
      "DYP": 7214,
      "Hikmet": 7215,
      "IMF": 7216,
      "KKTC": 7217,
      "Sovyet": 7218,
      "TBMM": 7219,
      "Telekom": 7220,
      "Yusuf": 7221,
      "Yavuz": 7222,
      "mükemmel": 7223,
      "tulum": 7224,
      "şikâyet": 7225,
      "İnşaat": 7226,
      "Erkeği": 7227,
      "Yugoslav": 7228,
      "000": 7229,
      "21": 7230,
      "38": 7231,
      "41": 7232,
      "43": 7233,
      "46": 7234,
      "400": 7235,
      "57": 7236,
      "54": 7237,
      "76": 7238,
      "800": 7239,
      "AĞ": 7240,
      "Atin": 7241,
      "Ağır": 7242,
      "Ateş": 7243,
      "Ağustos": 7244,
      "Bür": 7245,
      "Boğ": 7246,
      "Bolu": 7247,
      "Bed": 7248,
      "Bazen": 7249,
      "BAB": 7250,
      "Cer": 7251,
      "Ceb": 7252,
      "Cuma": 7253,
      "Don": 7254,
      "Del": 7255,
      "Diğer": 7256,
      "Değ": 7257,
      "Dav": 7258,
      "Eli": 7259,
      "Eve": 7260,
      "Fır": 7261,
      "Gi": 7262,
      "GÖ": 7263,
      "Gar": 7264,
      "Gön": 7265,
      "Güç": 7266,
      "Grup": 7267,
      "Gümüş": 7268,
      "He": 7269,
      "Hiz": 7270,
      "Hel": 7271,
      "Hey": 7272,
      "His": 7273,
      "Haber": 7274,
      "Helen": 7275,
      "Hükü": 7276,
      "Hocam": 7277,
      "Işık": 7278,
      "KÜ": 7279,
      "Kir": 7280,
      "Kek": 7281,
      "Kut": 7282,
      "Karı": 7283,
      "Kos": 7284,
      "Kimi": 7285,
      "Koy": 7286,
      "Kamp": 7287,
      "KEND": 7288,
      "Le": 7289,
      "Lu": 7290,
      "Lan": 7291,
      "Lig": 7292,
      "Latif": 7293,
      "MG": 7294,
      "Mür": 7295,
      "Mal": 7296,
      "Mit": 7297,
      "Mis": 7298,
      "Mus": 7299,
      "Milan": 7300,
      "NE": 7301,
      "Naz": 7302,
      "Neler": 7303,
      "Nice": 7304,
      "Of": 7305,
      "Op": 7306,
      "Oda": 7307,
      "Otel": 7308,
      "Pu": 7309,
      "Ph": 7310,
      "Pra": 7311,
      "Pas": 7312,
      "Peş": 7313,
      "Pamuk": 7314,
      "Renk": 7315,
      "Rady": 7316,
      "Rüştü": 7317,
      "St": 7318,
      "Sur": 7319,
      "Sim": 7320,
      "Sark": 7321,
      "Seb": 7322,
      "Stal": 7323,
      "Sof": 7324,
      "Sınır": 7325,
      "Te": 7326,
      "TÜ": 7327,
      "Ten": 7328,
      "Tun": 7329,
      "Tes": 7330,
      "Tüz": 7331,
      "Tas": 7332,
      "Tep": 7333,
      "Tom": 7334,
      "Tav": 7335,
      "TEK": 7336,
      "TÜRK": 7337,
      "Ur": 7338,
      "Ulu": 7339,
      "Va": 7340,
      "Ven": 7341,
      "Vur": 7342,
      "Vah": 7343,
      "Vol": 7344,
      "Vic": 7345,
      "Veysel": 7346,
      "Yel": 7347,
      "Yum": 7348,
      "Yab": 7349,
      "Yanı": 7350,
      "Yara": 7351,
      "Yağ": 7352,
      "Yarım": 7353,
      "Yarış": 7354,
      "YOK": 7355,
      "Zavallı": 7356,
      "ale": 7357,
      "adan": 7358,
      "abi": 7359,
      "asa": 7360,
      "aley": 7361,
      "asi": 7362,
      "avan": 7363,
      "asır": 7364,
      "asansör": 7365,
      "bet": 7366,
      "bör": 7367,
      "büs": 7368,
      "beye": 7369,
      "cer": 7370,
      "coğraf": 7371,
      "dine": 7372,
      "dır": 7373,
      "dük": 7374,
      "diler": 7375,
      "dosya": 7376,
      "eti": 7377,
      "eman": 7378,
      "fu": 7379,
      "fın": 7380,
      "for": 7381,
      "faş": 7382,
      "fah": 7383,
      "form": 7384,
      "fısı": 7385,
      "güm": 7386,
      "giye": 7387,
      "hür": 7388,
      "hanı": 7389,
      "hop": 7390,
      "helik": 7391,
      "hani": 7392,
      "iğ": 7393,
      "ic": 7394,
      "imiş": 7395,
      "km": 7396,
      "kesi": 7397,
      "kep": 7398,
      "kre": 7399,
      "kele": 7400,
      "kedi": 7401,
      "koğuş": 7402,
      "lu": 7403,
      "lab": 7404,
      "lüz": 7405,
      "lüt": 7406,
      "me": 7407,
      "mir": 7408,
      "maz": 7409,
      "muk": 7410,
      "mız": 7411,
      "mırıl": 7412,
      "miyim": 7413,
      "no": 7414,
      "nar": 7415,
      "nur": 7416,
      "naz": 7417,
      "nazar": 7418,
      "nihayet": 7419,
      "ova": 7420,
      "ocağı": 7421,
      "pra": 7422,
      "pal": 7423,
      "plak": 7424,
      "pren": 7425,
      "pembe": 7426,
      "rez": 7427,
      "süm": 7428,
      "sön": 7429,
      "solu": 7430,
      "satan": 7431,
      "tün": 7432,
      "tül": 7433,
      "tri": 7434,
      "uf": 7435,
      "ufacık": 7436,
      "va": 7437,
      "varı": 7438,
      "vası": 7439,
      "yün": 7440,
      "yut": 7441,
      "yeş": 7442,
      "zem": 7443,
      "zekâ": 7444,
      "zavallı": 7445,
      "Çar": 7446,
      "Çık": 7447,
      "Çuk": 7448,
      "Çiç": 7449,
      "Çele": 7450,
      "Ödül": 7451,
      "Ür": 7452,
      "çe": 7453,
      "çil": 7454,
      "çıl": 7455,
      "öle": 7456,
      "ölen": 7457,
      "ömür": 7458,
      "İdil": 7459,
      "İlet": 7460,
      "İster": 7461,
      "İmam": 7462,
      "ışığı": 7463,
      "Şer": 7464,
      "Şem": 7465,
      "Şehr": 7466,
      "Şair": 7467,
      "şak": 7468,
      "şim": 7469,
      "şük": 7470,
      "şeri": 7471,
      "şunca": 7472,
      "şehr": 7473,
      "şair": 7474,
      "##nü": 7475,
      "##zen": 7476,
      "##25": 7477,
      "##adı": 7478,
      "##adaki": 7479,
      "##adü": 7480,
      "##şi": 7481,
      "##şu": 7482,
      "##uf": 7483,
      "##ulacak": 7484,
      "##rut": 7485,
      "##rının": 7486,
      "##resi": 7487,
      "##rüb": 7488,
      "##tek": 7489,
      "##üv": 7490,
      "##bel": 7491,
      "##bus": 7492,
      "##bası": 7493,
      "##bütün": 7494,
      "##biyet": 7495,
      "##yak": 7496,
      "##yip": 7497,
      "##kik": 7498,
      "##kuş": 7499,
      "##kiye": 7500,
      "##linin": 7501,
      "##lmaz": 7502,
      "##dunun": 7503,
      "##dos": 7504,
      "##düncü": 7505,
      "##drum": 7506,
      "##ılıyor": 7507,
      "##mu": 7508,
      "##muyordu": 7509,
      "##htım": 7510,
      "##cet": 7511,
      "##cilerin": 7512,
      "##sar": 7513,
      "##sup": 7514,
      "##siyi": 7515,
      "##gür": 7516,
      "##gas": 7517,
      "##gının": 7518,
      "##gesi": 7519,
      "##gre": 7520,
      "##gıp": 7521,
      "##gener": 7522,
      "##viş": 7523,
      "##vara": 7524,
      "##veç": 7525,
      "##fü": 7526,
      "##fek": 7527,
      "##fel": 7528,
      "##fik": 7529,
      "##fır": 7530,
      "##fte": 7531,
      "##fendi": 7532,
      "##feder": 7533,
      "##ömert": 7534,
      "##çeye": 7535,
      "##çilerin": 7536,
      "##pi": 7537,
      "##pı": 7538,
      "##ph": 7539,
      "##pınar": 7540,
      "##Şİ": 7541,
      "##Tİ": 7542,
      "##TÜK": 7543,
      "##YA": 7544,
      "##YON": 7545,
      "##EL": 7546,
      "##EF": 7547,
      "##UL": 7548,
      "##Mİ": 7549,
      "##BA": 7550,
      "##lası": 7551,
      "##laha": 7552,
      "##lasın": 7553,
      "##lamanın": 7554,
      "##lamıyor": 7555,
      "##lamıştır": 7556,
      "##erji": 7557,
      "##int": 7558,
      "##anır": 7559,
      "##ındır": 7560,
      "##enn": 7561,
      "##enen": 7562,
      "##ence": 7563,
      "##enleri": 7564,
      "##irdek": 7565,
      "##arlardı": 7566,
      "##larsa": 7567,
      "##akları": 7568,
      "##aktan": 7569,
      "##akçı": 7570,
      "##illa": 7571,
      "##illeri": 7572,
      "##ilmeye": 7573,
      "##ilmelidir": 7574,
      "##ildiğinde": 7575,
      "##mama": 7576,
      "##madık": 7577,
      "##mamalı": 7578,
      "##mavi": 7579,
      "##ekte": 7580,
      "##leğ": 7581,
      "##lemeye": 7582,
      "##deler": 7583,
      "##dete": 7584,
      "##delen": 7585,
      "##deyse": 7586,
      "##lıç": 7587,
      "##lıdır": 7588,
      "##lifi": 7589,
      "deme": 7590,
      "demeye": 7591,
      "##ünc": 7592,
      "yas": 7593,
      "yatan": 7594,
      "yasal": 7595,
      "##melerini": 7596,
      "##mediler": 7597,
      "##iymiş": 7598,
      "##ure": 7599,
      "##urova": 7600,
      "kast": 7601,
      "kağı": 7602,
      "kaşık": 7603,
      "kalabil": 7604,
      "kaşar": 7605,
      "##imini": 7606,
      "veda": 7607,
      "##izyon": 7608,
      "##etini": 7609,
      "##etmek": 7610,
      "##yaları": 7611,
      "##yasal": 7612,
      "##yahat": 7613,
      "##racat": 7614,
      "##elâ": 7615,
      "dayı": 7616,
      "olmaktadır": 7617,
      "##stil": 7618,
      "##stit": 7619,
      "##atu": 7620,
      "##attin": 7621,
      "##mışı": 7622,
      "##mılda": 7623,
      "##ınılmaz": 7624,
      "##sıra": 7625,
      "bucak": 7626,
      "##ikalı": 7627,
      "##emiyor": 7628,
      "##emiyordum": 7629,
      "##danı": 7630,
      "##umcu": 7631,
      "##ulup": 7632,
      "içe": 7633,
      "##ayen": 7634,
      "##ıkır": 7635,
      "##ıklık": 7636,
      "##ırsanız": 7637,
      "##ılmıştı": 7638,
      "##itan": 7639,
      "##itesi": 7640,
      "yapay": 7641,
      "yapının": 7642,
      "yapmıştı": 7643,
      "yapılma": 7644,
      "yaprağı": 7645,
      "##ahmet": 7646,
      "insa": 7647,
      "inip": 7648,
      "inanın": 7649,
      "##olon": 7650,
      "##tih": 7651,
      "##tiv": 7652,
      "##tist": 7653,
      "başlandı": 7654,
      "başlangıç": 7655,
      "başkent": 7656,
      "başlıklı": 7657,
      "başkenti": 7658,
      "##asın": 7659,
      "##asus": 7660,
      "##asındaki": 7661,
      "analiz": 7662,
      "karın": 7663,
      "karnı": 7664,
      "karısı": 7665,
      "geb": 7666,
      "##anıştır": 7667,
      "##üştür": 7668,
      "gördüğ": 7669,
      "görüp": 7670,
      "gördüğü": 7671,
      "göremez": 7672,
      "görüyorum": 7673,
      "##ilerine": 7674,
      "##ilerinden": 7675,
      "##lıklarla": 7676,
      "##makam": 7677,
      "##maktır": 7678,
      "had": 7679,
      "haliyle": 7680,
      "##miştik": 7681,
      "etik": 7682,
      "etraf": 7683,
      "etmekte": 7684,
      "etmeyi": 7685,
      "etmiyor": 7686,
      "etmenin": 7687,
      "etmiyoruz": 7688,
      "##dirir": 7689,
      "bilmek": 7690,
      "bileş": 7691,
      "bildik": 7692,
      "bilmeyen": 7693,
      "bildiğimiz": 7694,
      "bildiğiniz": 7695,
      "bilmiyoruz": 7696,
      "saya": 7697,
      "satıl": 7698,
      "sapan": 7699,
      "##araj": 7700,
      "##biber": 7701,
      "##tırım": 7702,
      "##önü": 7703,
      "değin": 7704,
      "önünü": 7705,
      "##bilen": 7706,
      "##bilmek": 7707,
      "##ülmesi": 7708,
      "alını": 7709,
      "almaz": 7710,
      "aldıkları": 7711,
      "alçak": 7712,
      "vermeye": 7713,
      "vermeyi": 7714,
      "verebilir": 7715,
      "verirken": 7716,
      "##selam": 7717,
      "gereğini": 7718,
      "konuyu": 7719,
      "kongr": 7720,
      "##lup": 7721,
      "##alıyor": 7722,
      "##lenir": 7723,
      "##leniyor": 7724,
      "##lenmek": 7725,
      "##lendim": 7726,
      "kader": 7727,
      "yerin": 7728,
      "yerleri": 7729,
      "vardım": 7730,
      "ayn": 7731,
      "aylık": 7732,
      "geleni": 7733,
      "gelmeye": 7734,
      "gelmiştir": 7735,
      "gelmedi": 7736,
      "günah": 7737,
      "gününü": 7738,
      "gündür": 7739,
      "günlerinin": 7740,
      "günümüz": 7741,
      "günüydü": 7742,
      "##sana": 7743,
      "##sanın": 7744,
      "##eşit": 7745,
      "arayı": 7746,
      "arayan": 7747,
      "arasından": 7748,
      "##opter": 7749,
      "##cıların": 7750,
      "yaşları": 7751,
      "yaşından": 7752,
      "Türkistan": 7753,
      "çıkmaz": 7754,
      "çıktım": 7755,
      "çıkmasına": 7756,
      "çıkınca": 7757,
      "çıkıyorum": 7758,
      "##usuna": 7759,
      "kenar": 7760,
      "##ecik": 7761,
      "kov": 7762,
      "koya": 7763,
      "koyan": 7764,
      "##enip": 7765,
      "olmaları": 7766,
      "##mızdaki": 7767,
      "yıldan": 7768,
      "yıllarca": 7769,
      "olduğunun": 7770,
      "iştir": 7771,
      "işlerde": 7772,
      "işada": 7773,
      "işleme": 7774,
      "işgal": 7775,
      "istiyordu": 7776,
      "##meyeceğim": 7777,
      "##tansiy": 7778,
      "açılması": 7779,
      "sonraları": 7780,
      "geçit": 7781,
      "geçip": 7782,
      "geçecek": 7783,
      "geçtik": 7784,
      "geçmeye": 7785,
      "geçtiği": 7786,
      "test": 7787,
      "##ışıklı": 7788,
      "##ağında": 7789,
      "düşmesi": 7790,
      "##laşan": 7791,
      "##laştı": 7792,
      "##laşık": 7793,
      "bulmuşlar": 7794,
      "##yana": 7795,
      "kurma": 7796,
      "kuruş": 7797,
      "kurmak": 7798,
      "kurtu": 7799,
      "kurban": 7800,
      "kuruma": 7801,
      "kurtarı": 7802,
      "##derler": 7803,
      "org": 7804,
      "yanını": 7805,
      "yanıl": 7806,
      "yangın": 7807,
      "olanların": 7808,
      "anlamamış": 7809,
      "sürgün": 7810,
      "##ördüncü": 7811,
      "doğu": 7812,
      "doğdu": 7813,
      "doğuyor": 7814,
      "şeyden": 7815,
      "Antep": 7816,
      "durdu": 7817,
      "durup": 7818,
      "durmadan": 7819,
      "karşıtı": 7820,
      "karşıladı": 7821,
      "karşılığında": 7822,
      "yazma": 7823,
      "yazmaya": 7824,
      "yazdığım": 7825,
      "##diğinin": 7826,
      "elma": 7827,
      "elli": 7828,
      "topluluk": 7829,
      "döndüm": 7830,
      "##yonel": 7831,
      "evet": 7832,
      "evleri": 7833,
      "evlere": 7834,
      "evlerine": 7835,
      "evlili": 7836,
      "baktım": 7837,
      "bakışı": 7838,
      "bakıldığında": 7839,
      "baktığınız": 7840,
      "diyeceğ": 7841,
      "kalmak": 7842,
      "kalsın": 7843,
      "kalmayacak": 7844,
      "yüzey": 7845,
      "yüzlü": 7846,
      "yüzlerine": 7847,
      "yüzlerce": 7848,
      "çalışması": 7849,
      "çalışkan": 7850,
      "akın": 7851,
      "akış": 7852,
      "akşa": 7853,
      "akşama": 7854,
      "##osunda": 7855,
      "sorusuna": 7856,
      "##tıkları": 7857,
      "uykusuz": 7858,
      "seven": 7859,
      "sevda": 7860,
      "seviy": 7861,
      "seviyorum": 7862,
      "##dimi": 7863,
      "dere": 7864,
      "dergi": 7865,
      "dergis": 7866,
      "teklifi": 7867,
      "tadı": 7868,
      "yapılarını": 7869,
      "yapılıyor": 7870,
      "yakışıklı": 7871,
      "başlayarak": 7872,
      "başlayınca": 7873,
      "gerekecek": 7874,
      "##düler": 7875,
      "##leşiyor": 7876,
      "##mazdı": 7877,
      "sıfır": 7878,
      "kaps": 7879,
      "kapan": 7880,
      "kapalı": 7881,
      "kapita": 7882,
      "##ador": 7883,
      "söylediği": 7884,
      "söylemişti": 7885,
      "yönden": 7886,
      "yönündeki": 7887,
      "oyunu": 7888,
      "oyunda": 7889,
      "oyunun": 7890,
      "##sızdı": 7891,
      "##sızdır": 7892,
      "doz": 7893,
      "dolandırı": 7894,
      "##metik": 7895,
      "deng": 7896,
      "denet": 7897,
      "deney": 7898,
      "deneyim": 7899,
      "yolları": 7900,
      "bulundur": 7901,
      "bulunmaktadır": 7902,
      "bulunmadığını": 7903,
      "##emedi": 7904,
      "halini": 7905,
      "kişiye": 7906,
      "edildiği": 7907,
      "edilemez": 7908,
      "girmek": 7909,
      "girerken": 7910,
      "devri": 7911,
      "devleti": 7912,
      "kendisiyle": 7913,
      "uzat": 7914,
      "İnşallah": 7915,
      "konuşması": 7916,
      "konuşurken": 7917,
      "konuşuyorlar": 7918,
      "duyan": 7919,
      "sular": 7920,
      "suda": 7921,
      "suların": 7922,
      "suika": 7923,
      "##leyse": 7924,
      "##leyecek": 7925,
      "kıv": 7926,
      "parç": 7927,
      "paranın": 7928,
      "parasını": 7929,
      "parlamen": 7930,
      "##tiklerini": 7931,
      "kaybe": 7932,
      "göze": 7933,
      "##eliyor": 7934,
      "##vali": 7935,
      "haksızlık": 7936,
      "hakiki": 7937,
      "##tüel": 7938,
      "getirir": 7939,
      "getiriyor": 7940,
      "getirip": 7941,
      "getirilmesi": 7942,
      "getirirler": 7943,
      "sahada": 7944,
      "sahib": 7945,
      "##lamada": 7946,
      "tartı": 7947,
      "ortalama": 7948,
      "ortasına": 7949,
      "öldüğü": 7950,
      "Onları": 7951,
      "Onlara": 7952,
      "##tığımız": 7953,
      "içindedir": 7954,
      "ekledi": 7955,
      "ekleyin": 7956,
      "##iyetin": 7957,
      "çeker": 7958,
      "çekim": 7959,
      "sanal": 7960,
      "kullanma": 7961,
      "kullanıl": 7962,
      "kullanılmış": 7963,
      "kullanabilir": 7964,
      "kullanıldığı": 7965,
      "gitar": 7966,
      "gitmeyi": 7967,
      "gittiğini": 7968,
      "ikide": 7969,
      "sağlıyor": 7970,
      "sağlayan": 7971,
      "sağlanması": 7972,
      "sağlayabil": 7973,
      "Amaç": 7974,
      "düşündür": 7975,
      "düşündük": 7976,
      "belirsiz": 7977,
      "belirlemek": 7978,
      "köken": 7979,
      "köfte": 7980,
      "tarafa": 7981,
      "esn": 7982,
      "eseri": 7983,
      "gösterdi": 7984,
      "takv": 7985,
      "taksi": 7986,
      "yararlı": 7987,
      "hariç": 7988,
      "Başlangıç": 7989,
      "aşa": 7990,
      "beklet": 7991,
      "kimisi": 7992,
      "kimyasal": 7993,
      "kesilmiş": 7994,
      "##abiliyor": 7995,
      "##abilmek": 7996,
      "tarafta": 7997,
      "Erol": 7998,
      "asil": 7999,
      "asgari": 8000,
      "nedense": 8001,
      "gerçekçi": 8002,
      "azın": 8003,
      "azalt": 8004,
      "macer": 8005,
      "madal": 8006,
      "magaz": 8007,
      "sırası": 8008,
      "sıradan": 8009,
      "izah": 8010,
      "tuttur": 8011,
      "tutup": 8012,
      "tutku": 8013,
      "sıkıl": 8014,
      "sıkış": 8015,
      "sıklıkla": 8016,
      "sıkılır": 8017,
      "durumdan": 8018,
      "durumuna": 8019,
      "kazı": 8020,
      "kazana": 8021,
      "korun": 8022,
      "dünyasının": 8023,
      "şekeri": 8024,
      "##lahi": 8025,
      "Arna": 8026,
      "atın": 8027,
      "atmaya": 8028,
      "attım": 8029,
      "burc": 8030,
      "dışındaki": 8031,
      "çocuklarına": 8032,
      "mıdır": 8033,
      "teraz": 8034,
      "çıkardı": 8035,
      "çıkarır": 8036,
      "hepsini": 8037,
      "müst": 8038,
      "müte": 8039,
      "sesini": 8040,
      "sesiyle": 8041,
      "Nedim": 8042,
      "alanın": 8043,
      "hazırladığı": 8044,
      "istemeye": 8045,
      "seçici": 8046,
      "tanıyor": 8047,
      "tanıdığım": 8048,
      "edemez": 8049,
      "kızım": 8050,
      "##ilebil": 8051,
      "bağlar": 8052,
      "ediyordu": 8053,
      "kırıldı": 8054,
      "kendinizi": 8055,
      "öğrendim": 8056,
      "türü": 8057,
      "##leştirme": 8058,
      "bunlara": 8059,
      "tümü": 8060,
      "kadınlara": 8061,
      "Aklı": 8062,
      "Akıl": 8063,
      "Aksu": 8064,
      "protest": 8065,
      "yürüm": 8066,
      "yüreği": 8067,
      "##ding": 8068,
      "best": 8069,
      "sınırı": 8070,
      "##otter": 8071,
      "Arada": 8072,
      "##eff": 8073,
      "dinlendir": 8074,
      "adamın": 8075,
      "Bizler": 8076,
      "altya": 8077,
      "Hala": 8078,
      "Halep": 8079,
      "tanır": 8080,
      "tansiyon": 8081,
      "##lığındaki": 8082,
      "kaçan": 8083,
      "kaçakçı": 8084,
      "kaçınılmaz": 8085,
      "Enerji": 8086,
      "İstanbullu": 8087,
      "mutf": 8088,
      "yalvar": 8089,
      "Musa": 8090,
      "senden": 8091,
      "yanımdaki": 8092,
      "##kemeye": 8093,
      "oyunlar": 8094,
      "kudret": 8095,
      "##varda": 8096,
      "basan": 8097,
      "bastır": 8098,
      "oturan": 8099,
      "oturur": 8100,
      "##müştür": 8101,
      "yazılar": 8102,
      "yazıyordu": 8103,
      "Sonuç": 8104,
      "eşiyle": 8105,
      "ederiz": 8106,
      "sabrı": 8107,
      "katli": 8108,
      "katlan": 8109,
      "bazılarına": 8110,
      "dilimi": 8111,
      "Özgür": 8112,
      "##duğunda": 8113,
      "##duğumda": 8114,
      "saatlik": 8115,
      "saatlerce": 8116,
      "düzenleyen": 8117,
      "arkadaşları": 8118,
      "arkadaşlarına": 8119,
      "##iddet": 8120,
      "##lemeler": 8121,
      "hareketler": 8122,
      "hareketle": 8123,
      "mesela": 8124,
      "gelişme": 8125,
      "görüşü": 8126,
      "görüşünü": 8127,
      "ayakları": 8128,
      "sahiptir": 8129,
      "kazanan": 8130,
      "kazanır": 8131,
      "kazanmış": 8132,
      "kazanmıştır": 8133,
      "kararlar": 8134,
      "kapısı": 8135,
      "kapıları": 8136,
      "yalnızlık": 8137,
      "koşup": 8138,
      "ilişkiye": 8139,
      "gazino": 8140,
      "##ektaş": 8141,
      "alındı": 8142,
      "açılıyor": 8143,
      "açılım": 8144,
      "eskiden": 8145,
      "##ozy": 8146,
      "kavur": 8147,
      "görevini": 8148,
      "sayılı": 8149,
      "##mıyoruz": 8150,
      "görünüm": 8151,
      "dikkatle": 8152,
      "Orhan": 8153,
      "Ortak": 8154,
      "gezip": 8155,
      "Kons": 8156,
      "Konuk": 8157,
      "adımı": 8158,
      "mason": 8159,
      "oraya": 8160,
      "##larımızdan": 8161,
      "##gisine": 8162,
      "komünist": 8163,
      "yakınlaş": 8164,
      "##abiliriz": 8165,
      "bölgesine": 8166,
      "bölgelerinde": 8167,
      "rahmetli": 8168,
      "soluk": 8169,
      "##isti": 8170,
      "gönderdiği": 8171,
      "gönderilen": 8172,
      "2003": 8173,
      "2004": 8174,
      "Bilg": 8175,
      "Kalan": 8176,
      "odasına": 8177,
      "odasının": 8178,
      "ulaşma": 8179,
      "yenik": 8180,
      "yenilik": 8181,
      "geceleri": 8182,
      "kurulmuş": 8183,
      "uygulamaya": 8184,
      "manev": 8185,
      "manevi": 8186,
      "##tiğinde": 8187,
      "boşal": 8188,
      "boşuna": 8189,
      "Merak": 8190,
      "Mersin": 8191,
      "ağaca": 8192,
      "müziği": 8193,
      "mahkemeye": 8194,
      "vuruş": 8195,
      "##anistan": 8196,
      "##imindeki": 8197,
      "kolaylaştır": 8198,
      "unutul": 8199,
      "unutmuş": 8200,
      "unutulmaz": 8201,
      "verilecek": 8202,
      "verilmesi": 8203,
      "ayrım": 8204,
      "ayrıldı": 8205,
      "diyal": 8206,
      "gelirse": 8207,
      "yaşandığı": 8208,
      "geçiren": 8209,
      "geçirdi": 8210,
      "geçirme": 8211,
      "İnsanın": 8212,
      "bağış": 8213,
      "##duklarını": 8214,
      "##umuzun": 8215,
      "başarılar": 8216,
      "başarıya": 8217,
      "gelebilir": 8218,
      "savaşı": 8219,
      "savaşta": 8220,
      "konusunu": 8221,
      "konusundaki": 8222,
      "dönüştü": 8223,
      "kaynar": 8224,
      "Milliyet": 8225,
      "##ARI": 8226,
      "yağm": 8227,
      "dostum": 8228,
      "gazete": 8229,
      "gazetesinin": 8230,
      "ağlamak": 8231,
      "ağabey": 8232,
      "berbat": 8233,
      "birbirlerine": 8234,
      "birbirlerinden": 8235,
      "kardeşim": 8236,
      "anlamını": 8237,
      "yakalanma": 8238,
      "yakalamış": 8239,
      "devletinin": 8240,
      "kitapları": 8241,
      "sonuçları": 8242,
      "sonuçlarını": 8243,
      "Tekstil": 8244,
      "diyoruz": 8245,
      "krem": 8246,
      "tesadü": 8247,
      "yaptığımız": 8248,
      "tamamladı": 8249,
      "oynayan": 8250,
      "rahatsızlık": 8251,
      "Bunlardan": 8252,
      "Belir": 8253,
      "Belli": 8254,
      "Sevgi": 8255,
      "Sevgil": 8256,
      "falan": 8257,
      "gizemli": 8258,
      "noktada": 8259,
      "noktaya": 8260,
      "katılacak": 8261,
      "hastalıkları": 8262,
      "okulun": 8263,
      "okulları": 8264,
      "maçlarda": 8265,
      "oluşturan": 8266,
      "Ders": 8267,
      "Mao": 8268,
      "Maden": 8269,
      "Mavi": 8270,
      "giyin": 8271,
      "sorunları": 8272,
      "teknoloji": 8273,
      "duygular": 8274,
      "duyguları": 8275,
      "değerlendirdi": 8276,
      "ateşe": 8277,
      "ateşte": 8278,
      "sarf": 8279,
      "saray": 8280,
      "soyun": 8281,
      "soyulmuş": 8282,
      "tuzlu": 8283,
      "kalkan": 8284,
      "kalkış": 8285,
      "hatırlıyorum": 8286,
      "seyre": 8287,
      "seyredi": 8288,
      "##ERİ": 8289,
      "##ERK": 8290,
      "##inceye": 8291,
      "##luğunda": 8292,
      "karıştırıp": 8293,
      "120": 8294,
      "Mahk": 8295,
      "planının": 8296,
      "sosyalizm": 8297,
      "tenure": 8298,
      "kamp": 8299,
      "kamyon": 8300,
      "toplantıda": 8301,
      "toplantıya": 8302,
      "romat": 8303,
      "üreten": 8304,
      "kullanıcı": 8305,
      "takımının": 8306,
      "Adası": 8307,
      "memur": 8308,
      "turp": 8309,
      "yumruk": 8310,
      "##cıkları": 8311,
      "parçalar": 8312,
      "Domates": 8313,
      "Harbiye": 8314,
      "Kendimi": 8315,
      "Servis": 8316,
      "acıların": 8317,
      "yıkayın": 8318,
      "İçeri": 8319,
      "İçimde": 8320,
      "katıldığı": 8321,
      "kurumların": 8322,
      "merkeze": 8323,
      "ahlak": 8324,
      "hesab": 8325,
      "hesaba": 8326,
      "zarif": 8327,
      "bilgiler": 8328,
      "bilgisi": 8329,
      "tavuk": 8330,
      "ölümü": 8331,
      "ölümüne": 8332,
      "yetersiz": 8333,
      "bölümde": 8334,
      "Haydi": 8335,
      "Hayvan": 8336,
      "doludur": 8337,
      "yuva": 8338,
      "annesine": 8339,
      "görülen": 8340,
      "görüldüğü": 8341,
      "sınıfın": 8342,
      "Ahmed": 8343,
      "alabilir": 8344,
      "atacak": 8345,
      "maruz": 8346,
      "tuhaf": 8347,
      "çorap": 8348,
      "götürdüğü": 8349,
      "tartışma": 8350,
      "tartışmaya": 8351,
      "Mücade": 8352,
      "hizmete": 8353,
      "##lülük": 8354,
      "##muyorum": 8355,
      "##ALI": 8356,
      "biliniyor": 8357,
      "milyara": 8358,
      "düşünceleri": 8359,
      "fotoğraflar": 8360,
      "atıyor": 8361,
      "çocuğa": 8362,
      "doğrultu": 8363,
      "söyleyecek": 8364,
      "saygıyla": 8365,
      "saygısız": 8366,
      "İsrailli": 8367,
      "hissediyor": 8368,
      "itibariyle": 8369,
      "fikri": 8370,
      "kilit": 8371,
      "koku": 8372,
      "kokulu": 8373,
      "rastlar": 8374,
      "rastlantı": 8375,
      "teşvik": 8376,
      "teşkil": 8377,
      "ucunu": 8378,
      "ucunda": 8379,
      "ucundan": 8380,
      "Üstün": 8381,
      "##subay": 8382,
      "yaşıyorum": 8383,
      "arttı": 8384,
      "isterseniz": 8385,
      "destekleyen": 8386,
      "avuc": 8387,
      "dalları": 8388,
      "muhab": 8389,
      "muhtıra": 8390,
      "muhtaç": 8391,
      "muhteşem": 8392,
      "doktora": 8393,
      "doktorların": 8394,
      "Güvercin": 8395,
      "nitelik": 8396,
      "niteliği": 8397,
      "sırt": 8398,
      "yoğurt": 8399,
      "çizgi": 8400,
      "##cher": 8401,
      "kurallar": 8402,
      "kurallara": 8403,
      "izlediği": 8404,
      "izleyi": 8405,
      "Hepimiz": 8406,
      "Hepsi": 8407,
      "Prog": 8408,
      "Proj": 8409,
      "Uzay": 8410,
      "mezun": 8411,
      "seyahat": 8412,
      "vakt": 8413,
      "vakıf": 8414,
      "Örg": 8415,
      "demişler": 8416,
      "kabuk": 8417,
      "kabukları": 8418,
      "yaptıktan": 8419,
      "yaptıklarını": 8420,
      "havası": 8421,
      "engelli": 8422,
      "büyüme": 8423,
      "talebe": 8424,
      "kaybetmiş": 8425,
      "köşk": 8426,
      "köşesine": 8427,
      "beklediğimiz": 8428,
      "Bizimk": 8429,
      "söylüyordu": 8430,
      "koşulları": 8431,
      "savundu": 8432,
      "demokrasi": 8433,
      "Müziği": 8434,
      "Olmaz": 8435,
      "Oldukça": 8436,
      "Sizin": 8437,
      "besin": 8438,
      "numarası": 8439,
      "Üçüncü": 8440,
      "##baycan": 8441,
      "##INDA": 8442,
      "defne": 8443,
      "okuyanlar": 8444,
      "sıkıntıları": 8445,
      "Muhterem": 8446,
      "sohbetler": 8447,
      "Görüş": 8448,
      "sütü": 8449,
      "##syonu": 8450,
      "kafası": 8451,
      "olmadığına": 8452,
      "yaşadığımız": 8453,
      "acil": 8454,
      "kelimesi": 8455,
      "çiçeğin": 8456,
      "şiddete": 8457,
      "##enkul": 8458,
      "amaçla": 8459,
      "yarattı": 8460,
      "ilişkilerini": 8461,
      "hissettim": 8462,
      "Hayat": 8463,
      "Hayatı": 8464,
      "feoda": 8465,
      "grubun": 8466,
      "kemer": 8467,
      "kopar": 8468,
      "meşhur": 8469,
      "reklam": 8470,
      "ödedi": 8471,
      "şehirlerde": 8472,
      "##anıyoruz": 8473,
      "hastanede": 8474,
      "dolaşır": 8475,
      "gülüms": 8476,
      "gülümse": 8477,
      "gülümsey": 8478,
      "tutacak": 8479,
      "ihtiyacı": 8480,
      "Cantürk": 8481,
      "Doğal": 8482,
      "elimize": 8483,
      "sektörü": 8484,
      "çalın": 8485,
      "##saydım": 8486,
      "##ETİ": 8487,
      "yaprakları": 8488,
      "1981": 8489,
      "1980": 8490,
      "1984": 8491,
      "Başbakanı": 8492,
      "saldırgan": 8493,
      "yorgunluk": 8494,
      "Önceleri": 8495,
      "yıldızları": 8496,
      "Kanun": 8497,
      "Vakıf": 8498,
      "geminin": 8499,
      "potansiy": 8500,
      "piyasa": 8501,
      "silin": 8502,
      "vücudumuz": 8503,
      "İkizler": 8504,
      "kalıcı": 8505,
      "sürecinde": 8506,
      "çalıştığım": 8507,
      "ortamında": 8508,
      "bölüştür": 8509,
      "isimlerinden": 8510,
      "babamın": 8511,
      "ekipleri": 8512,
      "Terazi": 8513,
      "mensup": 8514,
      "matema": 8515,
      "suskun": 8516,
      "yukarıda": 8517,
      "çekip": 8518,
      "kalit": 8519,
      "istifade": 8520,
      "düştüğü": 8521,
      "kısım": 8522,
      "1950": 8523,
      "yararlanarak": 8524,
      "azaldı": 8525,
      "##atılmış": 8526,
      "imkânı": 8527,
      "etkileyi": 8528,
      "bağırdı": 8529,
      "tehlikeli": 8530,
      "tehlikeye": 8531,
      "yetkilileri": 8532,
      "Alex": 8533,
      "Bazıları": 8534,
      "Nadir": 8535,
      "Yönetic": 8536,
      "cumhurbaşkanı": 8537,
      "kumar": 8538,
      "küçüm": 8539,
      "sosy": 8540,
      "Öğren": 8541,
      "öğüt": 8542,
      "İbrahim": 8543,
      "Şahin": 8544,
      "##vekili": 8545,
      "bilmediğim": 8546,
      "yerleştirin": 8547,
      "çıkarılan": 8548,
      "##larınızla": 8549,
      "bakıma": 8550,
      "bakıyordu": 8551,
      "girişimci": 8552,
      "1945": 8553,
      "sıkıya": 8554,
      "Herkesin": 8555,
      "tanıştım": 8556,
      "görüşmelerde": 8557,
      "yarışmalar": 8558,
      "Kısaca": 8559,
      "örgütlenme": 8560,
      "cesaretini": 8561,
      "seferinde": 8562,
      "Berlin": 8563,
      "Kerim": 8564,
      "Oğlak": 8565,
      "Sami": 8566,
      "Telefon": 8567,
      "boğaz": 8568,
      "güreş": 8569,
      "haşlayın": 8570,
      "itiraz": 8571,
      "lerde": 8572,
      "süzün": 8573,
      "türkü": 8574,
      "çöl": 8575,
      "##rosunda": 8576,
      "başımıza": 8577,
      "geçerli": 8578,
      "sergilen": 8579,
      "zorluyor": 8580,
      "öğrencilere": 8581,
      "gönüllü": 8582,
      "Milletvekili": 8583,
      "fırsatını": 8584,
      "cezaev": 8585,
      "Balkan": 8586,
      "Cami": 8587,
      "Yanında": 8588,
      "Yunanistan": 8589,
      "Yaşamı": 8590,
      "ayıra": 8591,
      "keyif": 8592,
      "titiz": 8593,
      "zannet": 8594,
      "zihin": 8595,
      "yapabilirsiniz": 8596,
      "anımsa": 8597,
      "aktarılan": 8598,
      "İnanılmaz": 8599,
      "yöneticisi": 8600,
      "gezeg": 8601,
      "ayrıntılı": 8602,
      "iyileştir": 8603,
      "memnuniyet": 8604,
      "Müdürü": 8605,
      "Ağabey": 8606,
      "Ragıp": 8607,
      "Yaklaşık": 8608,
      "alabildiğine": 8609,
      "bütç": 8610,
      "idare": 8611,
      "kuytu": 8612,
      "rövan": 8613,
      "reform": 8614,
      "uğruna": 8615,
      "##severler": 8616,
      "alkol": 8617,
      "yeryüzüne": 8618,
      "anlatırken": 8619,
      "olasılıkla": 8620,
      "bomba": 8621,
      "severim": 8622,
      "sevinçle": 8623,
      "yaklaşım": 8624,
      "yaklaşımı": 8625,
      "sanayi": 8626,
      "harcama": 8627,
      "hazırlıklarını": 8628,
      "Neredeyse": 8629,
      "hastalığı": 8630,
      "kaliteli": 8631,
      "Keloğlan": 8632,
      "Patates": 8633,
      "Tayyip": 8634,
      "Tıpkı": 8635,
      "boncuk": 8636,
      "düğün": 8637,
      "rehber": 8638,
      "Çağdaş": 8639,
      "öfk": 8640,
      "şeref": 8641,
      "şahit": 8642,
      "##tümser": 8643,
      "##fedil": 8644,
      "kabiliyet": 8645,
      "dahil": 8646,
      "görüyoruz": 8647,
      "işbirliği": 8648,
      "kurtulmak": 8649,
      "Kendini": 8650,
      "Kapıyı": 8651,
      "Tarihi": 8652,
      "sözcükleri": 8653,
      "Japonya": 8654,
      "Dönem": 8655,
      "Federasyonu": 8656,
      "Kişisel": 8657,
      "Soğuk": 8658,
      "Yeter": 8659,
      "küresel": 8660,
      "notlar": 8661,
      "pozisyon": 8662,
      "vadede": 8663,
      "##rimenkul": 8664,
      "Ermenistan": 8665,
      "Sevgili": 8666,
      "işlevini": 8667,
      "faktörler": 8668,
      "George": 8669,
      "Körfez": 8670,
      "Timur": 8671,
      "Vekili": 8672,
      "bürokra": 8673,
      "hüzün": 8674,
      "hediye": 8675,
      "sınav": 8676,
      "##emeyiz": 8677,
      "yahut": 8678,
      "görünüyor": 8679,
      "olağanüstü": 8680,
      "tavada": 8681,
      "dolaysız": 8682,
      "gözyaş": 8683,
      "manzara": 8684,
      "##elendiren": 8685,
      "kısmını": 8686,
      "sebebi": 8687,
      "peyniri": 8688,
      "Hıristiyan": 8689,
      "Çalışma": 8690,
      "Bosna": 8691,
      "Disney": 8692,
      "Galiba": 8693,
      "Kilis": 8694,
      "Kocaeli": 8695,
      "Nâzım": 8696,
      "bıçak": 8697,
      "bisiklet": 8698,
      "cilt": 8699,
      "hitap": 8700,
      "hormon": 8701,
      "kestir": 8702,
      "lüks": 8703,
      "anahtar": 8704,
      "önümüzdeki": 8705,
      "##ciğer": 8706,
      "toprağa": 8707,
      "yardımıyla": 8708,
      "bekleyiş": 8709,
      "##kestra": 8710,
      "kumaş": 8711,
      "Toplantıda": 8712,
      "kilometre": 8713,
      "avukat": 8714,
      "istemiştim": 8715,
      "yurtdışına": 8716,
      "Bulgaristan": 8717,
      "tasarruf": 8718,
      "objektif": 8719,
      "civarında": 8720,
      "Azerbaycan": 8721,
      "Coşkun": 8722,
      "Hilmi": 8723,
      "Kanada": 8724,
      "Leyla": 8725,
      "Suyunu": 8726,
      "Times": 8727,
      "eylemi": 8728,
      "fatura": 8729,
      "mizah": 8730,
      "tecrüb": 8731,
      "video": 8732,
      "Çabuk": 8733,
      "İÇİN": 8734,
      "ızgara": 8735,
      "##andevu": 8736,
      "kabuğu": 8737,
      "##stralya": 8738,
      "seviyede": 8739,
      "gözaltına": 8740,
      "köpür": 8741,
      "yükseliyor": 8742,
      "İslâm": 8743,
      "otorite": 8744,
      "Kalabalık": 8745,
      "geleceğine": 8746,
      "doğrultusunda": 8747,
      "Afganistan": 8748,
      "nihai": 8749,
      "iktidara": 8750,
      "gürültü": 8751,
      "SALATASI": 8752,
      "gideceğiz": 8753,
      "Yugoslavya": 8754,
      "Atina": 8755,
      "Hükümet": 8756,
      "Latife": 8757,
      "MGK": 8758,
      "Suriye": 8759,
      "Sarkozy": 8760,
      "Yarışması": 8761,
      "büsbütün": 8762,
      "dilerim": 8763,
      "fındık": 8764,
      "hürmet": 8765,
      "helikopter": 8766,
      "miras": 8767,
      "mırıldan": 8768,
      "pratik": 8769,
      "Çukurova": 8770,
      "Çelebi": 8771,
      "çelişk": 8772,
      "şimdilik": 8773,
      "##general": 8774,
      "##mışız": 8775,
      "insaf": 8776,
      "akşamı": 8777,
      "magazin": 8778,
      "Arnavut": 8779,
      "potansiyel": 8780,
      "\"..": 8781,
      "02": 8782,
      "23": 8783,
      "61": 8784,
      "65": 8785,
      "600": 8786,
      "77": 8787,
      "750": 8788,
      "84": 8789,
      "90": 8790,
      "95": 8791,
      "?'": 8792,
      "AR": 8793,
      "AV": 8794,
      "Air": 8795,
      "Aya": 8796,
      "Abi": 8797,
      "Aşık": 8798,
      "Afer": 8799,
      "Alış": 8800,
      "Acele": 8801,
      "Bi": 8802,
      "BB": 8803,
      "Bon": 8804,
      "Bes": 8805,
      "Baki": 8806,
      "Bunda": 8807,
      "Babil": 8808,
      "Boz": 8809,
      "Beb": 8810,
      "Biber": 8811,
      "Bülen": 8812,
      "Ce": 8813,
      "Co": 8814,
      "Cin": 8815,
      "Ces": 8816,
      "Cha": 8817,
      "Cap": 8818,
      "Clay": 8819,
      "Chi": 8820,
      "Che": 8821,
      "Celal": 8822,
      "Dam": 8823,
      "Dol": 8824,
      "Düm": 8825,
      "Dağ": 8826,
      "Dili": 8827,
      "Dep": 8828,
      "Deli": 8829,
      "Dök": 8830,
      "Dört": 8831,
      "Danış": 8832,
      "DİK": 8833,
      "Diyar": 8834,
      "DOĞ": 8835,
      "Dick": 8836,
      "Dördüncü": 8837,
      "Eb": 8838,
      "Eh": 8839,
      "EN": 8840,
      "Eti": 8841,
      "Emek": 8842,
      "Ege": 8843,
      "Efes": 8844,
      "Fa": 8845,
      "Fü": 8846,
      "Fı": 8847,
      "FI": 8848,
      "Fet": 8849,
      "Fey": 8850,
      "Fal": 8851,
      "Fark": 8852,
      "Fre": 8853,
      "Fang": 8854,
      "Ge": 8855,
      "Gu": 8856,
      "GÜ": 8857,
      "Gor": 8858,
      "Gay": 8859,
      "Gec": 8860,
      "Günü": 8861,
      "Hü": 8862,
      "HO": 8863,
      "Hes": 8864,
      "Haş": 8865,
      "Hız": 8866,
      "Hap": 8867,
      "Hedef": 8868,
      "Hukuk": 8869,
      "Is": 8870,
      "II": 8871,
      "Işıl": 8872,
      "Jan": 8873,
      "KO": 8874,
      "Kİ": 8875,
      "KÖ": 8876,
      "Kin": 8877,
      "Kun": 8878,
      "Kra": 8879,
      "Kaş": 8880,
      "Kuz": 8881,
      "Küç": 8882,
      "Kaf": 8883,
      "Kele": 8884,
      "Kişi": 8885,
      "Kredi": 8886,
      "Kesin": 8887,
      "Kriz": 8888,
      "Lin": 8889,
      "Lak": 8890,
      "Lev": 8891,
      "Lüt": 8892,
      "Lenin": 8893,
      "Mi": 8894,
      "Mo": 8895,
      "Mim": 8896,
      "Mat": 8897,
      "Mik": 8898,
      "Mem": 8899,
      "Muk": 8900,
      "Mağ": 8901,
      "MİT": 8902,
      "MAD": 8903,
      "Mumcu": 8904,
      "Nes": 8905,
      "Nit": 8906,
      "Niye": 8907,
      "Neş": 8908,
      "Nez": 8909,
      "Nokta": 8910,
      "Nevş": 8911,
      "Neyse": 8912,
      "Nesin": 8913,
      "Novo": 8914,
      "OK": 8915,
      "Oba": 8916,
      "Pr": 8917,
      "Pan": 8918,
      "Pek": 8919,
      "Piş": 8920,
      "Paz": 8921,
      "Para": 8922,
      "Park": 8923,
      "Pazar": 8924,
      "Pınar": 8925,
      "Potter": 8926,
      "Qu": 8927,
      "Rak": 8928,
      "Rek": 8929,
      "Ral": 8930,
      "Ras": 8931,
      "Rama": 8932,
      "Rüya": 8933,
      "RTÜK": 8934,
      "So": 8935,
      "Sak": 8936,
      "Sun": 8937,
      "Sat": 8938,
      "Sem": 8939,
      "Süm": 8940,
      "Sön": 8941,
      "Salı": 8942,
      "Sos": 8943,
      "Sabi": 8944,
      "Sri": 8945,
      "Sist": 8946,
      "Satan": 8947,
      "Soğan": 8948,
      "SAN": 8949,
      "Seks": 8950,
      "Shar": 8951,
      "Siv": 8952,
      "Tor": 8953,
      "Tey": 8954,
      "Tır": 8955,
      "Tab": 8956,
      "Tark": 8957,
      "Tic": 8958,
      "Toz": 8959,
      "Tali": 8960,
      "TAR": 8961,
      "Transfer": 8962,
      "Tamam": 8963,
      "Utan": 8964,
      "Usta": 8965,
      "Vİ": 8966,
      "VAR": 8967,
      "Wil": 8968,
      "Was": 8969,
      "Yo": 8970,
      "YÖ": 8971,
      "Yür": 8972,
      "Yay": 8973,
      "Yoğ": 8974,
      "Yıldı": 8975,
      "Yayın": 8976,
      "Yirmi": 8977,
      "Zeki": 8978,
      "Ziya": 8979,
      "Zengin": 8980,
      "Zafer": 8981,
      "aman": 8982,
      "adil": 8983,
      "atık": 8984,
      "alama": 8985,
      "avar": 8986,
      "ayıp": 8987,
      "ayağı": 8988,
      "bi": 8989,
      "bl": 8990,
      "biy": 8991,
      "bok": 8992,
      "balı": 8993,
      "berek": 8994,
      "bast": 8995,
      "belediye": 8996,
      "ce": 8997,
      "cik": 8998,
      "cüz": 8999,
      "ceh": 9000,
      "com": 9001,
      "cih": 9002,
      "cumartesi": 9003,
      "cömert": 9004,
      "casus": 9005,
      "di": 9006,
      "dor": 9007,
      "dinin": 9008,
      "dop": 9009,
      "diyet": 9010,
      "diğ": 9011,
      "danış": 9012,
      "dij": 9013,
      "eda": 9014,
      "est": 9015,
      "eğr": 9016,
      "fin": 9017,
      "far": 9018,
      "fiş": 9019,
      "füz": 9020,
      "fas": 9021,
      "fest": 9022,
      "fina": 9023,
      "fiyatı": 9024,
      "feth": 9025,
      "gri": 9026,
      "gümüş": 9027,
      "he": 9028,
      "hı": 9029,
      "ho": 9030,
      "hev": 9031,
      "huy": 9032,
      "hip": 9033,
      "hoy": 9034,
      "hüv": 9035,
      "ib": 9036,
      "ima": 9037,
      "ika": 9038,
      "ikin": 9039,
      "ke": 9040,
      "kü": 9041,
      "kli": 9042,
      "kel": 9043,
      "kürk": 9044,
      "küt": 9045,
      "keç": 9046,
      "küp": 9047,
      "krav": 9048,
      "kuzu": 9049,
      "kred": 9050,
      "lek": 9051,
      "lor": 9052,
      "lara": 9053,
      "lilerin": 9054,
      "mum": 9055,
      "muz": 9056,
      "mana": 9057,
      "müs": 9058,
      "mih": 9059,
      "maddi": 9060,
      "nu": 9061,
      "nö": 9062,
      "nik": 9063,
      "nem": 9064,
      "nine": 9065,
      "nam": 9066,
      "nab": 9067,
      "neyin": 9068,
      "ov": 9069,
      "oya": 9070,
      "otu": 9071,
      "odak": 9072,
      "olimpiyat": 9073,
      "pür": 9074,
      "pis": 9075,
      "pap": 9076,
      "pom": 9077,
      "plat": 9078,
      "pant": 9079,
      "prop": 9080,
      "plaket": 9081,
      "ra": 9082,
      "rok": 9083,
      "rit": 9084,
      "razı": 9085,
      "rektör": 9086,
      "rock": 9087,
      "randevu": 9088,
      "sın": 9089,
      "sis": 9090,
      "sük": 9091,
      "saman": 9092,
      "sım": 9093,
      "sep": 9094,
      "sark": 9095,
      "skan": 9096,
      "sper": 9097,
      "süb": 9098,
      "tü": 9099,
      "tir": 9100,
      "tra": 9101,
      "taz": 9102,
      "tüt": 9103,
      "tütün": 9104,
      "tarım": 9105,
      "trav": 9106,
      "ur": 9107,
      "usan": 9108,
      "vi": 9109,
      "van": 9110,
      "vat": 9111,
      "vok": 9112,
      "vol": 9113,
      "vız": 9114,
      "vajina": 9115,
      "vizyon": 9116,
      "yem": 9117,
      "yos": 9118,
      "yep": 9119,
      "yiğ": 9120,
      "zeki": 9121,
      "Çö": 9122,
      "Çap": 9123,
      "Çoğu": 9124,
      "Çelik": 9125,
      "ÇOK": 9126,
      "Çeşit": 9127,
      "Ök": 9128,
      "Öde": 9129,
      "Öca": 9130,
      "Ölü": 9131,
      "Öbür": 9132,
      "Üz": 9133,
      "âdeta": 9134,
      "çu": 9135,
      "çan": 9136,
      "çem": 9137,
      "çam": 9138,
      "çelik": 9139,
      "çifte": 9140,
      "üş": 9141,
      "ümit": 9142,
      "İL": 9143,
      "İN": 9144,
      "İM": 9145,
      "İleri": 9146,
      "İliş": 9147,
      "İçi": 9148,
      "İddi": 9149,
      "İpek": 9150,
      "İlişk": 9151,
      "İtti": 9152,
      "İlahi": 9153,
      "ım": 9154,
      "Şar": 9155,
      "Şöyle": 9156,
      "Şap": 9157,
      "Şeh": 9158,
      "Şef": 9159,
      "Şirket": 9160,
      "Şiddet": 9161,
      "şur": 9162,
      "şal": 9163,
      "şam": 9164,
      "şark": 9165,
      "şov": 9166,
      "şaka": 9167,
      "şarap": 9168,
      "şehri": 9169,
      "##ea": 9170,
      "##emeyecek": 9171,
      "##eyağı": 9172,
      "##nu": 9173,
      "##ner": 9174,
      "##nut": 9175,
      "##ima": 9176,
      "##ivali": 9177,
      "##zeli": 9178,
      "##zani": 9179,
      "##ain": 9180,
      "##alanı": 9181,
      "##aganda": 9182,
      "##şan": 9183,
      "##şiv": 9184,
      "##şınızda": 9185,
      "##ularak": 9186,
      "##uyordum": 9187,
      "##ugen": 9188,
      "##rin": 9189,
      "##rını": 9190,
      "##rini": 9191,
      "##ruz": 9192,
      "##ranı": 9193,
      "##rinin": 9194,
      "##rına": 9195,
      "##rede": 9196,
      "##resini": 9197,
      "##th": 9198,
      "##tınız": 9199,
      "##bün": 9200,
      "##bon": 9201,
      "##bey": 9202,
      "##bum": 9203,
      "##bini": 9204,
      "##bine": 9205,
      "##bında": 9206,
      "##bas": 9207,
      "##banı": 9208,
      "##biyle": 9209,
      "##bunun": 9210,
      "##binden": 9211,
      "##bayı": 9212,
      "##beli": 9213,
      "##bre": 9214,
      "##banın": 9215,
      "##bikat": 9216,
      "##bükü": 9217,
      "##yu": 9218,
      "##yeni": 9219,
      "##yesi": 9220,
      "##yevi": 9221,
      "##kiş": 9222,
      "##kini": 9223,
      "##kab": 9224,
      "##kaz": 9225,
      "##kının": 9226,
      "##kım": 9227,
      "##kuyu": 9228,
      "##lon": 9229,
      "##line": 9230,
      "##lına": 9231,
      "##lop": 9232,
      "##lüy": 9233,
      "##lunun": 9234,
      "##lilerin": 9235,
      "##dini": 9236,
      "##dında": 9237,
      "##dol": 9238,
      "##dro": 9239,
      "##dyo": 9240,
      "##dünüz": 9241,
      "##ıda": 9242,
      "##ılacak": 9243,
      "##ğinin": 9244,
      "##ğunun": 9245,
      "##ost": 9246,
      "##mine": 9247,
      "##minde": 9248,
      "##minin": 9249,
      "##mara": 9250,
      "##miyordum": 9251,
      "##mud": 9252,
      "##hun": 9253,
      "##hum": 9254,
      "##hay": 9255,
      "##hol": 9256,
      "##hret": 9257,
      "##haba": 9258,
      "##hhat": 9259,
      "##hekim": 9260,
      "##cun": 9261,
      "##cim": 9262,
      "##cay": 9263,
      "##cında": 9264,
      "##cına": 9265,
      "##cül": 9266,
      "##ceki": 9267,
      "##cusu": 9268,
      "##che": 9269,
      "##cisinin": 9270,
      "##ciliği": 9271,
      "##söz": 9272,
      "##sko": 9273,
      "##spres": 9274,
      "##sfel": 9275,
      "##gh": 9276,
      "##gir": 9277,
      "##gur": 9278,
      "##gon": 9279,
      "##giz": 9280,
      "##gut": 9281,
      "##gus": 9282,
      "##göz": 9283,
      "##graf": 9284,
      "##guluyor": 9285,
      "##vak": 9286,
      "##vüz": 9287,
      "##veni": 9288,
      "##vez": 9289,
      "##vri": 9290,
      "##fan": 9291,
      "##ffak": 9292,
      "##çlar": 9293,
      "##çık": 9294,
      "##çede": 9295,
      "##çisi": 9296,
      "##çuluk": 9297,
      "##çasına": 9298,
      "##po": 9299,
      "##pil": 9300,
      "##paz": 9301,
      "##TAN": 9302,
      "##AĞ": 9303,
      "##HK": 9304,
      "##jen": 9305,
      "##İÇ": 9306,
      "##LT": 9307,
      "##RET": 9308,
      "##99": 9309,
      "##90": 9310,
      "##EO": 9311,
      "##EZ": 9312,
      "##UZ": 9313,
      "##CO": 9314,
      "##Cİ": 9315,
      "##CI": 9316,
      "##ZL": 9317,
      "##DI": 9318,
      "##DAM": 9319,
      "##IZ": 9320,
      "##MÜ": 9321,
      "##FT": 9322,
      "##latır": 9323,
      "##latan": 9324,
      "##lacağı": 9325,
      "##laban": 9326,
      "##lamayacak": 9327,
      "##ladıktan": 9328,
      "##ladıklarını": 9329,
      "##lacağız": 9330,
      "##eriz": 9331,
      "##anları": 9332,
      "##ındak": 9333,
      "##ennem": 9334,
      "##irim": 9335,
      "##irse": 9336,
      "##irüs": 9337,
      "##irsiniz": 9338,
      "##arya": 9339,
      "##arif": 9340,
      "##arlarında": 9341,
      "##aryo": 9342,
      "##arsu": 9343,
      "##aker": 9344,
      "##aklık": 9345,
      "##akkale": 9346,
      "##ille": 9347,
      "##illerini": 9348,
      "##ilmez": 9349,
      "##ilmişti": 9350,
      "##ilmiştir": 9351,
      "##ilton": 9352,
      "##mas": 9353,
      "##mail": 9354,
      "##malara": 9355,
      "##masi": 9356,
      "##malarının": 9357,
      "##maye": 9358,
[...]
